the 347236
, 345395
. 243265
of 166809
to 166516
and 155656
in 123107
a 109912
that 79511
is 75188
’ 70828
s 61335
for 53059
– 42355
it 39658
as 39365
be 36924
on 34516
are 33781
with 33679
not 33500
but 31327
by 31251
has 28856
have 27930
will 24933
this 24154
from 23175
its 22289
their 21785
more 21757
“ 21061
” 20795
an 20494
they 18773
at 18659
us 17895
was 17882
would 17734
or 17725
can 16384
which 15512
countries 15060
than 15058
world 14848
china 13568
) 13527
( 13513
economic 12096
new 12040
if 12001
all 11972
been 11879
% 11869
one 11807
we 11710
only 10362
government 10067
there 9889
such 9836
his 9831
global 9781
other 9758
should 9702
; 9686
also 9525
growth 9514
even 9510
so 9509
no 9447
most 9316
when 9277
: 9258
about 9155
political 9086
could 9014
who 8987
now 8886
many 8849
people 8810
europe 8740
these 8590
what 8368
some 8359
were 8045
years 7817
he 7802
country 7794
financial 7789
european 7405
may 7106
economy 7085
? 6954
must 6953
do 6934
international 6753
into 6671
while 6664
policy 6659
much 6518
time 6512
had 6489
over 6441
states 6417
like 6288
out 6247
them 6175
because 5991
united 5887
power 5863
after 5854
crisis 5724
up 5690
those 5688
i 5663
eu 5630
first 5419
between 5285
two 5281
public 5273
year 5256
america 5170
president 5105
how 5089
just 4915
both 4907
our 4906
war 4827
any 4801
need 4768
state 4708
well 4686
today 4651
against 4557
indeed 4543
trade 4493
last 4474
change 4425
system 4420
national 4417
market 4361
bank 4343
leaders 4333
investment 4327
debt 4319
way 4305
$ 4294
development 4255
russia 4252
governments 4222
less 4176
banks 4167
since 4148
too 4096
make 4079
markets 4069
become 4039
example 4024
own 3987
security 3982
central 3968
support 3909
recent 3883
far 3839
where 3820
yet 3783
japan 3768
important 3756
rates 3727
social 3726
still 3717
policies 3673
military 3655
interest 3639
does 3577
long 3564
future 3557
including 3522
through 3483
india 3473
union 3448
without 3441
chinese 3427
economies 3421
being 3420
same 3401
rate 3373
american 3335
capital 3278
iran 3269
foreign 3238
germany 3232
might 3220
likely 3214
energy 3211
another 3209
nuclear 3194
fiscal 3185
high 3181
under 3177
given 3141
real 3139
major 3135
prices 3134
end 3116
monetary 3115
large 3111
then 3106
take 3096
work 3071
made 3057
already 3044
better 3038
billion 3023
good 3012
gdp 2977
current 2974
problem 2964
tax 2939
did 2937
rather 2936
use 2934
right 2917
among 2906
trump 2901
result 2897
t 2890
risk 2881
fact 2879
health 2820
often 2806
demand 2801
help 2772
climate 2770
part 2768
before 2764
why 2749
course 2708
party 2698
very 2693
three 2660
east 2659
order 2648
israel 2641
whether 2635
institutions 2634
south 2624
region 2614
oil 2605
during 2580
moreover 2564
around 2550
obama 2548
eurozone 2543
human 2529
million 2520
money 2504
asia 2502
increase 2486
role 2486
past 2465
companies 2464
though 2462
few 2455
least 2453
next 2435
little 2428
middle 2419
back 2403
minister 2402
education 2398
income 2392
great 2386
however 2380
democracy 2370
higher 2368
private 2341
thus 2338
developing 2325
approach 2305
needs 2301
problems 2301
especially 2288
down 2284
needed 2279
second 2275
spending 2274
process 2270
case 2266
africa 2250
rise 2233
others 2231
toward 2226
north 2222
inflation 2218
reform 2209
remains 2182
you 2178
france 2175
clear 2170
women 2165
's 2164
almost 2140
domestic 2133
korea 2126
agreement 2124
business 2121
strong 2121
iraq 2112
within 2105
reforms 2101
means 2099
efforts 2097
come 2095
democratic 2091
further 2089
peace 2086
costs 2075
decades 2065
west 2064
different 2059
despite 2054
price 2053
rights 2051
continue 2048
poor 2041
citizens 2031
point 2029
remain 2007
sector 1993
seems 1993
ago 1989
key 1981
election 1979
long-term 1976
growing 1975
members 1971
potential 1971
increasingly 1969
population 1966
every 1964
control 1950
benefits 1946
labor 1946
particularly 1937
difficult 1933
law 1933
each 1932
currency 1927
enough 1919
put 1919
provide 1918
workers 1904
greater 1901
best 1897
led 1888
itself 1887
question 1886
recently 1883
low 1874
used 1872
regional 1865
emerging 1862
services 1858
her 1852
greece 1846
politics 1846
regime 1845
once 1843
longer 1837
stability 1835
& 1834
set 1834
prime 1833
resources 1831
interests 1826
history 1823
able 1812
share 1808
turkey 1806
free 1803
terms 1800
children 1795
my 1794
never 1789
level 1788
number 1788
former 1786
instead 1773
life 1764
infrastructure 1755
force 1752
say 1748
strategy 1747
perhaps 1735
small 1735
research 1733
again 1730
place 1727
progress 1719
reduce 1714
based 1710
western 1710
forces 1708
impact 1708
off 1703
possible 1703
face 1697
society 1697
reason 1693
effective 1691
fund 1684
cost 1681
investors 1678
finance 1677
jobs 1677
according 1676
risks 1676
per 1674
making 1672
common 1669
syria 1664
access 1652
action 1651
local 1648
member 1647
rising 1647
issues 1642
together 1633
challenges 1627
want 1626
lead 1624
arab 1620
unemployment 1620
times 1615
community 1614
leadership 1614
true 1611
create 1610
administration 1609
conflict 1609
serious 1606
left 1598
simply 1590
themselves 1588
euro 1583
sense 1583
him 1582
value 1582
program 1575
nations 1573
see 1562
view 1561
believe 1559
get 1554
until 1554
lower 1553
go 1550
know 1547
levels 1536
early 1534
french 1520
significant 1515
home 1503
credit 1502
un 1499
challenge 1494
century 1491
across 1484
poverty 1484
similar 1483
deal 1482
increased 1480
beyond 1477
british 1477
rules 1477
measures 1472
putin 1472
issue 1470
bush 1465
ensure 1463
big 1457
ever 1455
find 1455
employment 1448
technology 1447
dollar 1446
budget 1439
data 1439
2008 1427
systems 1413
always 1410
ukraine 1408
pay 1406
cooperation 1405
hard 1405
britain 1403
fed 1403
require 1402
threat 1402
success 1399
address 1395
federal 1391
rule 1389
food 1388
decade 1387
several 1380
seem 1377
turn 1377
imf 1375
parties 1372
information 1370
lack 1370
german 1365
russian 1364
plan 1360
five 1359
exchange 1357
opportunity 1348
response 1348
model 1345
un@@ 1345
areas 1343
young 1342
open 1341
general 1339
day 1336
conditions 1334
politicians 1330
developed 1329
third 1329
short 1328
officials 1326
called 1324
firms 1316
hope 1316
she 1316
consider 1308
move 1308
americans 1307
council 1304
policymakers 1304
said 1304
act 1303
half 1303
groups 1302
sustainable 1299
having 1298
pressure 1296
average 1292
consequences 1291
deficit 1290
whose 1289
leader 1288
run 1288
campaign 1284
re@@ 1284
old 1283
done 1282
banking 1281
assets 1280
group 1273
production 1272
advanced 1271
pakistan 1271
taken 1271
return 1269
balance 1268
leading 1267
finally 1262
position 1261
focus 1260
effort 1257
consumption 1254
requires 1243
strategic 1242
uk 1241
effects 1239
failed 1238
fall 1238
annual 1234
productivity 1230
changes 1227
ways 1226
care 1225
voters 1225
structural 1224
months 1223
water 1221
created 1220
largely 1216
weapons 1215
cause 1214
doing 1210
largest 1210
opposition 1209
although 1203
term 1199
ability 1198
main 1198
full 1196
influence 1195
massive 1195
relations 1195
failure 1194
emissions 1192
four 1192
debate 1191
start 1191
powerful 1190
asian 1189
programs 1188
violence 1188
revolution 1180
think 1178
rest 1176
alone 1174
economists 1171
20 1168
form 1168
islamic 1166
period 1165
egypt 1164
globalization 1159
funds 1156
capacity 1155
industry 1153
civil 1151
goods 1151
news 1147
aid 1146
nearly 1146
prevent 1146
wealth 1146
majority 1145
york 1145
ecb 1143
either 1143
necessary 1142
defense 1139
media 1139
top 1139
bring 1136
inequality 1133
single 1133
decline 1131
away 1130
expected 1129
increasing 1129
lives 1129
-@@ 1128
lost 1128
fear 1123
makes 1123
elections 1122
idea 1121
governance 1120
nothing 1118
official 1118
rich 1118
shift 1118
japanese 1116
supply 1115
achieve 1112
decision 1109
worse 1109
particular 1108
recovery 1108
later 1107
report 1107
working 1107
natural 1106
taking 1105
agenda 1104
seen 1101
began 1100
italy 1100
exports 1098
bad 1096
give 1096
job 1096
modern 1094
negotiations 1094
following 1093
nor 1093
benefit 1090
close 1090
environment 1088
commission 1086
innovation 1083
found 1082
solution 1080
keep 1074
taxes 1071
age 1068
something 1066
afghanistan 1065
play 1064
things 1060
recession 1054
improve 1053
brazil 1049
living 1046
using 1046
look 1045
experience 1044
owing 1044
total 1043
bonds 1042
comes 1039
environmental 1039
evidence 1039
treaty 1038
kingdom 1036
effect 1034
month 1034
became 1031
allow 1030
huge 1030
legal 1029
sure 1024
really 1023
palestinian 1022
clearly 1020
london 1018
probably 1017
behind 1012
popular 1012
highly 1011
values 1010
presidential 1007
rapid 1007
congress 1006
authorities 1005
2010 1004
vote 1000
integration 999
build 997
fundamental 996
investments 996
side 996
avoid 995
freedom 993
situation 991
live 990
opportunities 990
powers 989
movement 987
protect 987
trillion 984
goal 982
traditional 980
kind 977
contrast 975
cases 973
gas 973
step 973
coming 971
reality 971
hold 970
actually 969
call 969
collapse 968
deficits 967
saudi 967
successful 967
above 964
corruption 961
individual 960
matter 960
soon 960
late 956
boost 955
reserve 955
held 954
reducing 952
limited 951
50 949
account 949
organization 948
muslim 943
status 942
certainly 941
land 941
known 935
wrong 934
attention 931
reach 930
# 925
larger 925
took 924
cities 923
soviet 923
relatively 920
standards 918
here 917
refugees 915
include 913
competition 910
financing 909
industrial 909
religious 909
house 907
let 906
concerns 904
outcome 904
currently 901
responsibility 901
understand 900
line 899
words 899
behavior 898
creating 897
meeting 897
- 894
latin 893
direct 892
mexico 892
critical 891
building 889
mean 889
decisions 888
fight 886
quickly 886
along 883
confidence 883
everyone 882
city 881
results 881
30 880
authority 878
corporate 878
goals 878
elsewhere 876
millions 875
produce 875
office 874
unlikely 873
so-called 872
cut 871
relationship 871
commitment 869
easy 869
external 869
1 868
roughly 866
worldwide 866
10 865
came 865
attacks 864
cuts 863
science 863
weak 863
beginning 860
technologies 860
established 859
2015 858
stop 858
caused 856
hand 856
independence 855
spain 855
african 853
develop 853
meet 853
meanwhile 852
management 849
path 847
similarly 847
becoming 846
show 843
barack 841
reserves 841
greek 840
intervention 840
offer 839
dangerous 838
leave 838
projects 838
days 836
continued 835
europeans 835
basic 832
outside 830
paris 830
sanctions 828
nato 827
products 827
economics 824
entire 824
alternative 823
relative 820
framework 819
recognize 819
reasons 818
washington 817
internet 814
ten 814
death 812
men 812
thing 812
court 809
company 808
certain 807
2 806
austerity 805
organizations 802
disease 801
existing 801
performance 800
deep 799
stock 799
helped 798
choice 796
negative 796
2012 795
brought 794
project 793
fully 792
accept 791
victory 791
businesses 790
creation 790
maintain 790
moral 789
essential 788
school 787
allies 786
asset 786
raise 786
stimulus 786
consensus 785
forced 784
source 783
ultimately 783
unfortunately 783
liberal 781
complex 780
protection 778
eventually 777
family 777
generation 777
output 776
crises 775
independent 774
2011 772
proposed 772
target 772
me 771
non-@@ 771
prosperity 770
thereby 770
won 769
individuals 768
parliament 768
summit 768
2013 767
claim 766
israeli 766
allowed 765
required 765
overall 763
2009 762
below 762
scale 762
basis 761
additional 758
insurance 757
knowledge 757
positive 757
eastern 756
factors 756
throughout 755
arabia 754
technological 752
answer 751
continues 751
provided 751
republican 751
'' 749
available 749
carbon 748
1990 746
university 746
concern 744
september 744
rapidly 742
160 741
societies 741
attack 739
sea 735
service 734
solutions 734
area 733
savings 733
terrorism 731
15 730
amount 730
justice 730
center 729
don 728
funding 728
gains 728
transition 728
era 726
facing 726
short-term 724
neither 723
damage 722
internal 722
agreed 721
al 720
argue 720
households 720
sometimes 720
questions 718
simple 718
indian 717
man 717
personal 716
forward 714
incentives 713
advantage 712
borders 712
willing 712
2014 711
aimed 711
likewise 710
nature 710
providing 709
talks 708
effectively 706
stronger 706
claims 705
institutional 705
thought 704
wages 704
ahead 703
increases 703
loss 701
export 699
ii 699
grow 698
six 698
cultural 696
hamas 696
thinking 695
impossible 694
reduced 693
ideas 692
40 691
appears 691
culture 691
flows 691
gain 691
vision 690
activities 689
army 689
contrary 688
elected 688
housing 688
loans 688
crucial 687
diplomatic 687
quality 686
study 686
consumers 685
points 685
matters 683
moment 683
reached 683
widely 683
communities 682
net 682
partners 682
expect 681
turned 681
events 679
obvious 679
k@@ 678
regulation 678
stable 678
politically 677
shared 676
industries 675
whole 673
losses 672
sectors 671
dollars 670
trying 670
reduction 669
saving 669
previous 668
directly 667
significantly 667
neighbors 666
palestinians 664
extreme 663
seek 663
gap 662
special 661
suggests 661
begin 660
chance 660
class 660
initiative 660
regions 660
responsible 660
conference 659
parts 658
unless 658
followed 657
understanding 657
burden 656
liquidity 656
trust 656
competitive 654
follow 653
skills 652
slow 652
equity 650
constitution 649
clinton 648
earlier 648
fail 648
terrorist 648
seeking 647
core 646
warming 646
in@@ 644
agreements 643
air 643
brexit 643
manufacturing 643
sovereign 641
wants 640
feel 638
assistance 637
respect 637
save 637
difference 636
expansion 636
compared 635
wars 634
focused 632
committed 631
driven 631
easily 631
plans 631
2007 630
excessive 630
historical 630
scientific 630
going 629
consumer 628
coalition 627
seemed 627
primary 626
secretary 626
cold 625
your 625
sides 624
treatment 623
border 622
syrian 622
lebanon 621
bilateral 620
depression 620
establish 619
limits 619
regulatory 619
legitimacy 618
standard 618
drug 617
lending 617
produced 617
actions 616
steps 616
pursue 615
agree 614
direction 614
importance 614
argued 613
record 613
vulnerable 613
de 612
renminbi 612
argument 611
falling 611
provides 611
25 609
paid 609
unlike 609
anything 608
try 608
vital 608
ground 607
therefore 607
100 606
competitiveness 606
demands 606
promote 606
sources 606
strengthen 606
takes 606
extent 605
korean 605
substantial 604
vast 603
partly 602
size 602
students 602
subsidies 601
targets 601
d@@ 599
whatever 599
child 598
encourage 598
secure 597
shows 596
december 595
game 595
implement 595
november 595
principles 593
xi 593
immediate 592
alliance 591
creditors 591
expectations 591
principle 591
reflects 591
story 591
invest 589
models 589
uncertainty 589
3 588
surplus 588
merely 587
mass 586
various 586
worth 586
anti-@@ 585
otherwise 585
property 585
road 585
trend 585
faster 584
60 582
serve 582
islam 581
push 581
trading 581
g@@ 580
nbsp 580
related 580
theory 580
communist 577
prospects 577
thousands 577
adopted 576
safety 576
fighting 575
george 575
am 574
iranian 573
latest 573
option 573
threats 573
anyone 572
unable 572
biggest 571
whom 571
intelligence 570
promise 570
changed 569
faces 569
lose 569
presidency 569
reflect 568
membership 567
manage 566
safe 566
spread 566
none 565
shown 565
test 565
welfare 565
becomes 564
calls 564
truth 563
abroad 562
d 562
o 562
severe 562
police 561
speech 561
supported 559
wage 558
commercial 557
near 556
drugs 555
profits 555
immigration 554
announced 553
sovereignty 553
doubt 552
favor 552
referendum 552
5 551
else 551
laws 551
macroeconomic 551
respond 551
suggest 551
training 551
accounts 549
2005 548
republicans 548
abe 547
buy 547
happen 547
green 546
managed 546
achieved 545
economist 545
precisely 545
bill 544
specific 544
tend 544
partnership 543
poland 543
spend 543
spent 542
incomes 541
deliver 540
diseases 540
head 540
normal 540
space 540
win 540
2000 539
de@@ 539
limit 539
himself 538
libya 538
re-@@ 538
struggle 538
appear 537
built 537
widespread 537
conservative 536
constitutional 536
northern 536
populist 536
started 536
boom 534
differences 534
efficient 534
improved 534
migration 534
press 534
raising 534
tools 534
enable 533
gaza 533
giving 533
southern 533
bankers 532
medical 532
leaving 531
running 531
book 530
radical 529
base 528
candidates 528
comprehensive 528
donald 528
schools 528
whereas 528
changing 524
faced 524
structure 524
resulting 523
board 522
easing 522
hundreds 522
causes 521
e@@ 521
enormous 521
ensuring 521
went 521
2001 520
everything 520
lies 520
operations 520
resistance 520
designed 519
addition 518
circumstances 518
health-care 517
lot 517
mostly 517
urban 517
attempt 516
efficiency 516
happened 516
regard 516
week 516
promises 515
1980 514
construction 514
farmers 514
commodity 513
front 513
range 513
capitalism 512
absence 511
prove 511
affairs 510
context 510
currencies 510
families 510
getting 510
goes 510
june 510
launched 510
possibility 509
rural 509
activity 508
considered 508
household 508
message 508
multilateral 508
round 508
estimated 507
asked 506
associated 506
democracies 506
drive 506
fair 506
opinion 506
broader 505
collective 505
electoral 505
john 505
muslims 505
permanent 505
sustained 505
ties 505
committee 504
final 504
helping 504
`` 503
allowing 503
digital 503
depends 502
received 502
stand 502
conflicts 501
deeply 501
fell 501
march 501
task 501
considerable 500
legislation 500
borrowing 499
capita 499
factor 499
tried 499
danger 498
cash 497
current-account 497
generally 497
ratio 497
usually 497
returns 496
revenues 496
republic 495
2006 494
instability 494
t@@ 494
2@@ 493
agricultural 493
closer 493
hit 493
merkel 493
experts 492
fuel 492
argentina 490
scientists 489
subject 489
depend 488
revenue 488
identity 487
imports 486
armed 485
continent 485
12 484
cancer 484
11 483
broad 483
hong 483
involved 483
smaller 483
remained 482
succeed 482
tensions 482
democrats 481
learn 481
name 481
upon 481
4 480
disaster 480
views 480
white 480
ethnic 479
stage 479
worked 479
improving 478
due 477
regulations 477
gold 476
raised 476
s@@ 476
equal 475
highest 475
outcomes 475
person 475
quite 475
unprecedented 475
coal 474
diplomacy 474
entirely 474
es 474
viewed 474
agencies 473
universal 473
wall 473
choose 472
kong 472
mind 472
worst 472
controls 471
credibility 471
zero 471
candidate 470
declared 470
heart 470
moving 469
troops 469
yes 469
hands 468
migrants 468
present 468
ongoing 467
places 466
supposed 466
g-20 465
recognized 465
weeks 465
default 464
establishment 463
body 462
mainly 462
met 462
ordinary 462
p@@ 462
sound 462
forms 461
payments 461
resolution 461
ated 460
emerged 460
nonetheless 460
receive 460
soft 460
ating 459
greatest 459
supporters 459
transformation 459
dc 458
ed 458
productive 458
cambridge 457
july 457
overcome 457
killed 456
barriers 455
lines 455
spring 455
undermine 455
analysis 454
expand 454
generate 454
mechanism 454
populations 454
stands 454
suffering 454
conventional 453
estimates 453
hardly 453
y@@ 453
geopolitical 452
nation 452
participation 452
potentially 452
implies 451
numbers 451
regimes 451
told 451
initiatives 450
offered 450
positions 450
practice 450
refugee 450
treasury 450
practices 449
rhetoric 449
contribute 448
restore 448
combined 447
er 447
proposal 447
studies 447
sufficient 447
fears 446
sought 446
deaths 445
explain 445
lesson 445
played 445
strategies 445
adjustment 444
measure 444
o@@ 444
agency 443
agriculture 443
continuing 442
equally 442
fallen 442
kim 442
regulators 442
self-@@ 441
slowdown 441
implemented 440
islamist 440
commitments 439
ended 439
break 438
priority 438
ask 437
kremlin 437
percentage 437
advance 436
afford 436
join 436
ruling 436
ts 436
type 436
add 435
di@@ 435
e 435
2016 434
debts 434
planet 434
decided 433
electricity 433
everywhere 433
january 433
movements 433
ireland 432
scenario 432
sharp 432
king 431
pace 431
strength 431
70 430
appropriate 430
imbalances 430
mechanisms 430
nationalism 430
sharply 430
street 430
deflation 429
distribution 429
ministers 429
patients 429
red 429
talk 429
territory 429
includes 428
k 428
easier 427
intellectual 427
suffer 427
arms 426
implications 426
options 426
lessons 425
violent 425
belief 424
chief 424
gone 424
imposed 424
wanted 424
leverage 423
amounts 422
experienced 422
over@@ 422
causing 421
proved 421
virtually 421
actors 420
addressing 420
inclusive 420
learned 420
list 420
senior 420
visit 420
dis@@ 419
inevitable 419
maintaining 419
affect 418
beijing 418
rely 418
z@@ 417
combination 416
driving 416
hopes 416
immigrants 416
80 415
al-@@ 415
holding 415
protests 415
ates 414
co2 414
seven 414
aggregate 413
ally 413
corporations 413
expensive 413
language 413
sunni 413
impose 412
peaceful 412
promised 412
typically 412
2004 411
bear 411
critics 411
degree 411
resolve 411
underlying 411
active 410
declining 410
gave 410
prospect 410
erdoğan 409
room 409
sustain 409
bringing 408
bubble 408
october 408
truly 407
objectives 406
opponents 406
sign 406
cutting 405
guarantee 405
reflected 405
towards 405
trends 405
victims 405
achieving 404
c@@ 404
fast 404
quarter 404
credible 403
immediately 403
ones 403
relief 403
assad 402
desire 402
works 402
developments 401
elites 401
imagine 401
secular 401
turning 401
choices 400
enterprises 400
transparency 400
en@@ 399
ready 399
seriously 399
b@@ 398
ers 398
n@@ 398
perspective 398
poorest 398
starting 398
strengthening 398
authoritarian 397
bond 397
cycle 397
figure 397
i@@ 397
regardless 397
solidarity 397
affected 396
destruction 396
determined 396
foundation 396
networks 396
physical 396
believed 395
economically 395
dynamic 394
engage 394
sarkozy 394
carry 393
proposals 393
al@@ 392
f@@ 392
generations 392
keeping 392
prepared 392
heavily 391
minority 391
mistake 391
indonesia 390
learning 390
offers 390
temporary 390
concerned 389
blame 388
field 388
shape 388
supporting 388
be@@ 387
defeat 387
determine 387
leads 387
divided 386
exit 386
light 386
objective 386
occurred 386
promoting 386
quantitative 386
summer 386
aim 385
p 385
restructuring 385
australia 384
elite 384
opening 384
an@@ 383
fortunately 383
bound 382
liberalization 382
securities 382
crimes 381
decide 381
eight 381
losing 381
online 381
pursuing 381
3@@ 380
discussion 380
playing 380
u@@ 380
co@@ 379
equivalent 379
looking 379
turkish 379
accepted 378
assume 378
ate 378
described 378
taiwan 378
asean 377
taliban 377
worry 377
assembly 376
nationalist 376
putting 376
vietnam 376
expanding 375
jewish 375
parliamentary 375
m 374
venezuela 374
2003 373
deeper 373
perceived 373
useful 373
excess 372
firm 372
presence 372
relevant 372
represents 372
surely 372
team 372
w. 372
6 371
demonstrated 371
friends 371
trouble 371
ar@@ 370
compromise 370
dialogue 370
ing 370
institution 370
knows 369
purpose 369
sell 369
apparent 368
humanitarian 368
observers 368
willingness 368
complete 367
dramatically 367
fuels 367
technical 367
vladimir 367
7 366
looks 366
paying 366
possibly 366
se@@ 366
solve 366
battle 365
dramatic 365
players 365
wide 365
hours 364
religion 364
surprise 364
twentieth 364
youth 364
event 363
fourth 363
healthy 363
joint 363
meant 363
product 363
territorial 363
defined 362
formal 362
issued 362
setting 362
fueled 361
gained 361
girls 361
le 361
terrorists 361
annually 360
encouraging 360
figures 360
gulf 360
robust 360
shocks 360
contributed 359
exactly 358
legitimate 358
race 358
universities 358
1@@ 357
exchange-rate 357
extremely 356
genuine 356
occur 356
signs 356
45 355
begun 355
grown 355
represent 355
closely 354
establishing 354
moderate 354
nowadays 354
palestine 354
partner 354
unsustainable 354
decision-making 353
intended 353
criminal 352
processes 352
showed 352
arrangements 351
flow 351
necessarily 351
pattern 351
planning 351
unique 351
adopt 350
employees 350
kept 350
mention 350
recognition 350
requirements 350
! 349
backed 349
berlin 349
civilian 349
investing 349
priorities 349
published 349
reported 349
essentially 348
fewer 348
paper 348
pension 348
standing 348
structures 348
terror 348
1970 347
ambitious 347
august 347
emerge 347
mandate 347
review 347
billions 346
nobel 345
producers 345
defend 344
happens 344
signed 344
added 343
genetic 343
opposite 343
survival 343
april 342
h@@ 342
historic 342
understood 342
chancellor 341
criticism 341
earth 341
gender 341
purchases 341
reports 341
representatives 341
stagnation 341
clean 340
failing 340
promising 340
urgent 340
moved 339
constraints 338
design 338
thanks 338
volatility 338
brussels 337
gradually 337
plants 337
revolutionary 337
served 337
inadequate 336
index 336
managing 336
reaching 336
remaining 336
ro@@ 336
ending 335
executive 335
settlement 335
transfer 335
adequate 334
dependent 334
exist 334
launch 334
malaria 334
pollution 334
remarkable 334
saw 334
90 333
drop 333
implementation 333
8 332
finding 332
homes 332
j@@ 332
large-scale 332
tpp 332
votes 332
wave 332
addressed 331
ch@@ 331
included 331
linked 331
previously 331
sustainability 331
w@@ 331
4@@ 330
ation 330
educational 330
incentive 330
innovative 330
protecting 330
shia 330
supreme 330
weakness 330
heavy 329
host 329
m@@ 329
mission 329
ra@@ 329
scope 329
stake 329
ban 328
engagement 328
post-@@ 328
risky 328
singapore 328
canada 327
capable 327
cheap 327
eliminate 327
embrace 327
humans 327
starters 327
italian 326
surprising 326
aging 325
concept 325
iraqi 325
network 325
oecd 325
profound 325
shock 325
targeted 325
boosting 324
equality 324
georgia 324
says 324
aggressive 323
borrow 323
calling 323
con@@ 323
introduced 323
primarily 323
track 323
via 323
centuries 322
ideological 322
mark 322
restrictions 322
stance 322
emergency 321
legacy 321
pressures 321
threatened 321
crime 320
double 320
integrated 320
someone 320
18@@ 319
born 319
chile 319
enabled 319
suffered 319
taxpayers 319
grew 318
identify 318
sharing 318
costly 317
emerging-market 317
contracts 316
fate 316
obviously 316
pushed 316
18 315
carried 315
died 315
engaged 315
netanyahu 315
cameron 314
modest 314
series 314
tough 314
ab@@ 313
b 313
opposed 313
compete 312
emergence 312
england 312
repeatedly 312
strongly 312
wider 312
approaches 311
daily 311
notably 311
preventing 311
unity 311
€@@ 311
dream 310
empire 310
fossil 310
practical 310
rejected 310
exception 309
exposed 309
faith 309
private-sector 309
sales 309
capabilities 308
department 308
mere 308
pushing 308
ting 308
undermining 308
welcome 308
black 307
le@@ 307
qe 307
/@@ 306
link 306
speak 306
transfers 306
weight 306
woman 306
wrote 306
accounting 305
conducted 305
hezbollah 305
meaning 305
nigeria 305
sort 305
17 304
accompanied 304
ignore 304
tell 304
am@@ 303
charge 303
david 303
failures 303
material 303
polls 303
13 302
apply 302
attempts 302
harm 302
resource 302
transactions 302
withdrawal 302
a@@ 301
felt 301
forum 301
killing 301
logic 301
package 301
r 301
u 301
appreciation 300
examples 300
obligations 300
bailout 299
bankruptcy 299
bottom 299
confront 299
quo 299
stay 299
transport 299
bubbles 298
chairman 298
die 298
elements 298
israelis 298
norms 298
rose 298
suggested 298
concluded 297
cover 297
february 297
humanity 297
regarded 297
search 297
son 297
ted 297
uncertain 297
alike 296
attractive 296
jordan 296
producing 296
reasonable 296
replace 296
sentiment 296
supplies 296
survive 296
arguments 295
completely 295
invasion 295
paul 295
researchers 295
allows 294
budgets 294
contributions 294
l@@ 294
turmoil 294
weaker 294
y 294
2030 293
disputes 293
effectiveness 293
enhance 293
governing 293
mutual 293
communism 292
enter 292
globally 292
substantially 292
claimed 291
governor 291
managers 291
advances 290
aside 290
california 290
er@@ 290
inevitably 290
newly 290
operate 290
trial 290
congressional 289
coordination 289
dominated 289
state-owned 289
egyptian 288
fragile 288
jews 288
ocean 288
species 288
statement 288
yield 288
pakistani 287
realize 287
released 287
seemingly 287
television 287
2020 286
consistent 286
fire 286
implementing 286
operating 286
progressive 286
zone 286
9 285
cross-border 285
delivered 285
flexibility 285
holds 285
solar 285
strike 285
wake 285
expense 284
parents 284
russians 284
escape 283
initial 283
placed 283
presidents 283
slowly 283
tests 283
200 282
contain 282
creates 282
got 282
latter 282
nevertheless 282
shareholders 282
word 282
acting 281
bold 281
explanation 281
senate 281
wealthy 281
attract 280
convinced 280
coup 280
ideology 280
instruments 280
offset 280
sh@@ 280
2002 279
bo@@ 279
generated 279
si@@ 279
subsequent 279
sweden 279
table 279
demographic 278
institute 278
negotiating 278
rescue 278
reverse 278
smart 278
ti@@ 278
voting 278
yemen 278
appeal 277
assessment 277
centers 277
discussions 277
doesn 277
educated 277
father 277
furthermore 277
illegal 277
offering 277
portugal 277
soldiers 277
staff 277
viable 277
actual 276
article 276
association 276
declined 276
gives 276
journalists 276
publicly 276
ruled 276
barely 275
buying 275
corrupt 275
decisive 275
earnings 275
financed 275
inflows 275
mis@@ 275
saying 275
undoubtedly 275
14 274
conclusion 274
mainstream 274
negotiate 274
wind 274
christian 273
enabling 273
initially 273
one-third 273
sent 273
surpluses 273
accountability 272
contribution 272
controlled 272
nominal 272
successfully 272
closed 271
customers 271
demanding 271
exercise 271
posed 271
under@@ 271
users 271
correct 270
dead 270
declaration 270
demonstrate 270
devastating 270
harder 270
ideal 270
islands 270
joined 270
narrative 270
occupation 270
shifting 270
taxation 270
v@@ 270
weaken 270
flexible 269
professional 269
systemic 269
· 269
applied 268
balanced 268
colombia 268
expressed 268
interventions 268
minimum 268
successor 268
voted 268
fixed 267
li@@ 267
painful 267
academic 266
cyber 266
expanded 266
heads 266
knew 266
renewed 266
resulted 266
threaten 266
variety 266
ambitions 265
apart 265
badly 265
moscow 265
periphery 265
populism 265
rarely 265
revealed 265
unions 265
deals 264
except 264
imperative 264
improvement 264
keynes 264
momentum 264
participants 264
weakening 264
fundamentally 263
mobile 263
predict 263
replaced 263
stress 263
dominant 262
encouraged 262
function 262
protest 262
returned 262
rulers 262
sheets 262
tunisia 262
yields 262
1990s 261
5@@ 261
brain 261
chronic 261
import 261
passed 261
reaction 261
relationships 261
threatening 261
twenty-first 261
[ 260
] 260
counterparts 260
diversity 260
facts 260
stories 260
twice 260
35 259
charges 259
compensation 259
concerning 259
convention 259
diverse 259
island 259
wisdom 259
copenhagen 258
eyes 258
hunger 258
kosovo 258
purchase 258
renewable 258
simultaneously 258
weakened 258
debates 257
frequently 257
happening 257
leaves 257
measured 257
warning 257
adverse 256
apparently 256
condition 256
lacks 256
missile 256
mistakes 256
1960 255
borrowers 255
computer 255
courts 255
dealing 255
divide 255
engineering 255
ethical 255
extended 255
ha@@ 255
narrow 255
pain 255
raises 255
spanish 255
struggling 255
version 255
16 254
germans 254
innovations 254
nine 254
ownership 254
pre-@@ 254
warned 254
broadly 253
civilians 253
image 253
interest-rate 253
netherlands 253
blair 252
block 252
complicated 252
destroy 252
displaced 252
guarantees 252
original 252
pacific 252
selling 252
surge 252
survey 252
approval 251
brics 251
c 251
downward 251
facilities 251
gets 251
inclusion 251
lie 251
mubarak 251
refused 251
ri@@ 251
supposedly 251
alternatives 250
consolidation 250
g 250
im@@ 250
multiple 250
pursued 250
sexual 250
stem 250
thailand 250
kenya 249
organized 249
proportion 249
provision 249
responses 249
shares 249
trials 249
types 249
uses 249
valuable 249
at@@ 248
conduct 248
damaging 248
foreign-exchange 248
pointed 248
stopped 248
advice 247
bigger 247
discipline 247
draw 247
generating 247
helps 247
methods 247
philippines 247
retirement 247
stimulate 247
brotherhood 246
guide 246
mobility 246
myanmar 246
platform 246
read 246
responsibilities 246
to@@ 246
voice 246
abuse 245
aftermath 245
ma@@ 245
properly 245
suddenly 245
ultimate 245
doctors 244
downturn 244
focusing 244
kinds 244
marked 244
mo@@ 244
modi 244
streets 244
1930 243
6@@ 243
affordable 243
cuba 243
extra 243
minorities 243
per@@ 243
phase 243
prison 243
reliable 243
runs 243
showing 243
square 243
weather 243
worried 243
advocates 242
bangladesh 242
ber@@ 242
donors 242
extend 242
extremists 242
fails 242
far-reaching 242
me@@ 242
proven 242
representative 242
tradition 242
transparent 242
two-thirds 242
waste 242
bodies 241
capture 241
cars 241
chaos 241
middle-income 241
peak 241
specifically 241
transform 241
usual 241
winning 241
atmosphere 240
confrontation 240
consistently 240
delhi 240
expenditures 240
high-@@ 240
it@@ 240
operation 240
st@@ 240
sudan 240
treated 240
abandon 239
aims 239
brutal 239
hungary 239
materials 239
opened 239
overwhelming 239
proper 239
stocks 239
strengthened 239
travel 239
500 238
angela 238
component 238
facilitate 238
forcing 238
n 238
somewhat 238
succeeded 238
triggered 238
1989 237
24 237
blood 237
brings 237
concrete 237
consequence 237
coverage 237
foreign-policy 237
over-@@ 237
qaeda 237
surprisingly 237
ad@@ 236
argues 236
carefully 236
dependence 236
participate 236
perfect 236
resilience 236
1.5 235
colleagues 235
patterns 235
pose 235
prefer 235
purchasing 235
saddam 235
send 235
separate 235
treat 235
considerably 234
depreciation 234
entrepreneurs 234
identified 234
l 234
pact 234
tool 234
vaccines 234
appeared 233
benefited 233
discrimination 233
dispute 233
dutch 233
enemies 233
gaining 233
limiting 233
meetings 233
mortgage 233
policymaking 233
root 233
scheme 233
statements 233
undermined 233
vice 233
car 232
drawn 232
ends 232
equipment 232
false 232
invested 232
plenty 232
profit 232
prosperous 232
rational 232
sophisticated 232
aware 231
famous 231
meaningful 231
minds 231
monopoly 231
phenomenon 231
right-wing 231
secret 231
unconventional 231
anniversary 230
challenging 230
characterized 230
extraordinary 230
real-estate 230
repression 230
chemical 229
director 229
estate 229
free-trade 229
historically 229
improvements 229
justify 229
manner 229
notion 229
plant 229
prize 229
statistics 229
style 229
surveillance 229
trigger 229
abbas 228
accelerate 228
cells 228
estimate 228
greatly 228
he@@ 228
medicine 228
neighboring 228
outlook 228
outright 228
recognizing 228
recover 228
1980s 227
22 227
creative 227
enjoy 227
imperial 227
maintained 227
older 227
responded 227
robert 227
southeast 227
transformed 227
assumed 226
caught 226
deposits 226
mediterranean 226
moves 226
negotiated 226
r@@ 226
remember 226
wonder 226
advantages 225
funded 225
harvard 225
inside 225
manipulation 225
morsi 225
partnerships 225
regarding 225
rightly 225
spirit 225
1999 224
adapt 224
attempting 224
mar@@ 224
populists 224
slightly 224
t-@@ 224
wish 224
acts 223
collapsed 223
grounds 223
impressive 223
kill 223
protectionism 223
chains 222
employers 222
functioning 222
imposing 222
jerusalem 222
longer-term 222
ministry 222
planned 222
speed 222
tens 222
amp 221
backing 221
believes 221
el@@ 221
fueling 221
heard 221
ling 221
pe@@ 221
protected 221
shifts 221
activists 220
broken 220
burma 220
combat 220
commit 220
female 220
ignored 220
indicators 220
missing 220
obstacles 220
trap 220
grand 219
happy 219
isis 219
malaysia 219
poorer 219
realistic 219
wait 219
written 219
ac@@ 218
haven 218
insist 218
oppose 218
persistent 218
secondary 218
talent 218
tokyo 218
workforce 218
2017 217
contract 217
crash 217
e-@@ 217
experiencing 217
ic@@ 217
mental 217
noted 217
pass 217
presented 217
preserve 217
pressing 217
shanghai 217
threatens 217
unemployed 217
vehicles 217
birth 216
bu@@ 216
isolation 216
lasting 216
les 216
or@@ 216
se 216
sensible 216
su@@ 216
difficulties 215
emphasis 215
headed 215
ourselves 215
patient 215
peoples 215
perception 215
provisions 215
avoiding 214
entered 214
involvement 214
picture 214
predicted 214
represented 214
resist 214
tragedy 214
careful 213
dictatorship 213
du@@ 213
importantly 213
mortgages 213
retain 213
brothers 212
kurdish 212
links 212
prolonged 212
compelling 211
directed 211
expression 211
extremism 211
granted 211
influential 211
informal 211
involve 211
match 211
slower 211
sold 211
28 210
achievement 210
ag@@ 210
albeit 210
analysts 210
animals 210
content 210
gu@@ 210
involving 210
loan 210
ly 210
proliferation 210
socialist 210
yen 210
aids 209
code 209
liabilities 209
modernization 209
on@@ 209
openness 209
prepare 209
prominent 209
severely 209
spur 209
approved 208
avoided 208
internationally 208
ism 208
keynesian 208
numerous 208
quick 208
reductions 208
sooner 208
strikes 208
transatlantic 208
urgently 208
y-@@ 208
as@@ 207
counter 207
inefficient 207
insufficient 207
low-income 207
madrid 207
openly 207
ous 207
reagan 207
rebalancing 207
risen 207
slowing 207
waiting 207
7@@ 206
books 206
connected 206
dangers 206
earn 206
enemy 206
guaranteed 206
poorly 206
pro-@@ 206
accused 205
ations 205
atlantic 205
catastrophe 205
dominance 205
exporters 205
features 205
feeling 205
intervene 205
islamists 205
reluctant 205
residents 205
tackle 205
volatile 205
z 205
acknowledge 204
afghan 204
doctrine 204
evolution 204
finances 204
pharmaceutical 204
prior 204
removed 204
sp@@ 204
well-@@ 204
anger 203
assumption 203
chávez 203
falls 203
fulfill 203
hitler 203
hiv 203
imply 203
mounting 203
projected 203
rooted 203
2.5 202
300 202
dropped 202
fields 202
h 202
inability 202
legislative 202
low-carbon 202
mu@@ 202
sensitive 202
sub-saharan 202
vulnerability 202
75 201
delay 201
didn 201
en 201
exists 201
monitoring 201
no@@ 201
onto 201
reconciliation 201
underway 201
web 201
acceptable 200
fill 200
2050 199
bashar 199
coordinated 199
couple 199
date 199
ease 199
expenditure 199
games 199
gradual 199
jinping 199
labor-market 199
motivated 199
post 199
requiring 199
rival 199
sudden 199
arabs 198
asking 198
constant 198
ne@@ 198
reliance 198
resort 198
roads 198
seats 198
stabilize 198
testing 198
traditionally 198
turns 198
abandoned 197
al-assad 197
berkeley 197
comparable 197
contributing 197
define 197
denmark 197
destroyed 197
division 197
enforcement 197
foundations 197
repeated 197
struck 197
anxiety 196
competing 196
desperate 196
foreigners 196
happiness 196
hollande 196
indicate 196
ks 196
labour 196
love 196
nowhere 196
polish 196
scotland 196
background 195
convergence 195
generous 195
judicial 195
lenders 195
lo@@ 195
release 195
sites 195
vaccine 195
accession 194
awareness 194
devaluation 194
ding 194
foster 194
hillary 194
mitigate 194
mix 194
restoring 194
sex 194
signal 194
constrained 193
controversial 193
dilemma 193
ebola 193
electorate 193
english 193
expertise 193
ine 193
out@@ 193
reject 193
reversed 193
absolute 192
adopting 192
aspirations 192
eliminating 192
erupted 192
google 192
payment 192
plays 192
prevented 192
pursuit 192
rare 192
seeks 192
skilled 192
stalin 192
tobacco 192
wto 192
actively 191
arguing 191
do@@ 191
eager 191
enhanced 191
gates 191
interested 191
machines 191
millennium 191
naturally 191
prevention 191
resolved 191
saved 191
visible 191
1997 190
21 190
anywhere 190
art 190
assess 190
bomb 190
campaigns 190
communications 190
el 190
existence 190
judgment 190
musharraf 190
re 190
tariffs 190
chain 189
chances 189
count 189
executives 189
explained 189
favorable 189
fossil-fuel 189
periods 189
platforms 189
sa@@ 189
settlements 189
' 188
attitudes 188
autonomy 188
college 188
fresh 188
go@@ 188
ho@@ 188
looked 188
pre@@ 188
procedures 188
realized 188
serbia 188
unit 188
us-@@ 188
27 187
adding 187
adjust 187
ancient 187
cabinet 187
camp 187
cheaper 187
ds 187
flight 187
park 187
problematic 187
sectarian 187
targeting 187
toxic 187
watch 187
adoption 186
alongside 186
chair 186
claiming 186
communication 186
dark 186
dominate 186
feed 186
inflationary 186
intense 186
ke@@ 186
lend 186
protocol 186
richer 186
th@@ 186
tions 186
concentrated 185
criteria 185
halt 185
judges 185
persuade 185
politician 185
romney 185
shadow 185
1991 184
ad 184
alliances 184
ba@@ 184
binding 184
breaking 184
chose 184
confronting 184
enforce 184
evident 184
fatah 184
genocide 184
khamenei 184
murder 184
respectively 184
retail 184
sets 184
stated 184
announcement 183
balances 183
berlusconi 183
cell 183
computers 183
considering 183
contemporary 183
divisions 183
facto 183
feature 183
forecast 183
inspired 183
is@@ 183
memory 183
mexican 183
mortality 183
optimistic 183
pensions 183
princeton 183
accountable 182
begins 182
bit 182
cyprus 182
engine 182
kurds 182
lay 182
propaganda 182
supports 182
tightening 182
tons 182
1979 181
8@@ 181
arise 181
arrangement 181
backlash 181
circle 181
discuss 181
dna 181
extensive 181
flawed 181
fundamentals 181
genes 181
human-rights 181
norway 181
student 181
territories 181
23 180
achievements 180
assuming 180
classes 180
conclude 180
deepening 180
justified 180
nineteenth 180
po@@ 180
poses 180
qu@@ 180
reputation 180
accelerating 179
beneficial 179
commodities 179
details 179
disasters 179
evil 179
inter@@ 179
macron 179
purposes 179
somehow 179
unwilling 179
19 178
ahmadinejad 178
channels 178
closing 178
collaboration 178
convince 178
deng 178
es@@ 178
exposure 178
f 178
familiar 178
formed 178
giant 178
greenhouse-gas 178
hence 178
judge 178
marine 178
public-sector 178
st 178
stood 178
unfair 178
advisers 177
bernanke 177
d-@@ 177
famously 177
fifth 177
guard 177
map 177
relying 177
s-@@ 177
virus 177
conservatives 176
drawing 176
dynamics 176
facebook 176
greenhouse 176
introduce 176
lived 176
lowering 176
marriage 176
overseas 176
ratios 176
route 176
supervision 176
ta@@ 176
upcoming 176
crops 175
delivery 175
for@@ 175
hour 175
ons 175
regular 175
resolving 175
solid 175
striking 175
sufficiently 175
teachers 175
ve 175
versus 175
65 174
a-@@ 174
channel 174
command 174
difficulty 174
dignity 174
entry 174
explains 174
fellow 174
hu@@ 174
kyoto 174
peninsula 174
predictable 174
principal 174
produces 174
revive 174
software 174
tic 174
ar 173
donor 173
equilibrium 173
fought 173
integrity 173
isn 173
kan 173
likelihood 173
nixon 173
panel 173
realities 173
reinforced 173
ru@@ 173
te@@ 173
considerations 172
cope 172
de-@@ 172
disastrous 172
discussed 172
enacted 172
exceed 172
observed 172
reinforce 172
speaking 172
transportation 172
typical 172
ali 171
attempted 171
disorder 171
door 171
facility 171
ic 171
isolated 171
mao 171
missiles 171
mobilize 171
qatar 171
ranks 171
seeing 171
suicide 171
tactics 171
unstable 171
acute 170
bureaucracy 170
destructive 170
element 170
football 170
laureate 170
liberty 170
mother 170
plus 170
pricing 170
puts 170
remove 170
slowed 170
talking 170
te 170
telling 170
treaties 170
unilateral 170
volume 170
weaknesses 170
wellbeing 170
write 170
confronted 169
denied 169
friendly 169
informed 169
joining 169
nutrition 169
rating 169
refuse 169
selection 169
shifted 169
shortages 169
significance 169
26 168
affecting 168
ant 168
cast 168
deny 168
doubts 168
houses 168
insecurity 168
marginal 168
maybe 168
pragmatic 168
rejection 168
steadily 168
switzerland 168
vi@@ 168
chosen 167
constructive 167
cooperate 167
demanded 167
enterprise 167
gaps 167
machine 167
popularity 167
reduces 167
regularly 167
understandable 167
woods 167
1970s 166
bid 166
deserve 166
discovered 166
electric 166
eye 166
foremost 166
hoped 166
ran 166
tension 166
1995 165
accurate 165
arguably 165
blow 165
catastrophic 165
diplomats 165
driver 165
fe@@ 165
fit 165
fix 165
followers 165
high-income 165
hurt 165
indians 165
near-@@ 165
newspaper 165
note 165
par@@ 165
revolutions 165
serving 165
1,000 164
1950 164
acceptance 164
ans 164
challenged 164
constitute 164
experiences 164
feasible 164
mid-@@ 164
nobody 164
tsunami 164
aspects 163
ben 163
comparison 163
creditor 163
desirable 163
distant 163
express 163
implicit 163
panic 163
refusal 163
sdgs 163
somalia 163
steady 163
tendency 163
wise 163
accord 162
animal 162
bretton 162
ceo 162
defending 162
earned 162
earthquake 162
explicit 162
explicitly 162
hear 162
introduction 162
judiciary 162
league 162
middle-class 162
receiving 162
senator 162
shaping 162
ter@@ 162
troubled 162
ul@@ 162
worker 162
younger 162
amid 161
bar@@ 161
components 161
corporation 161
delivering 161
film 161
five-year 161
hundred 161
lacking 161
officially 161
optimism 161
owners 161
protectionist 161
schemes 161
situations 161
appreciate 160
attitude 160
career 160
citizen 160
definition 160
eliminated 160
enables 160
ethiopia 160
experiment 160
follows 160
greenspan 160
gross 160
interpretation 160
investor 160
lowest 160
male 160
prevailing 160
reconstruction 160
ukrainian 160
abuses 159
adjustments 159
bolster 159
criticized 159
dire 159
emphasized 159
expansionary 159
finds 159
governed 159
ineffective 159
integrate 159
medicines 159
non-proliferation 159
occupied 159
sight 159
tourism 159
unrest 159
9@@ 158
appointed 158
co-@@ 158
competitors 158
declines 158
determination 158
embraced 158
fairly 158
fish 158
forests 158
har@@ 158
honor 158
ju@@ 158
nazi 158
ranging 158
royal 158
settle 158
surrounding 158
town 158
upward 158
administrative 157
ban@@ 157
bills 157
bridge 157
charged 157
clinical 157
emotional 157
grave 157
half-century 157
holdings 157
hostile 157
involves 157
monetary-policy 157
multi-@@ 157
neighborhood 157
reflecting 157
revival 157
securing 157
speculative 157
weapon 157
-based 156
1998 156
altogether 156
complexity 156
decent 156
desperately 156
differently 156
founded 156
heat 156
hussein 156
implying 156
namely 156
pro@@ 156
pull 156
relies 156
returning 156
river 156
sheet 156
shortage 156
ton 156
treatments 156
tu@@ 156
tv 156
urbanization 156
ve@@ 156
vicious 156
zones 156
‘ 156
antibiotics 155
artificial 155
breakthrough 155
character 155
crop 155
farm 155
findings 155
govern 155
irish 155
meltdown 155
parallel 155
quest 155
reporting 155
ses 155
storm 155
acquire 154
ages 154
bin 154
bought 154
em@@ 154
hu 154
initiated 154
intentions 154
lehman 154
mood 154
newspapers 154
obstacle 154
pledged 154
shaped 154
so@@ 154
stakes 154
straightforward 154
strongest 154
tends 154
trained 154
under-@@ 154
undertake 154
withdraw 154
1992 153
als 153
contraction 153
cyclical 153
degrees 153
employed 153
entering 153
freely 153
friend 153
geneva 153
mothers 153
pledge 153
successes 153
terrible 153
trans-pacific 153
worrying 153
ap@@ 152
bloc 152
charter 152
concentration 152
cooperative 152
da@@ 152
dynamism 152
favored 152
god 152
long-@@ 152
outbreak 152
professionals 152
province 152
recognizes 152
sovereign-debt 152
threshold 152
trip 152
underpinned 152
waves 152
cultures 151
emphasize 151
enhancing 151
forest 151
generals 151
innocent 151
interesting 151
investigation 151
losers 151
mahmoud 151
multinational 151
preferred 151
rice 151
temperatures 151
train 151
absent 150
acknowledged 150
alive 150
arrested 150
bet 150
describe 150
fine 150
globalized 150
hedge 150
minimize 150
protesters 150
ps 150
remote 150
secretary-general 150
steel 150
ter 150
tribal 150
accounted 149
adults 149
assumptions 149
church 149
cor@@ 149
destabilizing 149
enduring 149
frequent 149
ill 149
implied 149
meantime 149
officers 149
pa@@ 149
proof 149
providers 149
safer 149
soes 149
triumph 149
waters 149
0.@@ 148
advocate 148
bias 148
camps 148
coherent 148
defeated 148
enjoyed 148
images 148
infectious 148
intention 148
lift 148
margin 148
negotiation 148
pride 148
responding 148
richard 148
stuck 148
unexpected 148
writing 148
accordingly 147
affects 147
alleged 147
asylum 147
bargaining 147
captured 147
checks 147
consideration 147
cure 147
deputy 147
exploit 147
extremist 147
forecasts 147
founding 147
harsh 147
lee 147
livelihoods 147
looming 147
low-@@ 147
man@@ 147
mario 147
privatization 147
rebuild 147
rouhani 147
san 147
sub@@ 147
tolerance 147
valley 147
absorb 146
ambition 146
cohesion 146
doubled 146
draghi 146
engaging 146
exacerbated 146
immense 146
indicates 146
lawyers 146
lisbon 146
mutually 146
origin 146
predecessor 146
premier 146
prisoners 146
resilient 146
sal@@ 146
stabilizing 146
thatcher 146
tiny 146
to-@@ 146
winners 146
1994 145
apple 145
biology 145
blamed 145
confident 145
convincing 145
di 145
enlargement 145
existential 145
forget 145
landscape 145
player 145
post-war 145
predecessors 145
ratings 145
recorded 145
restored 145
richest 145
seize 145
site 145
socially 145
speculation 145
temperature 145
we@@ 145
accumulation 144
attend 144
austria 144
concessions 144
diminished 144
engineers 144
francis 144
hospitals 144
id@@ 144
ing@@ 144
mon@@ 144
owned 144
pen 144
perform 144
persist 144
pound 144
soared 144
whenever 144
x 144
africans 143
allocation 143
blind 143
ch 143
ci@@ 143
colonial 143
davos 143
deleveraging 143
ethics 143
functions 143
illness 143
irrelevant 143
mixed 143
sphere 143
surface 143
virtual 143
visited 143
voices 143
bargain 142
biodiversity 142
contagion 142
courage 142
deflationary 142
devoted 142
epidemic 142
focuses 142
ge@@ 142
highlights 142
hospital 142
ies 142
industrialization 142
la 142
liberals 142
liberation 142
ni@@ 142
obtain 142
ously 142
shrinking 142
yang 142
accelerated 141
anemic 141
biological 141
broke 141
capitalist 141
duty 141
ec@@ 141
entrenched 141
ev@@ 141
fishing 141
ity 141
logical 141
magnitude 141
morocco 141
nets 141
oriented 141
permit 141
precedent 141
preferences 141
regain 141
rivals 141
roosevelt 141
shinzo 141
signals 141
stabilization 141
widening 141
worries 141
acted 140
availability 140
bureaucratic 140
classic 140
czech 140
disruption 140
friedman 140
fu@@ 140
headlines 140
overwhelmingly 140
paradox 140
philosophy 140
phone 140
polio 140
preparing 140
respected 140
roots 140
rwanda 140
split 140
voluntary 140
arrest 139
car@@ 139
check 139
civilization 139
completed 139
deemed 139
demonstrations 139
des 139
doha 139
expert 139
fashion 139
fraction 139
highlighted 139
hike 139
hot 139
ist 139
ked 139
median 139
occurring 139
plausible 139
recall 139
sake 139
sending 139
shut 139
sri 139
starts 139
stems 139
suggesting 139
twitter 139
wife 139
aggression 138
carrying 138
contained 138
crimea 138
cu@@ 138
detailed 138
distinct 138
edge 138
ent@@ 138
exclusively 138
flaws 138
frustration 138
iron 138
letter 138
op@@ 138
peru 138
poll 138
solely 138
tomorrow 138
tradable 138
uranium 138
veto 138
abenomics 137
admit 137
angry 137
brown 137
choosing 137
coast 137
consent 137
constantly 137
deployed 137
draft 137
feared 137
ists 137
patent 137
pays 137
promotion 137
proud 137
ronald 137
serves 137
shed 137
soil 137
tied 137
tri@@ 137
2018 136
ai 136
akp 136
buildings 136
cairo 136
confirmed 136
devices 136
eventual 136
expectancy 136
forever 136
free-market 136
hegemony 136
ironically 136
ke 136
krugman 136
normally 136
obligation 136
raw 136
regulate 136
regulated 136
strict 136
tide 136
150 135
accepting 135
answers 135
attacked 135
bi@@ 135
collateral 135
conservation 135
derivatives 135
disintegration 135
dying 135
entails 135
ga@@ 135
high-quality 135
illiberal 135
ings 135
instrument 135
james 135
landing 135
low-cost 135
maritime 135
nicolas 135
temporarily 135
trajectory 135
transmission 135
unified 135
1.3 134
aged 134
appealing 134
burning 134
connection 134
dan 134
ent 134
gi@@ 134
grows 134
li 134
orderly 134
pope 134
pre-crisis 134
qaddafi 134
spiral 134
spreading 134
tasks 134
teams 134
violations 134
whereby 134
architecture 133
back@@ 133
compensate 133
cup 133
demise 133
firmly 133
harmful 133
intellectuals 133
laid 133
legally 133
malaise 133
medium 133
named 133
npt 133
offensive 133
professor 133
psychological 133
representation 133
shale 133
shortcomings 133
suit 133
toll 133
unacceptable 133
v 133
adjusted 132
agents 132
cap 132
deposit 132
display 132
entities 132
ex@@ 132
excessively 132
filled 132
foreseeable 132
indispensable 132
kerry 132
ness 132
odds 132
reading 132
ren@@ 132
roles 132
sees 132
shortfall 132
stakeholders 132
tony 132
ver@@ 132
x@@ 132
algeria 131
applies 131
childhood 131
discovery 131
forgotten 131
frameworks 131
honest 131
long-run 131
men@@ 131
myriad 131
oversight 131
precise 131
purely 131
q@@ 131
rebels 131
ry 131
scholars 131
stemming 131
temptation 131
victim 131
villages 131
year-old 131
arrived 130
aspect 130
au@@ 130
bailouts 130
balance-sheet 130
consolidate 130
da 130
deepen 130
discourse 130
dysfunctional 130
elderly 130
françois 130
gases 130
hostility 130
impede 130
insurgency 130
intent 130
lu@@ 130
monitor 130
pboc 130
reasonably 130
redistribution 130
remarkably 130
run-up 130
scarce 130
struggles 130
supply-side 130
symptoms 130
torture 130
traders 130
1945 129
ak@@ 129
assault 129
ccp 129
civil-society 129
commentators 129
cycles 129
damaged 129
declare 129
degradation 129
destroying 129
dioxide 129
distinction 129
distributed 129
evolved 129
excluded 129
high-level 129
manufacturers 129
neighbor 129
opposing 129
pipeline 129
privacy 129
qualified 129
rome 129
shot 129
tested 129
thousand 129
tight 129
unknown 129
vacuum 129
vested 129
village 129
1930s 128
beliefs 128
blocked 128
disarmament 128
ecosystems 128
equipped 128
financially 128
guidance 128
maximize 128
missed 128
non@@ 128
on-@@ 128
parity 128
pi@@ 128
portfolio 128
punishment 128
reforming 128
safeguard 128
seat 128
ten@@ 128
vis-à-vis 128
anticipated 127
bombing 127
ca@@ 127
ceiling 127
ded 127
delayed 127
discontent 127
disruptive 127
drove 127
fairness 127
g-8 127
iraqis 127
koreans 127
la@@ 127
night 127
resentment 127
reward 127
suspicion 127
tion 127
units 127
upper 127
ably 126
advancing 126
application 126
benefiting 126
cambodia 126
carries 126
chicago 126
condemned 126
debt-@@ 126
depending 126
distinguish 126
drivers 126
fighters 126
frontier 126
gene 126
hidden 126
ir@@ 126
knowing 126
lands 126
liability 126
locked 126
medium-size 126
militants 126
na@@ 126
notable 126
ought 126
partisan 126
polarization 126
prevailed 126
printing 126
requirement 126
scenarios 126
sdr 126
sharon 126
soaring 126
storage 126
surprised 126
asia-pacific 125
behave 125
bolivia 125
catholic 125
characteristics 125
churchill 125
club 125
collectively 125
controlling 125
countless 125
entitled 125
extending 125
factories 125
gathering 125
ice 125
ig@@ 125
insisted 125
justification 125
loyalty 125
method 125
midst 125
occurs 125
presumably 125
promoted 125
racial 125
recovered 125
res 125
sit 125
sum 125
thaksin 125
timing 125
watching 125
1993 124
allocated 124
belt 124
bloody 124
bondholders 124
calm 124
censorship 124
climate-change 124
defining 124
democratically 124
demonstrates 124
downside 124
efficiently 124
il 124
inequalities 124
infections 124
irresponsible 124
israeli-palestinian 124
minimal 124
ngos 124
novel 124
pool 124
premium 124
reversal 124
silence 124
skill 124
subsequently 124
tb 124
tempted 124
tragic 124
ambassador 123
ample 123
assumes 123
bed 123
depressed 123
golden 123
her@@ 123
ignoring 123
marks 123
negotiators 123
om@@ 123
prevail 123
profitable 123
rally 123
reference 123
sciences 123
silicon 123
superpower 123
surveys 123
tremendous 123
uphold 123
w 123
warnings 123
aircraft 122
automatic 122
brazilian 122
compare 122
constitutes 122
determining 122
diabetes 122
diminishing 122
exacerbate 122
exceeds 122
imported 122
located 122
predictions 122
prone 122
recommendations 122
removing 122
representing 122
reveal 122
sacrifice 122
sed 122
seoul 122
sports 122
the@@ 122
traditions 122
transforming 122
unclear 122
undermines 122
unpredictable 122
warfare 122
ali@@ 121
approaching 121
bureaucrats 121
charles 121
combine 121
comparative 121
consume 121
dozens 121
embedded 121
endorsed 121
erosion 121
exclusive 121
grasp 121
greeks 121
gun 121
lanka 121
lately 121
orders 121
originally 121
passing 121
performing 121
pri@@ 121
scandal 121
seas 121
spoke 121
star 121
statistical 121
taught 121
translate 121
value-added 121
accident 120
accumulated 120
adaptation 120
approximately 120
attracted 120
basket 120
christians 120
containment 120
dimension 120
error 120
guidelines 120
han@@ 120
miles 120
min@@ 120
mor@@ 120
operational 120
post-crisis 120
preserving 120
recessions 120
reckless 120
robots 120
sunnis 120
superior 120
traffic 120
transnational 120
unpopular 120
well-being 120
.@@ 119
adviser 119
applications 119
confined 119
connections 119
impression 119
issuing 119
juncker 119
kilometers 119
ko@@ 119
placing 119
public-health 119
sanitation 119
sha@@ 119
succession 119
techniques 119
tibet 119
two-state 119
undertaken 119
window 119
1.@@ 118
400 118
85 118
acquired 118
can@@ 118
counter-@@ 118
deadly 118
debtors 118
denial 118
dismissed 118
distrust 118
exceptions 118
fraud 118
genuinely 118
horizon 118
immune 118
indebted 118
kennedy 118
lebanese 118
makers 118
minor 118
notes 118
phones 118
physics 118
premature 118
records 118
rein 118
ship 118
sole 118
venture 118
wins 118
ze 118
17@@ 117
1996 117
2008-2009 117
adequately 117
atomic 117
bosnia 117
boundaries 117
continental 117
crude 117
deterrence 117
disparities 117
enrichment 117
expectation 117
forge 117
gordon 117
ia 117
inputs 117
iranians 117
irrational 117
ized 117
medium-term 117
norm 117
quarters 117
reinforcing 117
request 117
silent 117
sing 117
spurred 117
stagnant 117
stream 117
subjects 117
suffers 117
tariff 117
ality 116
barrel 116
box 116
bulk 116
catch 116
citizenship 116
coastal 116
deliberately 116
departure 116
diagnosis 116
diminish 116
distance 116
distress 116
fa@@ 116
factory 116
feelings 116
fi@@ 116
frustrated 116
hire 116
holders 116
ingly 116
massacre 116
misleading 116
naval 116
partial 116
roll 116
routine 116
scrutiny 116
stark 116
stock-market 116
suspect 116
ters 116
thrive 116
20@@ 115
abu 115
arafat 115
ballot 115
boosted 115
burst 115
comprise 115
covered 115
debtor 115
deregulation 115
differ 115
drag 115
electronic 115
enthusiasm 115
finland 115
graduates 115
illusion 115
imbalance 115
inaction 115
indigenous 115
performed 115
phrase 115
pick 115
protections 115
rises 115
sanders 115
savers 115
stations 115
stick 115
substitute 115
ur@@ 115
us-led 115
... 114
29 114
actor 114
automatically 114
compliance 114
customs 114
defaults 114
distortions 114
engines 114
entity 114
facilitating 114
freedoms 114
in-@@ 114
merit 114
participating 114
postwar 114
theories 114
vary 114
–@@ 114
16@@ 113
alarming 113
bay 113
behalf 113
belgium 113
brink 113
clash 113
democratization 113
deployment 113
exchanges 113
extension 113
identities 113
interim 113
invited 113
laden 113
morality 113
munich 113
ordered 113
overcoming 113
overnight 113
personnel 113
piece 113
reconcile 113
relied 113
roma 113
strain 113
unite 113
unnecessary 113
vienna 113
1967 112
budgetary 112
burdens 112
cautious 112
cognitive 112
collection 112
comfortable 112
decisively 112
dubious 112
emerges 112
experiments 112
farming 112
hatred 112
ian 112
incomplete 112
inherited 112
misguided 112
object 112
pivot 112
portion 112
projections 112
protracted 112
ran@@ 112
reminder 112
repay 112
replacing 112
reportedly 112
tor@@ 112
triggering 112
welcomed 112
wen 112
1.2 111
bo 111
capability 111
cards 111
cia 111
civic 111
errors 111
evolutionary 111
fdi 111
heading 111
indicator 111
influenced 111
izing 111
ker 111
lender 111
mi@@ 111
nu@@ 111
ol@@ 111
olympic 111
outsiders 111
packages 111
saudis 111
scientist 111
sounds 111
spectacular 111
spectrum 111
summers 111
symbol 111
symbolic 111
troika 111
unusual 111
3.5 110
aggressively 110
audience 110
benign 110
brief 110
conviction 110
creativity 110
der 110
drought 110
encourages 110
equitable 110
examine 110
formula 110
habits 110
hide 110
hikes 110
holocaust 110
il@@ 110
impoverished 110
ize 110
kazakhstan 110
lifted 110
meat 110
michael 110
microsoft 110
normalization 110
obesity 110
ph@@ 110
psychology 110
restraint 110
separation 110
skeptical 110
tea 110
tech 110
abandoning 109
accomplished 109
aiib 109
array 109
bearing 109
benchmark 109
bust 109
calculations 109
chirac 109
contest 109
criminals 109
cross 109
foods 109
formally 109
inherent 109
launching 109
ler 109
medvedev 109
myth 109
names 109
nationalists 109
neglect 109
orthodox 109
oxford 109
revised 109
sc@@ 109
solved 109
spreads 109
store 109
ten-year 109
th 109
unification 109
wa@@ 109
alization 108
arsenal 108
attracting 108
brand 108
deter 108
discourage 108
eat 108
entrepreneurship 108
exclusion 108
excuse 108
factions 108
formation 108
futures 108
gra@@ 108
grant 108
hiring 108
id 108
industrialized 108
lifting 108
liquid 108
memories 108
much-needed 108
outflows 108
poised 108
recommended 108
repeat 108
ships 108
singh 108
skeptics 108
sustaining 108
ta 108
tells 108
treating 108
underground 108
ya 108
zimbabwe 108
100,000 107
assessing 107
banned 107
bases 107
bitter 107
bra@@ 107
champion 107
chen 107
composition 107
contains 107
entail 107
exceptional 107
formidable 107
fragmentation 107
hiv/aids 107
inflation-adjusted 107
ins 107
interference 107
keeps 107
mining 107
overly 107
peripheral 107
pretty 107
probability 107
producer 107
proxy 107
repair 107
seized 107
semi-@@ 107
sun 107
suppliers 107
swiss 107
traded 107
witnessed 107
and/or 106
borrowed 106
clients 106
cliff 106
com@@ 106
daunting 106
dictator 106
disproportionate 106
fold 106
hate 106
highlight 106
ically 106
incumbent 106
introducing 106
joseph 106
likes 106
luxury 106
malnutrition 106
mckinsey 106
miracle 106
notice 106
profitability 106
quarter-century 106
rationale 106
remittances 106
scheduled 106
urgency 106
vibrant 106
yeltsin 106
0.5 105
alter 105
amounted 105
arbitrary 105
authors 105
blocking 105
centralized 105
cited 105
disruptions 105
dividends 105
egyptians 105
empirical 105
eurobonds 105
far-right 105
fees 105
liberalism 105
perceptions 105
port 105
possibilities 105
proceed 105
receives 105
solving 105
spends 105
topic 105
winner 105
zing 105
1973 104
600 104
amendment 104
automation 104
breakdown 104
ched 104
commerce 104
complacency 104
diet 104
discredited 104
dozen 104
ecosystem 104
environmentally 104
ever-@@ 104
gotten 104
handle 104
imminent 104
infected 104
keen 104
left-wing 104
listen 104
militias 104
miss 104
nafta 104
occasion 104
one-@@ 104
ors 104
paradigm 104
paralysis 104
permanently 104
provinces 104
puerto 104
refusing 104
resisted 104
revived 104
routinely 104
seeds 104
strange 104
tanks 104
teach 104
towns 104
viktor 104
wary 104
5,000 103
appetite 103
assert 103
basel 103
central-bank 103
coalitions 103
curb 103
dangerously 103
denying 103
embracing 103
favorite 103
flood 103
impunity 103
invariably 103
luck 103
non-state 103
permitted 103
pervasive 103
practically 103
pu@@ 103
reactions 103
retreat 103
reveals 103
sachs 103
sale 103
sch@@ 103
sitting 103
thinks 103
é@@ 103
1.4 102
55 102
attributed 102
beat 102
compact 102
conclusions 102
crowd 102
drone 102
ecological 102
empowered 102
ence 102
ff@@ 102
grievances 102
imagined 102
insights 102
inspire 102
intensified 102
long-standing 102
marginalized 102
migrant 102
ms 102
pan@@ 102
parliaments 102
profession 102
radically 102
ranking 102
reluctance 102
satisfy 102
settled 102
sts 102
tactical 102
trapped 102
understands 102
wild 102
worsening 102
é 102
abdullah 101
activist 101
al-qaeda 101
alism 101
ance 101
australian 101
averaged 101
baghdad 101
closest 101
collect 101
combating 101
deserves 101
dly 101
episode 101
evolving 101
favors 101
fragmented 101
grants 101
grim 101
guided 101
ir 101
ization 101
literally 101
ma 101
marshall 101
mdgs 101
nation-state 101
outstanding 101
overthrow 101
pundits 101
pure 101
reasoning 101
reflection 101
resistant 101
rewards 101
secured 101
soccer 101
tackling 101
two-@@ 101
up@@ 101
wwii 101
advocated 100
and-@@ 100
anti-corruption 100
appearance 100
ator 100
autocratic 100
bio@@ 100
buyers 100
centered 100
disturbing 100
equities 100
explosion 100
extends 100
feels 100
fluctuations 100
henry 100
ignorance 100
intensive 100
iting 100
letting 100
lifetime 100
mess 100
municipal 100
nineteenth-century 100
ports 100
propose 100
restricted 100
sadly 100
sheer 100
shi 100
stalled 100
station 100
subsidy 100
winter 100
agendas 99
ang@@ 99
applying 99
ats 99
avert 99
balkans 99
bombs 99
considers 99
document 99
doubling 99
droughts 99
emotions 99
empty 99
endless 99
grip 99
indicated 99
indication 99
intensity 99
interaction 99
interconnected 99
ley 99
mali 99
mayor 99
mindset 99
mohamed 99
multilateralism 99
mumbai 99
neglected 99
nomination 99
restrict 99
skepticism 99
socialism 99
stages 99
systematic 99
unilaterally 99
yanukovych 99
10@@ 98
2,000 98
250 98
36 98
800 98
academics 98
alan 98
alized 98
ard 98
believing 98
breakthroughs 98
concerted 98
coordinate 98
deforestation 98
despair 98
enforced 98
eradication 98
essence 98
exporting 98
g-7 98
g20 98
generates 98
incapable 98
intergovernmental 98
lacked 98
mainland 98
manufactured 98
ou@@ 98
removal 98
respective 98
ring 98
romania 98
satellite 98
sky 98
slump 98
therapy 98
transaction 98
…@@ 98
2025 97
32 97
admitted 97
adult 97
autonomous 97
baby 97
bail 97
booming 97
ce@@ 97
counterproductive 97
coupled 97
cra@@ 97
darfur 97
declaring 97
dictators 97
domestically 97
flowing 97
gather 97
handful 97
journal 97
monthly 97
n't 97
northeast 97
opponent 97
optimal 97
origins 97
president-elect 97
quiet 97
recep 97
renewables 97
rests 97
scene 97
speeches 97
tayyip 97
thomas 97
transitions 97
witness 97
worsen 97
accomplish 96
already-@@ 96
ative 96
ators 96
card 96
decrease 96
deliberate 96
den@@ 96
deterioration 96
duties 96
equ@@ 96
er-@@ 96
fault 96
genome 96
helpful 96
historians 96
indirect 96
location 96
motivation 96
outrage 96
pillar 96
postpone 96
readily 96
recipe 96
replacement 96
rethink 96
rico 96
slogan 96
smoking 96
suited 96
tolerate 96
tougher 96
unleashed 96
wing 96
34 95
accessible 95
ah 95
alist 95
appeals 95
asians 95
atrocities 95
beings 95
contact 95
credits 95
defensive 95
deploy 95
disappear 95
disappeared 95
disappointing 95
diversification 95
elimination 95
episodes 95
fortune 95
haiti 95
hi@@ 95
high-tech 95
insight 95
jo@@ 95
maynard 95
neo-@@ 95
notwithstanding 95
rampant 95
resolutions 95
safeguards 95
self-interest 95
silk 95
sinai 95
super@@ 95
suppose 95
tangible 95
undergoing 95
vastly 95
95 94
ak 94
alizing 94
allegedly 94
amr 94
annan 94
bipartisan 94
category 94
clout 94
connect 94
construct 94
dedicated 94
depth 94
disagree 94
elect 94
euros 94
everybody 94
exploited 94
forth 94
freeze 94
gazprom 94
ghana 94
government-@@ 94
governors 94
insisting 94
liberties 94
longstanding 94
loose 94
mer@@ 94
militarily 94
mired 94
music 94
offshore 94
perfectly 94
preventive 94
prompted 94
radio 94
rage 94
react 94
ste@@ 94
swedish 94
tax-@@ 94
trafficking 94
xiaoping 94
1.6 93
anti@@ 93
ayatollah 93
der@@ 93
ed@@ 93
fired 93
fires 93
flat 93
gandhi 93
humiliation 93
induce 93
intensify 93
items 93
market-based 93
marketing 93
ment 93
opec 93
page 93
processing 93
prudent 93
risk-taking 93
shrink 93
sport 93
ss 93
ss@@ 93
stanford 93
teaching 93
ty 93
underestimated 93
universe 93
ving 93
war@@ 93
withstand 93
10,000 92
31 92
37 92
38 92
advertising 92
arctic 92
aren 92
assassination 92
assessments 92
calderón 92
ceasefire 92
center-left 92
ching 92
commonly 92
connectivity 92
continuous 92
doors 92
enlightened 92
excesses 92
floods 92
fre@@ 92
guilty 92
healthier 92
hoping 92
hungry 92
hurricane 92
identifying 92
immunization 92
interdependence 92
invented 92
land@@ 92
lethal 92
linking 92
maintains 92
mandatory 92
mas@@ 92
missions 92
mistrust 92
narratives 92
ob@@ 92
oceans 92
outlets 92
plight 92
privileged 92
proponents 92
punish 92
ra 92
referred 92
revelations 92
revolt 92
schooling 92
smooth 92
somewhere 92
studied 92
tan@@ 92
technocratic 92
uganda 92
upgrading 92
vague 92
vehicle 92
walk 92
33 91
44 91
abundant 91
arrive 91
ati@@ 91
bal@@ 91
bar 91
beneficiaries 91
comprising 91
containing 91
controversy 91
corner 91
disputed 91
dodd-frank 91
dreams 91
erode 91
existed 91
export-led 91
fac@@ 91
facilitated 91
fronts 91
gen@@ 91
heightened 91
ideals 91
inter-@@ 91
jong-un 91
judged 91
ki@@ 91
masses 91
ministries 91
nazis 91
obliged 91
oslo 91
overlooked 91
proposing 91
ratified 91
residential 91
rigid 91
sentiments 91
stopping 91
sums 91
tenure 91
texas 91
text 91
tive 91
tors 91
video 91
vulnerabilities 91
wasted 91
addresses 90
balancing 90
brother 90
conversation 90
cur@@ 90
debt/gdp 90
deciding 90
demonstrating 90
documented 90
dpj 90
eroded 90
escalating 90
exemplified 90
fostering 90
indefinitely 90
initiate 90
jacques 90
judging 90
minutes 90
necessity 90
pillars 90
pointing 90
possess 90
quotas 90
reviving 90
rivers 90
san@@ 90
sin@@ 90
struggled 90
sur@@ 90
swing 90
technocrats 90
tra@@ 90
transitional 90
uncertainties 90
urge 90
wherever 90
15@@ 89
1960s 89
5-@@ 89
affair 89
arm 89
behavioral 89
booms 89
borne 89
che@@ 89
clarity 89
col@@ 89
concentrate 89
covering 89
cre@@ 89
disrupt 89
drives 89
exploitation 89
fertility 89
gaulle 89
inherently 89
lobbying 89
maastricht 89
master 89
mccain 89
militant 89
morally 89
nightmare 89
offices 89
organic 89
pen@@ 89
philosopher 89
public-private 89
scores 89
season 89
selected 89
sick 89
smith 89
survived 89
voter 89
working-age 89
ying 89
adhere 88
alize 88
arises 88
assist 88
athens 88
bears 88
breast 88
bs 88
conditional 88
cost-effective 88
deteriorating 88
dismiss 88
disposal 88
emulate 88
examined 88
forefront 88
founder 88
franklin 88
fukushima 88
fulfilling 88
gh@@ 88
height 88
historian 88
hole 88
istanbul 88
legislators 88
literacy 88
martin 88
mat@@ 88
motives 88
ned 88
organize 88
orthodoxy 88
prevents 88
restoration 88
self-defense 88
si 88
speaker 88
sub-prime 88
successive 88
trusted 88
unequal 88
unlimited 88
venezuelan 88
yugoslavia 88
1.8 87
activism 87
an-@@ 87
attacking 87
boards 87
breakup 87
certainty 87
chapter 87
communicate 87
crackdown 87
cynical 87
dealt 87
destiny 87
devise 87
dissent 87
documents 87
empower 87
energy-@@ 87
escalation 87
excellent 87
financial-market 87
firing 87
flooding 87
helicopter 87
implication 87
incremental 87
induced 87
infection 87
insistence 87
instance 87
intensifying 87
johnson 87
limitations 87
neutral 87
os 87
potent 87
pressed 87
publication 87
quantity 87
regards 87
relevance 87
remind 87
sluggish 87
spot 87
staggering 87
statehood 87
substance 87
suppress 87
trees 87
tuberculosis 87
zealand 87
zed 87
120 86
19@@ 86
accommodate 86
battles 86
belarus 86
cal@@ 86
calculated 86
circles 86
confirm 86
counterpart 86
counts 86
destination 86
disagreement 86
durable 86
emphasizes 86
entrepreneurial 86
exaggerated 86
expects 86
expose 86
first-@@ 86
gar@@ 86
giants 86
indifference 86
indirectly 86
injustice 86
intelligent 86
ipcc 86
journey 86
lula 86
mal@@ 86
maneuver 86
market-oriented 86
medicare 86
micro@@ 86
nepal 86
passage 86
plummeted 86
provincial 86
ranked 86
realism 86
rebel 86
reformers 86
sen 86
stalemate 86
strains 86
um 86
unintended 86
unresolved 86
urged 86
worthy 86
-led 85
affluent 85
appoint 85
appreciated 85
authoritarianism 85
bleak 85
boj 85
breaks 85
bri@@ 85
cement 85
center-right 85
christmas 85
clearer 85
comfort 85
compromises 85
contentious 85
counter@@ 85
emphasizing 85
ens 85
evaluate 85
exercises 85
feedback 85
feet 85
gasoline 85
ge 85
goldman 85
gravity 85
heed 85
hosni 85
ignores 85
imagination 85
integral 85
internally 85
interview 85
killings 85
liu 85
pockets 85
reaches 85
respects 85
responsive 85
rush 85
sa 85
scarcity 85
signaled 85
silver 85
spoken 85
sto@@ 85
strengths 85
swept 85
telecommunications 85
theoretical 85
totally 85
traction 85
tru@@ 85
underpin 85
viewing 85
violation 85
wouldn 85
0.7 84
1981 84
3,000 84
6.5 84
anytime 84
anyway 84
attraction 84
casualties 84
celsius 84
centrist 84
correctly 84
daughter 84
disagreements 84
distribute 84
elusive 84
employ 84
enact 84
exceeded 84
fallout 84
floor 84
forming 84
geography 84
gorbachev 84
hindu 84
ideally 84
insolvent 84
interpreted 84
k-@@ 84
labor-intensive 84
maintenance 84
mentioned 84
moderation 84
penalty 84
preference 84
presents 84
proclaimed 84
radicals 84
renewal 84
repeal 84
reversing 84
segments 84
select 84
shing 84
specter 84
state-@@ 84
strategically 84
strip 84
sweeping 84
syrians 84
syriza 84
touch 84
troubling 84
ukrainians 84
valid 84
visiting 84
warsaw 84
zhou 84
1982 83
akin 83
align 83
assured 83
axis 83
baltic 83
bankrupt 83
beautiful 83
belong 83
cap@@ 83
caribbean 83
committing 83
contributes 83
cuban 83
debt-to-gdp 83
desired 83
diagnostic 83
dictatorships 83
drinking 83
embassy 83
endured 83
fl@@ 83
guantánamo 83
handed 83
holy 83
hugo 83
interact 83
kuwait 83
leftist 83
maternal 83
mikhail 83
mitigation 83
mobilized 83
movie 83
occasionally 83
outset 83
patents 83
provoke 83
reap 83
rec@@ 83
s. 83
shareholder 83
signing 83
speculators 83
stressed 83
subsidiaries 83
surrender 83
suspended 83
trans@@ 83
tsipras 83
understandably 83
utterly 83
wishes 83
zero-sum 83
39 82
accurately 82
accustomed 82
afraid 82
allied 82
amazon 82
anchor 82
appointment 82
ari@@ 82
associations 82
besides 82
boys 82
businessmen 82
caution 82
celebrate 82
collapsing 82
communists 82
complementary 82
dam 82
distorted 82
distressed 82
districts 82
drama 82
ecuador 82
evidently 82
fatal 82
jean-claude 82
lowered 82
mandela 82
manuel 82
margins 82
native 82
obamacare 82
ostensibly 82
peacekeeping 82
personally 82
poles 82
quasi-@@ 82
realizing 82
rejecting 82
renzi 82
reunification 82
rounds 82
salaries 82
stimulating 82
tighter 82
tone 82
virtue 82
writer 82
¥@@ 82
13@@ 81
absurd 81
assertive 81
branch 81
bro@@ 81
consists 81
cumulative 81
explanations 81
grid 81
imperfect 81
lest 81
moderates 81
moldova 81
mount 81
onset 81
paradoxically 81
personality 81
proposes 81
proposition 81
recipients 81
shi@@ 81
stone 81
storms 81
strictly 81
structured 81
super-@@ 81
switch 81
troubles 81
ttip 81
unrealistic 81
1914 80
advocating 80
alarm 80
allegations 80
and@@ 80
anticipate 80
castro 80
collected 80
comments 80
compelled 80
concepts 80
consumed 80
contradictory 80
corporate-tax 80
dependency 80
describes 80
doctor 80
exhausted 80
fake 80
fundamentalism 80
greed 80
hearing 80
hungarian 80
iii 80
insolvency 80
interactions 80
ite 80
journalist 80
low- 80
maximum 80
ments 80
modified 80
monti 80
nominee 80
occupy 80
operates 80
papers 80
peacefully 80
plot 80
preceded 80
re-election 80
reacted 80
rebuilding 80
reminded 80
sk@@ 80
thai 80
thin 80
thinkers 80
thriving 80
twenty-first-century 80
underestimate 80
violated 80
watched 80
1.1 79
7.5 79
9/11 79
approve 79
author 79
az@@ 79
binyamin 79
brave 79
broadband 79
capital-account 79
civilizations 79
compatible 79
compounded 79
conscious 79
dimensions 79
dry 79
ensures 79
fin@@ 79
fled 79
gnp 79
headquarters 79
hearts 79
heritage 79
ina 79
ing-@@ 79
irony 79
iz@@ 79
jihad 79
linkages 79
margaret 79
misery 79
nuclear-armed 79
ottoman 79
outsourcing 79
overhang 79
persists 79
pessimism 79
positioned 79
pragmatism 79
profile 79
radiation 79
rated 79
rebound 79
recipient 79
regulating 79
remembered 79
repressive 79
restricting 79
revealing 79
rivalry 79
roman 79
satisfied 79
scandals 79
scottish 79
ser@@ 79
sting 79
talented 79
tel 79
tended 79
three-@@ 79
three-quarters 79
throw 79
thrown 79
tropical 79
uprising 79
vaccination 79
warm 79
ye@@ 79
1986 78
43 78
700 78
accumulate 78
accusations 78
alcohol 78
ang 78
barrier 78
bridges 78
broaden 78
competent 78
complaints 78
correlation 78
decentralized 78
destabilize 78
excluding 78
g-@@ 78
genetically 78
hazard 78
homeland 78
incidents 78
italians 78
jurisdiction 78
lesser 78
loyal 78
measuring 78
mitigating 78
opinions 78
organisms 78
organizing 78
perpetrators 78
pledges 78
portfolios 78
prescription 78
rail 78
relentless 78
rio 78
sentence 78
shouldn 78
speaks 78
spike 78
suspected 78
systematically 78
unthinkable 78
ves 78
violate 78
yellen 78
1971 77
2.6 77
42 77
achievable 77
agreeing 77
air@@ 77
bjp 77
bright 77
bundesbank 77
channeled 77
comprises 77
conferences 77
derived 77
earning 77
emission 77
evasion 77
exceeding 77
farms 77
fo@@ 77
forecasting 77
fruit 77
guiding 77
hostage 77
immigrant 77
impeding 77
integrating 77
jail 77
labor-force 77
lag 77
leveraged 77
libyan 77
materialize 77
officer 77
organizational 77
remedy 77
second-largest 77
swaps 77
technically 77
tically 77
title 77
tly 77
tribunal 77
tries 77
wasn 77
wh@@ 77
worrisome 77
-year 76
1-@@ 76
48 76
admittedly 76
af@@ 76
anxious 76
aviv 76
ballistic 76
boston 76
br@@ 76
careers 76
commissioner 76
competence 76
constraint 76
disorders 76
disproportionately 76
doomed 76
drew 76
efficacy 76
emperor 76
etc 76
eu@@ 76
evolve 76
executed 76
exporter 76
florida 76
half-@@ 76
hero 76
impasse 76
mine 76
muammar 76
ning 76
obsolete 76
olympics 76
orbán 76
permits 76
populated 76
profoundly 76
ratify 76
reactors 76
rousseff 76
shame 76
specialized 76
surrounded 76
suspicious 76
tal@@ 76
tes 76
theme 76
timely 76
triple 76
undertaking 76
unwillingness 76
ws 76
blueprint 75
complained 75
consecutive 75
displacement 75
enormously 75
ensuing 75
euro@@ 75
explaining 75
exploiting 75
explosive 75
fixing 75
fleeing 75
ful 75
guns 75
higher-@@ 75
influx 75
judgments 75
ku@@ 75
maturity 75
mit 75
modernize 75
ner 75
o-@@ 75
obtained 75
once-@@ 75
overhaul 75
passive 75
peter 75
picked 75
ping 75
prestige 75
rebellion 75
resigned 75
restructure 75
rolling 75
safely 75
sis 75
subsidized 75
sugar 75
then-@@ 75
tighten 75
twenty 75
unleash 75
val@@ 75
visits 75
… 75
2.2 74
50,000 74
adapted 74
adds 74
aligned 74
ary 74
bas@@ 74
bonuses 74
busy 74
capacities 74
confusion 74
conspiracy 74
constituencies 74
counted 74
defenses 74
denounced 74
description 74
detention 74
developing-country 74
devote 74
dirty 74
divergence 74
drops 74
dubbed 74
empowerment 74
emu 74
engineer 74
ently 74
environments 74
eve 74
execution 74
frankfurt 74
gathered 74
globe 74
gülen 74
ham@@ 74
handled 74
ical 74
identical 74
kar@@ 74
lasted 74
leap 74
mature 74
meters 74
milan 74
mirror 74
navy 74
near-zero 74
nurture 74
oc@@ 74
owe 74
pa 74
ped 74
perceive 74
postponed 74
proceeds 74
procurement 74
provoked 74
proximity 74
quietly 74
rapprochement 74
registered 74
resume 74
ride 74
screening 74
social-welfare 74
st-@@ 74
stepped 74
synthetic 74
turks 74
varieties 74
varying 74
well-known 74
witnessing 74
—@@ 74
1.7 73
2.7 73
4.5 73
absolutely 73
analogy 73
articles 73
attended 73
boe 73
canadian 73
caucasus 73
ceos 73
chess 73
compel 73
courses 73
critically 73
detail 73
discover 73
discussing 73
dose 73
dubai 73
embargo 73
end@@ 73
eradicate 73
exceptionally 73
forthcoming 73
fragility 73
geopolitics 73
hand@@ 73
hardest 73
hub 73
husband 73
impending 73
incompetence 73
insurgents 73
irreversible 73
languages 73
los 73
manipulate 73
maximizing 73
merits 73
mistaken 73
modernity 73
navigate 73
nearby 73
picking 73
plastic 73
print 73
prohibition 73
quantities 73
readers 73
repercussions 73
seed 73
sons 73
spurring 73
studying 73
taxing 73
tre@@ 73
ty@@ 73
unavoidable 73
woes 73
2,@@ 72
30,000 72
allocate 72
announce 72
arrival 72
ars 72
avoidance 72
blue 72
bur@@ 72
cite 72
classified 72
clo@@ 72
comply 72
composed 72
conflicting 72
correction 72
criticize 72
crucially 72
crunch 72
customer 72
cyberspace 72
depositors 72
double-digit 72
exploration 72
federation 72
fox 72
freer 72
gay 72
geographic 72
herself 72
iceland 72
illnesses 72
incurred 72
irrigation 72
journalism 72
leone 72
locations 72
loses 72
messages 72
mps 72
oppression 72
osama 72
persecution 72
petroleum 72
pipelines 72
plagued 72
pluralism 72
prediction 72
privilege 72
proceedings 72
promotes 72
questioning 72
rank 72
reassuring 72
rebalance 72
reformed 72
refuses 72
render 72
resemble 72
rules-based 72
satisfaction 72
sho@@ 72
shocking 72
surpassed 72
sympathy 72
transferred 72
tt@@ 72
volcker 72
14@@ 71
3.2 71
47 71
accidents 71
accords 71
acknowledging 71
autumn 71
beneath 71
catalyst 71
conducting 71
consultation 71
dawn 71
debated 71
decides 71
demonstration 71
detect 71
diaspora 71
directors 71
discount 71
dividend 71
drain 71
educate 71
enrollment 71
enshrined 71
entitlement 71
everyday 71
exclude 71
exile 71
fierce 71
financial-sector 71
finished 71
fsb 71
guess 71
havens 71
headwinds 71
highlighting 71
homeowners 71
incident 71
inspiration 71
kissinger 71
manageable 71
markedly 71
meets 71
milton 71
nation-states 71
owner 71
paralyzed 71
patience 71
plunged 71
powered 71
recommend 71
repayment 71
smes 71
steep 71
supervisory 71
systemically 71
theirs 71
ultra-@@ 71
valued 71
vo@@ 71
yo@@ 71
20,000 70
apparatus 70
backdrop 70
broad-based 70
burned 70
clashes 70
confused 70
crossing 70
dan@@ 70
defended 70
defenders 70
deprived 70
diversified 70
domination 70
drones 70
dy 70
employee 70
enjoys 70
exacerbating 70
francisco 70
fundamentalists 70
imp@@ 70
inclined 70
inhabitants 70
intervening 70
jazeera 70
listed 70
multiplier 70
oldest 70
outsize 70
parent 70
particles 70
posts 70
precautionary 70
precious 70
prevails 70
prince 70
professors 70
prohibited 70
prosecutor 70
public-@@ 70
pulled 70
reactor 70
ruler 70
sierra 70
standoff 70
sub-@@ 70
surging 70
transit 70
trillions 70
turnout 70
unfortunate 70
upside 70
us-china 70
verge 70
wi@@ 70
wil@@ 70
would-be 70
2.3 69
adam 69
administered 69
annexation 69
beach 69
bon@@ 69
boon 69
capitals 69
categories 69
cosmopolitan 69
crossed 69
crowds 69
demonstrators 69
designing 69
dictate 69
dismal 69
ef@@ 69
endemic 69
entertainment 69
enthusiastic 69
extraction 69
extraordinarily 69
farc 69
fearing 69
flag 69
flourish 69
flying 69
frequency 69
gamble 69
gcc 69
gener@@ 69
geographical 69
ger 69
hosted 69
ill-@@ 69
inconsistent 69
insists 69
intervened 69
intractable 69
jintao 69
jong-il 69
lin 69
literature 69
lower-@@ 69
majorities 69
mega-@@ 69
minded 69
moments 69
motion 69
newcomers 69
persistently 69
privately 69
proves 69
puzzle 69
reinhart 69
rendered 69
rigorous 69
sparked 69
subjected 69
succeeds 69
swap 69
symbols 69
traits 69
twin 69
unhappy 69
1,@@ 68
1933 68
57 68
67 68
administrations 68
admission 68
ants 68
apartheid 68
asylum-seekers 68
ben@@ 68
calculation 68
clause 68
color 68
complain 68
compromised 68
cop@@ 68
corresponding 68
delegation 68
disclosure 68
discretionary 68
distinguished 68
divorce 68
exported 68
extremes 68
fans 68
feat 68
ges 68
glut 68
growth-@@ 68
havoc 68
horrific 68
hypocrisy 68
iled 68
inflicted 68
innovate 68
intends 68
interior 68
investigations 68
inward 68
lifestyle 68
ll 68
metaphor 68
mobilizing 68
morning 68
olmert 68
orange 68
owes 68
p-@@ 68
persian 68
persuaded 68
predicting 68
que 68
questioned 68
radicalism 68
realization 68
reformist 68
refrain 68
retired 68
ri 68
riots 68
sharif 68
sions 68
skin 68
slaughter 68
staying 68
stunning 68
superiority 68
suppression 68
symptom 68
tap 68
tie 68
transformative 68
undervalued 68
ved 68
warn 68
1968 67
adversaries 67
advised 67
artificially 67
asset-price 67
bahrain 67
bhutto 67
boats 67
boris 67
buffer 67
coffee 67
constructed 67
contradiction 67
counting 67
crowded 67
decreased 67
depended 67
device 67
disregard 67
duration 67
dynasty 67
elevated 67
enjoying 67
ensured 67
enti@@ 67
ering 67
f. 67
fantasy 67
fisheries 67
foot 67
fore@@ 67
fulfilled 67
functional 67
fundamentalist 67
governmental 67
graduate 67
han 67
harbor 67
illicit 67
invaded 67
invention 67
invisible 67
jeopardize 67
ken 67
khrushchev 67
kyi 67
lagging 67
ldp 67
mb@@ 67
ming 67
mountain 67
neuro@@ 67
nice 67
non-governmental 67
notorious 67
oligarchs 67
outbreaks 67
outlays 67
outweigh 67
owed 67
pages 67
participated 67
pessimistic 67
plastics 67
posing 67
prosecution 67
proving 67
reminiscent 67
score 67
sh 67
shes 67
shore 67
siege 67
silvio 67
stores 67
submitted 67
supportive 67
susceptible 67
swift 67
talents 67
tehran 67
tissue 67
walls 67
water-@@ 67
2.4 66
amounting 66
anti-semitism 66
armenia 66
automobile 66
bacteria 66
ball 66
cleaner 66
clever 66
conditionality 66
continuity 66
deficiencies 66
diffusion 66
district 66
down@@ 66
experimental 66
expressing 66
fied 66
financiers 66
floating 66
full-time 66
hab@@ 66
healthcare 66
heated 66
hegemonic 66
heights 66
hugely 66
iaea 66
inertia 66
installed 66
lan@@ 66
lower-income 66
ls 66
machinery 66
maduro 66
ncds 66
optimists 66
outdated 66
payroll 66
penalties 66
percent 66
pis 66
plague 66
plo 66
prague 66
praise 66
predominantly 66
privileges 66
racism 66
ratification 66
refer 66
relatives 66
reporters 66
resignation 66
rock 66
rogoff 66
sad 66
sen@@ 66
sequence 66
shocked 66
sixth 66
supplying 66
suu 66
taxed 66
tendencies 66
tor 66
tour 66
trauma 66
turbulence 66
ugly 66
unchanged 66
underscores 66
unfolding 66
wisely 66
wood 66
working-class 66
£@@ 66
1962 65
64 65
acceleration 65
advancement 65
basically 65
broker 65
celebrated 65
consequently 65
conventions 65
cool 65
cow 65
craft 65
delicate 65
disadvantage 65
discoveries 65
dog 65
enlightenment 65
evaluation 65
foolish 65
gift 65
grassroots 65
heroic 65
i-@@ 65
imposes 65
independently 65
ingredients 65
ited 65
ites 65
jiabao 65
jihadists 65
kgb 65
lucky 65
narendra 65
narrowly 65
objections 65
one-fifth 65
peril 65
perverse 65
preoccupied 65
prevalence 65
primacy 65
proactive 65
protects 65
prudential 65
realm 65
reconsider 65
reinforces 65
respondents 65
row 65
second-@@ 65
separatist 65
signatories 65
sm@@ 65
substantive 65
th-@@ 65
tion-@@ 65
trichet 65
undercut 65
van 65
ver 65
warren 65
yellow 65
49 64
accommodation 64
agent 64
airport 64
ama 64
arena 64
backward 64
balance-of-payments 64
banker 64
bl@@ 64
blessing 64
boo@@ 64
capital-@@ 64
catalonia 64
charismatic 64
ches 64
cho@@ 64
civilized 64
complement 64
credentials 64
disappointed 64
disappointment 64
discouraging 64
disorderly 64
disposable 64
disrupted 64
dissidents 64
el-qaddafi 64
eligible 64
embodied 64
emmanuel 64
endangered 64
engineered 64
fascist 64
fastest 64
fat 64
fertile 64
fever 64
footing 64
frozen 64
fun@@ 64
futile 64
hardline 64
headline 64
hitting 64
imprisoned 64
imprisonment 64
interdependent 64
jurisdictions 64
laying 64
liberia 64
lobby 64
mac@@ 64
mathematics 64
mismanagement 64
modernizing 64
much-@@ 64
murdered 64
neighborhoods 64
nervous 64
no-@@ 64
nostalgia 64
obsession 64
ours 64
pandemic 64
peg 64
perspectives 64
pieces 64
plunge 64
post-world 64
prosper 64
publish 64
pulling 64
questionable 64
rape 64
recovering 64
repaid 64
retained 64
retains 64
sacred 64
servants 64
she@@ 64
shortly 64
slack 64
socioeconomic 64
stu@@ 64
takeover 64
tiananmen 64
tion@@ 64
tipping 64
tyranny 64
uber 64
uncomfortable 64
vigorous 64
weakens 64
wilson 64
writers 64
0.3 63
62 63
alas 63
alleviate 63
analytical 63
argentine 63
ation@@ 63
awarded 63
champions 63
classical 63
comparing 63
constrain 63
curtail 63
cypriot 63
dates 63
debacle 63
defines 63
denominated 63
describing 63
doses 63
ed-@@ 63
eu-@@ 63
exciting 63
explore 63
flee 63
fraught 63
fusion 63
gore 63
gridlock 63
hardship 63
harry 63
holiday 63
iling 63
impeded 63
incompatible 63
inform 63
inner 63
kashmir 63
ki 63
koizumi 63
macro 63
marx 63
ment@@ 63
mohammed 63
multipolar 63
odd 63
one-quarter 63
operated 63
opted 63
par 63
paths 63
persons 63
portray 63
possession 63
powerhouse 63
qualities 63
rejects 63
religions 63
reproductive 63
restrictive 63
rid 63
risk-@@ 63
rohingya 63
selective 63
sensitivity 63
shy 63
specialists 63
still-@@ 63
talked 63
tape 63
trivial 63
ultra-low 63
unregulated 63
unsurprisingly 63
useless 63
wartime 63
watershed 63
withdrawn 63
zes 63
0@@ 62
130 62
1920 62
1987 62
200,000 62
53 62
accordance 62
airports 62
all-@@ 62
asserted 62
bannon 62
burdened 62
burn 62
chemicals 62
colleague 62
conceived 62
consuming 62
convert 62
curve 62
ders 62
diagnosed 62
distributional 62
divisive 62
empowering 62
examination 62
fits 62
formerly 62
framed 62
gy 62
indicating 62
innovators 62
intact 62
jeopardizing 62
ka 62
kes 62
ki-moon 62
mandates 62
mantra 62
market-@@ 62
marketplace 62
married 62
mid@@ 62
mild 62
ministerial 62
mixture 62
monarchy 62
occupying 62
pan-european 62
peers 62
persistence 62
procedure 62
racist 62
resembles 62
resign 62
retaliation 62
schäuble 62
secession 62
shopping 62
short-lived 62
song 62
sorts 62
sovereigns 62
steam 62
sted 62
strengthens 62
tation 62
tibetan 62
tigers 62
trades 62
traveled 62
upheaval 62
volumes 62
worlds 62
yielding 62
41 61
99 61
academy 61
americas 61
antimicrobial 61
arts 61
aversion 61
bets 61
blaming 61
collapses 61
computing 61
condemn 61
congo 61
coordinating 61
cushion 61
democrat 61
depreciate 61
et@@ 61
fascism 61
fertilizer 61
forged 61
forging 61
glance 61
hal@@ 61
hard-@@ 61
ics 61
ills 61
impacts 61
imperatives 61
inc@@ 61
incoming 61
ish 61
landmark 61
lessness 61
lin@@ 61
listening 61
lists 61
locally 61
logistics 61
magic 61
matched 61
militia 61
mitt 61
observation 61
opaque 61
organs 61
orientation 61
overcapacity 61
patriotism 61
pronounced 61
properties 61
readiness 61
refinancing 61
renaissance 61
secrecy 61
settings 61
squeeze 61
stricter 61
submit 61
successors 61
summits 61
taiwanese 61
tank 61
tics 61
transmitted 61
tro@@ 61
twentieth-century 61
un-@@ 61
upholding 61
uruguay 61
virtues 61
widen 61
withdrawing 61
1948 60
1978 60
1988 60
2.1 60
6-@@ 60
8,000 60
abound 60
ads 60
analyses 60
analyze 60
answered 60
anymore 60
arab-israeli 60
ble 60
capturing 60
clock 60
combining 60
cou@@ 60
deb@@ 60
dec@@ 60
deepened 60
deploying 60
depressing 60
disability 60
dividing 60
eli@@ 60
embarked 60
fearful 60
fortunes 60
four-@@ 60
fruits 60
ging 60
guinea 60
hom@@ 60
hor@@ 60
hotel 60
improves 60
ine@@ 60
inflated 60
inquiry 60
junta 60
laboratory 60
leveraging 60
loved 60
low-wage 60
manages 60
manipulated 60
mobilization 60
ngo 60
obscure 60
oil-@@ 60
one-party 60
pessimists 60
prerequisite 60
prosecutors 60
risking 60
sacrifices 60
schengen 60
section 60
seldom 60
shelter 60
sizeable 60
spill 60
sponsored 60
surged 60
tactic 60
teacher 60
tier 60
tourists 60
unconditional 60
unskilled 60
uribe 60
variations 60
versa 60
wal@@ 60
wealthiest 60
weigh 60
yushchenko 60
zedong 60
0.1 59
1929 59
1940 59
1972 59
2.8 59
3.6 59
54 59
7-@@ 59
8-@@ 59
advanced-country 59
alexander 59
assurances 59
asymmetric 59
ation-@@ 59
beating 59
behaviors 59
bizarre 59
broadening 59
brutality 59
charisma 59
chi@@ 59
cholera 59
climate-@@ 59
clinics 59
coal-fired 59
colombian 59
commentary 59
committees 59
compassion 59
confronts 59
consequential 59
convicted 59
countering 59
crown 59
curtain 59
delays 59
developers 59
diversify 59
endure 59
enriched 59
euro-zone 59
farther 59
georgian 59
grain 59
guards 59
helium 59
hollywood 59
horrors 59
hosting 59
human-@@ 59
illustrates 59
imposition 59
inspiring 59
lags 59
lawyer 59
license 59
lucrative 59
magazine 59
measurable 59
mergers 59
minimizing 59
mohammad 59
morales 59
mp 59
ns 59
occasions 59
opt 59
pilot 59
plain 59
pneumonia 59
portrayed 59
preventable 59
priced 59
quota 59
radicalization 59
rainfall 59
recourse 59
scant 59
short-run 59
simplistic 59
slows 59
socialists 59
ster 59
stops 59
strife 59
suggestion 59
tailored 59
tanzania 59
tip 59
totalitarian 59
treasuries 59
unbalanced 59
upgrade 59
viability 59
worthwhile 59
46 58
51 58
82 58
adjusting 58
advocacy 58
alists 58
all-time 58
arising 58
armies 58
authorized 58
automobiles 58
av@@ 58
bat@@ 58
believers 58
boosts 58
chaotic 58
clearing 58
conscience 58
constituency 58
continuation 58
convened 58
corbyn 58
cru@@ 58
deadline 58
dered 58
devastated 58
develops 58
devised 58
dismantling 58
disparate 58
donations 58
employing 58
extract 58
fatigue 58
franco-german 58
ged 58
gesture 58
gm 58
handling 58
hybrid 58
imperialism 58
influences 58
isolationism 58
jointly 58
lagarde 58
length 58
mile 58
monopolies 58
multi@@ 58
myself 58
omt 58
osce 58
overwhelmed 58
palace 58
possesses 58
precarious 58
resisting 58
retrenchment 58
rogue 58
rumsfeld 58
safeguarding 58
savvy 58
self-fulfilling 58
shah 58
signaling 58
simpler 58
single-@@ 58
solvency 58
spark 58
spillover 58
spots 58
st. 58
stabilized 58
str@@ 58
stretch 58
stringent 58
tale 58
thirty 58
toppled 58
tortured 58
underpinning 58
uprisings 58
utility 58
varied 58
visions 58
wealthier 58
xenophobia 58
yasukuni 58
yielded 58
1985 57
2007-2008 57
63 57
ah@@ 57
asserting 57
assertion 57
austrian 57
auto 57
ay@@ 57
breach 57
brexiteers 57
britons 57
candidacy 57
capitalize 57
carter 57
chooses 57
ck 57
co 57
coercion 57
coincidence 57
collaborative 57
commander 57
completing 57
contend 57
costa 57
crafted 57
d. 57
diarrhea 57
disadvantaged 57
drastic 57
dysfunction 57
eating 57
employer 57
ents 57
ethos 57
expecting 57
exposing 57
faction 57
famine 57
financial-@@ 57
foresee 57
fur@@ 57
ger@@ 57
goodwill 57
gr@@ 57
gran@@ 57
gre@@ 57
groundwork 57
harmony 57
hassan 57
hoc 57
horse 57
hyper-@@ 57
hypothesis 57
indebtedness 57
indices 57
inefficiency 57
jihadist 57
karzai 57
kids 57
lock 57
mentality 57
naive 57
needless 57
nuclear-@@ 57
obsessed 57
polarized 57
populous 57
post-soviet 57
qualify 57
railway 57
reassure 57
remedies 57
rescued 57
resurgence 57
scandinavian 57
sidelines 57
slide 57
slovakia 57
smarter 57
spiritual 57
stars 57
starvation 57
string 57
subtle 57
supplied 57
sw@@ 57
swings 57
tightened 57
tolerant 57
tracking 57
transformational 57
translated 57
tripled 57
unanimously 57
variable 57
walking 57
well-functioning 57
workplace 57
1975 56
3.3 56
66 56
abundance 56
accumulating 56
ades 56
agrees 56
ambiguous 56
arose 56
arrow 56
beirut 56
bent 56
betting 56
bla@@ 56
ble@@ 56
bombings 56
bulgaria 56
circulation 56
clubs 56
comp@@ 56
compensated 56
conception 56
confirms 56
contingent 56
dam@@ 56
decision-makers 56
desert 56
domain 56
ehud 56
ek 56
emirates 56
enforcing 56
ep@@ 56
epidemics 56
fbi 56
fiction 56
flu 56
hardliners 56
hel@@ 56
heroes 56
hun@@ 56
identification 56
inclusiveness 56
interpret 56
investigate 56
ire 56
josé 56
latvia 56
lofty 56
mines 56
my@@ 56
off-@@ 56
ov 56
overlook 56
passes 56
patriotic 56
peculiar 56
powell 56
predicament 56
prevalent 56
rap@@ 56
reckoning 56
recruit 56
redress 56
rents 56
replied 56
rewarded 56
rocket 56
seeming 56
senators 56
session 56
shiite 56
sister 56
staged 56
stature 56
sy@@ 56
taylor 56
technologically 56
tering 56
throwing 56
unchecked 56
underscore 56
underscored 56
unilateralism 56
untenable 56
ussr 56
va 56
vessels 56
winston 56
wo@@ 56
1.9 55
1947 55
3-@@ 55
59 55
88 55
abrupt 55
ack 55
acquiring 55
acquisition 55
advent 55
aided 55
all@@ 55
assembled 55
audiences 55
ba 55
babies 55
bailed 55
branches 55
buried 55
caliphate 55
catalyze 55
catholics 55
combines 55
contemplate 55
contempt 55
contested 55
czechoslovakia 55
dar@@ 55
designated 55
determines 55
diplomat 55
disciplines 55
economic-policy 55
efsf 55
els 55
est@@ 55
exp@@ 55
fast-growing 55
fer@@ 55
forgiveness 55
fying 55
ga 55
hawks 55
heating 55
hiding 55
highway 55
hubris 55
illusions 55
im 55
individually 55
ines 55
infant 55
ini 55
karl 55
kin 55
kofi 55
kyiv 55
lam@@ 55
lean 55
liberalizing 55
manipulating 55
massachusetts 55
micro-@@ 55
mode 55
murderous 55
national-security 55
non-tradable 55
occupations 55
of-@@ 55
organ 55
polling 55
pping 55
premiums 55
punished 55
purchased 55
rankings 55
recapitalization 55
recoveries 55
reminds 55
revenge 55
sdg 55
self-determination 55
shaken 55
shops 55
spd 55
subsidize 55
tar@@ 55
taste 55
textbook 55
therapies 55
top-down 55
trick 55
variant 55
vowed 55
worldview 55
yed 55
yourself 55
1950s 54
ada 54
aiming 54
attainment 54
au 54
aw@@ 54
barroso 54
bli@@ 54
bloodshed 54
bor@@ 54
boy 54
brilliant 54
broadcast 54
charity 54
cl@@ 54
comparisons 54
compound 54
conducive 54
contradictions 54
convenience 54
converge 54
conversion 54
corps 54
crisis-@@ 54
cross-@@ 54
cs 54
darwin 54
deteriorated 54
dragged 54
ethnicity 54
federalism 54
fifa 54
films 54
gs 54
guaranteeing 54
guilt 54
hol@@ 54
hopeful 54
icty 54
impetus 54
int@@ 54
ironic 54
ist@@ 54
je@@ 54
killer 54
lobbyists 54
loc@@ 54
local-government 54
meaningless 54
medicaid 54
motive 54
niger 54
ntc 54
parallels 54
plenum 54
pp@@ 54
preceding 54
pres@@ 54
pro-european 54
proportions 54
prudence 54
publishing 54
punitive 54
rent 54
reviews 54
rooms 54
rou@@ 54
santos 54
scenes 54
sdrs 54
severity 54
simultaneous 54
slavery 54
spared 54
stayed 54
stolen 54
supplier 54
survivors 54
textbooks 54
thoughtful 54
transferring 54
user 54
varoufakis 54
verdict 54
virtuous 54
widened 54
wildlife 54
william 54
withdrew 54
worsened 54
wrought 54
yesterday 54
za 54
1974 53
abortion 53
ach@@ 53
adapting 53
announcing 53
anwar 53
athletes 53
autocracy 53
bang 53
battlefield 53
brains 53
catch-up 53
cbo 53
celebration 53
centric 53
chase 53
cheaply 53
codes 53
collecting 53
connecting 53
consciousness 53
consolidated 53
conundrum 53
convenient 53
courageous 53
decay 53
departments 53
designs 53
devastation 53
disappearance 53
divert 53
drug-@@ 53
enters 53
ess@@ 53
euro-@@ 53
exploring 53
externalities 53
fastest-growing 53
foreign-@@ 53
friction 53
gate 53
healing 53
hosts 53
ict 53
importers 53
importing 53
injections 53
injured 53
jiang 53
khodorkovsky 53
l-@@ 53
larry 53
lawmakers 53
legislature 53
lining 53
luxembourg 53
mandated 53
marijuana 53
muhammad 53
nordic 53
outgoing 53
pay@@ 53
pie 53
prisons 53
random 53
real-world 53
republics 53
ries 53
rivalries 53
rmb 53
roadmap 53
rolled 53
rumors 53
sec@@ 53
shattered 53
shield 53
snowden 53
societal 53
specified 53
sponsors 53
squandered 53
stating 53
stresses 53
supranational 53
taboo 53
tamil 53
tempting 53
thoroughly 53
traumatic 53
uniquely 53
unveiled 53
urging 53
voluntarily 53
wearing 53
westerners 53
wholly 53
wolfowitz 53
zombie 53
0.2 52
199@@ 52
56 52
addiction 52
alienated 52
ambiguity 52
anti-establishment 52
anti-immigrant 52
are@@ 52
arm@@ 52
attributable 52
barring 52
bars 52
beef 52
bitcoin 52
blunt 52
ca 52
campaigning 52
care@@ 52
cas@@ 52
ce 52
cer@@ 52
chechnya 52
chernobyl 52
clarify 52
condemnation 52
conf@@ 52
confusing 52
convene 52
couldn 52
crossroads 52
curbing 52
dare 52
debating 52
deterrent 52
directions 52
dropping 52
dual 52
endorsement 52
envoy 52
fathers 52
five-@@ 52
frame 52
franc 52
fringe 52
gl@@ 52
grab 52
gun@@ 52
hegemon 52
hierarchy 52
humiliating 52
i.e. 52
indications 52
intend 52
interfere 52
isolate 52
jump 52
killers 52
leisure 52
lengthy 52
lifestyles 52
livestock 52
massively 52
natural-resource 52
ne 52
new@@ 52
observer 52
offense 52
overheating 52
overvalued 52
passionate 52
peres 52
periodic 52
please 52
pra@@ 52
practitioners 52
pro-growth 52
proteins 52
purge 52
rac@@ 52
relating 52
revision 52
salary 52
santiago 52
settlers 52
shop 52
shorter 52
sion 52
soul 52
spearheaded 52
spheres 52
stagnating 52
standpoint 52
starkly 52
sti@@ 52
strained 52
stupid 52
subdued 52
succeeding 52
succumb 52
sway 52
tacit 52
taxpayer 52
tenth 52
turbulent 52
undergo 52
versions 52
vocational 52
von 52
wear 52
whoever 52
xinjiang 52
ys 52
­@@ 52
absorbed 51
airlines 51
aleppo 51
amendments 51
anglo-saxon 51
arsenals 51
assessed 51
attached 51
balkan 51
banning 51
best-@@ 51
bhutan 51
biofuels 51
bolstering 51
bru@@ 51
calculus 51
capitalists 51
carbon-@@ 51
cease 51
cents 51
championed 51
citing 51
coined 51
converted 51
cry 51
curse 51
danish 51
delaying 51
derive 51
devaluations 51
dra@@ 51
drilling 51
encounter 51
ent-@@ 51
erratic 51
exact 51
excitement 51
fire@@ 51
fiscally 51
flu@@ 51
formulate 51
fortunate 51
gan@@ 51
grids 51
hasn 51
hurricanes 51
ideologies 51
israel-palestine 51
it-@@ 51
jihadi 51
kers 51
khomeini 51
know-how 51
lax 51
lingering 51
load 51
lows 51
mc@@ 51
measurement 51
modification 51
multinationals 51
nationality 51
nationwide 51
nexus 51
ot 51
physicians 51
pla 51
pregnant 51
premise 51
pretend 51
protective 51
pun@@ 51
referring 51
requests 51
retaining 51
ryan 51
shooting 51
similarities 51
sla@@ 51
slight 51
stein 51
ster@@ 51
sterling 51
strive 51
subprime 51
suspend 51
tr@@ 51
underpins 51
uneven 51
unusually 51
visa 51
work@@ 51
1984 50
2-@@ 50
2000s 50
58 50
6,000 50
abstract 50
aggravated 50
angeles 50
appearing 50
assertiveness 50
atory 50
automated 50
awakening 50
bernie 50
better-@@ 50
birds 50
blocks 50
bolstered 50
buddhist 50
bul@@ 50
bullying 50
calamity 50
campaigned 50
canceled 50
chaired 50
char@@ 50
characteristic 50
characterize 50
combatants 50
commensurate 50
concludes 50
constituents 50
corn 50
covers 50
criticizing 50
cruel 50
damascus 50
declarations 50
deductions 50
discern 50
discouraged 50
dominates 50
einstein 50
escaping 50
esm 50
ex-@@ 50
exert 50
feeding 50
ff 50
filling 50
flaw 50
foreign-currency 50
genetics 50
ghost 50
happily 50
haram 50
harness 50
highs 50
implicitly 50
implosion 50
incite 50
infamous 50
inflict 50
insurers 50
interestingly 50
invading 50
ky 50
lau@@ 50
le-@@ 50
likud 50
looms 50
offsetting 50
oned 50
outs 50
passion 50
pave 50
politicized 50
polity 50
por@@ 50
powerless 50
preferable 50
presupposes 50
printed 50
responsibly 50
rica 50
scaling 50
searching 50
sleep 50
stockholm 50
tw@@ 50
uniform 50
unraveling 50
ventures 50
vigorously 50
viruses 50
warranted 50
wholesale 50
wilders 50
.5 49
1944 49
1949 49
4,000 49
52 49
alert 49
alienation 49
ana 49
analogous 49
anchored 49
anti-semitic 49
azerbaijan 49
belongs 49
bureau 49
burgeoning 49
cam@@ 49
cheney 49
classroom 49
climb 49
clothing 49
colonialism 49
commons 49
completion 49
cont@@ 49
countryside 49
covert 49
criterion 49
cro@@ 49
croatia 49
curious 49
dams 49
den 49
depleted 49
dilemmas 49
distort 49
drift 49
ear@@ 49
egregious 49
enrich 49
equals 49
exercised 49
export-oriented 49
fly 49
generic 49
girl 49
glass-steagall 49
grade 49
hailed 49
hill 49
homegrown 49
hyper@@ 49
ie 49
ile 49
immunity 49
input 49
instances 49
invoked 49
izes 49
ja@@ 49
katrina 49
kenneth 49
kur@@ 49
label 49
lying 49
mankind 49
masters 49
meddling 49
melting 49
military-@@ 49
monitored 49
morgan 49
multiculturalism 49
nationals 49
non-performing 49
nonsense 49
ong 49
oning 49
operators 49
opium 49
opposes 49
oversee 49
pandemics 49
perpetual 49
phased 49
plentiful 49
pr@@ 49
precision 49
preparation 49
public-debt 49
realpolitik 49
regulator 49
reign 49
rer 49
resumption 49
revise 49
rewarding 49
robot 49
sadat 49
schedule 49
segment 49
self 49
sellers 49
signature 49
sinking 49
star@@ 49
stuff 49
suffice 49
suppressed 49
tel@@ 49
tiger 49
topics 49
transcend 49
ture 49
uk@@ 49
universally 49
upheavals 49
victories 49
violating 49
wishful 49
yan 49
yuan 49
zation 49
zionism 49
0.4 48
0.8 48
27@@ 48
50-@@ 48
77 48
ade 48
adherence 48
amnesty 48
antly 48
articulated 48
aspire 48
ate@@ 48
att@@ 48
attractiveness 48
attribute 48
autocrats 48
bans 48
barcelona 48
bind 48
bipolar 48
blocs 48
boat 48
boko 48
bosnian 48
bosses 48
burmese 48
caste 48
ccs 48
columbia 48
concert 48
condemning 48
constraining 48
contexts 48
continually 48
contracting 48
copper 48
costing 48
couples 48
coups 48
cronies 48
deception 48
defiance 48
del@@ 48
depreciated 48
dictates 48
dies 48
dismantle 48
displayed 48
emanating 48
embodies 48
endgame 48
equation 48
escaped 48
et 48
experimentation 48
favoring 48
folly 48
friendship 48
full-blown 48
gn@@ 48
grouping 48
halted 48
human@@ 48
ili@@ 48
inauguration 48
incorporated 48
iness 48
inexpensive 48
instant 48
intolerance 48
ji@@ 48
jumped 48
linguistic 48
longest 48
manager 48
matching 48
mem@@ 48
mer 48
metrics 48
milosevic 48
minute 48
misses 48
mosquito 48
murdoch 48
nairobi 48
nigerian 48
old-fashioned 48
osborne 48
paved 48
peer 48
pot 48
prohibit 48
promptly 48
prop 48
re-elected 48
renew 48
requested 48
retirees 48
riskier 48
routes 48
saakashvili 48
sar@@ 48
secularism 48
sel@@ 48
senkaku 48
sentences 48
separated 48
serbian 48
shoulder 48
smoothly 48
stri@@ 48
strides 48
stroke 48
suits 48
supremacy 48
swe@@ 48
tical 48
tur@@ 48
tymoshenko 48
unexpectedly 48
unfettered 48
vocal 48
waning 48
xenophobic 48
20-@@ 47
300,000 47
900 47
abkhazia 47
accepts 47
advisory 47
alibaba 47
allocating 47
andrew 47
appalling 47
artists 47
asi 47
attachment 47
augment 47
backs 47
beauty 47
bribes 47
briefly 47
bus 47
businessman 47
cape 47
carney 47
cn¥@@ 47
collaborate 47
commissions 47
culminated 47
curriculum 47
deadlock 47
delusion 47
disdain 47
downs 47
entitlements 47
examining 47
excellence 47
fabric 47
fence 47
fines 47
finish 47
form@@ 47
founders 47
freed 47
granting 47
guerrilla 47
hamilton 47
helm 47
high-speed 47
hubs 47
ibrahim 47
illiquid 47
inconvenient 47
incumbents 47
institutes 47
invite 47
ip 47
j. 47
keynesians 47
kirchner 47
ko 47
lawsuits 47
layer 47
lip 47
lobbies 47
logistical 47
mad@@ 47
maps 47
meager 47
metric 47
money-market 47
museum 47
nationalistic 47
nationally 47
nicaragua 47
noble 47
non-financial 47
nuclear-weapons 47
often-@@ 47
one-child 47
ong@@ 47
peasants 47
pensioners 47
phenomena 47
pleasure 47
practiced 47
pradesh 47
prioritize 47
provider 47
rabin 47
repeating 47
restaurants 47
restructured 47
retire 47
ron 47
russian-@@ 47
sharia 47
sink 47
six-party 47
small-scale 47
soar 47
sometime 47
steer 47
suppressing 47
surgical 47
surpass 47
suspects 47
suspicions 47
swiftly 47
syndrome 47
testimony 47
thoughts 47
tradeoff 47
trains 47
undeniable 47
usage 47
waging 47
warrant 47
weighed 47
world-class 47
wounded 47
yale 47
12th 46
140 46
3.4 46
3.8 46
5.5 46
68 46
81 46
abide 46
abruptly 46
afflicted 46
ai@@ 46
altered 46
altering 46
ann@@ 46
architects 46
ash@@ 46
asi@@ 46
astonishing 46
backstop 46
bangkok 46
barred 46
biased 46
billionaire 46
boss 46
breeding 46
brutally 46
c. 46
cancers 46
cer 46
chan@@ 46
chart 46
cloud 46
comprehend 46
compulsory 46
contacts 46
contracted 46
cricket 46
cul@@ 46
daughters 46
deepest 46
definitive 46
desperation 46
detainees 46
dri@@ 46
dy@@ 46
eighteenth 46
encountered 46
encouragement 46
endorse 46
ented 46
ery 46
est 46
expands 46
expire 46
expressions 46
fairer 46
filed 46
full-scale 46
genius 46
green@@ 46
grexit 46
habit 46
humane 46
impediments 46
inferior 46
install 46
invitation 46
islam@@ 46
janet 46
kaczyński 46
ken@@ 46
labeled 46
landslide 46
lers 46
lord 46
m-@@ 46
melbourne 46
messy 46
milestone 46
motivations 46
mystery 46
napoleon 46
negligible 46
normalize 46
ny 46
objects 46
obtaining 46
open-ended 46
ousted 46
pal@@ 46
pan-@@ 46
pat@@ 46
pause 46
peaked 46
perilous 46
persuading 46
piketty 46
pre-industrial 46
pretext 46
pump 46
ration@@ 46
recruitment 46
referenda 46
regret 46
relentlessly 46
retailers 46
rockets 46
sat 46
scholar 46
self-defeating 46
servicing 46
settling 46
shortfalls 46
shutdown 46
sin 46
skewed 46
spin 46
start-ups 46
stern 46
stifling 46
straight 46
tainted 46
texts 46
thereafter 46
tightly 46
tively 46
tocqueville 46
ve-@@ 46
vers 46
viewers 46
wield 46
wounds 46
yu@@ 46
1931 45
198@@ 45
aca 45
analyzing 45
ar-@@ 45
bite 45
bloated 45
bol@@ 45
brunt 45
builds 45
calculate 45
cdu 45
ces 45
chemistry 45
china-@@ 45
comprised 45
conversations 45
conversely 45
convey 45
cultivate 45
dampen 45
daniel 45
delta 45
demagogues 45
derail 45
descent 45
deterred 45
dissatisfaction 45
downgrade 45
dre@@ 45
eg@@ 45
eggs 45
elaborate 45
electorates 45
environmentalists 45
eroding 45
escalate 45
fidel 45
frank 45
free-@@ 45
gam@@ 45
generational 45
harmonization 45
havel 45
hy@@ 45
icc 45
idle 45
immoral 45
impaired 45
incorporate 45
intellectual-property 45
internationalization 45
interpretations 45
intifada 45
intimidation 45
joblessness 45
law@@ 45
lent 45
lia 45
life-saving 45
lights 45
liked 45
ly@@ 45
macroeconomics 45
mel@@ 45
mexicans 45
mgi 45
mill 45
mineral 45
mo 45
molecular 45
moon 45
mutations 45
noticed 45
now-@@ 45
od@@ 45
overarching 45
part-time 45
patronage 45
pc 45
planting 45
post-communist 45
praised 45
predictably 45
preservation 45
prompt 45
pursues 45
q 45
register 45
reiterated 45
responds 45
restaurant 45
rough 45
ruthless 45
saleh 45
salvador 45
schröder 45
scre@@ 45
seizing 45
selfish 45
sentenced 45
separatists 45
shell 45
slogans 45
soviets 45
spaces 45
spell 45
stephen 45
stra@@ 45
strait 45
stretching 45
swfs 45
teeth 45
telephone 45
tom@@ 45
topple 45
tribes 45
twist 45
ty-@@ 45
und@@ 45
unfinished 45
unimaginable 45
updated 45
variation 45
vatican 45
vengeance 45
weakest 45
wondering 45
wonders 45
­– 45
-to-@@ 44
-up 44
0s 44
180 44
1969 44
4-@@ 44
76 44
86 44
87 44
accuracy 44
acy 44
admitting 44
apo@@ 44
arrogance 44
articulate 44
assigned 44
assure 44
attending 44
averaging 44
baseline 44
biases 44
bly 44
bp 44
bre@@ 44
buildup 44
bullets 44
capitalized 44
citigroup 44
cleansing 44
coercive 44
comment 44
complicating 44
concede 44
cooking 44
copy 44
crumbling 44
culturally 44
deficient 44
descendants 44
deteriorate 44
diamond 44
differential 44
disparity 44
dollar-denominated 44
don@@ 44
doubtful 44
embark 44
eng@@ 44
envisaged 44
envy 44
establishes 44
europe-wide 44
exiting 44
fade 44
file 44
fischer 44
fomc 44
forums 44
fran@@ 44
frightening 44
frontiers 44
full-fledged 44
head@@ 44
hearings 44
holes 44
horror 44
hurting 44
ignorant 44
illiteracy 44
immensely 44
impulse 44
inadvertently 44
ities 44
ker@@ 44
lat@@ 44
legislatures 44
len@@ 44
levy 44
logy 44
loud 44
manifest 44
manmohan 44
med 44
narrowed 44
noting 44
oppressive 44
ore 44
panacea 44
panama 44
permitting 44
persuasive 44
petty 44
plummeting 44
portuguese 44
post-cold 44
posture 44
prescriptions 44
provocative 44
provoking 44
reconciling 44
recycling 44
refuge 44
riding 44
seattle 44
seventh 44
shores 44
smuggling 44
specialization 44
squ@@ 44
stall 44
startups 44
stifle 44
suitable 44
sympathetic 44
tam@@ 44
traveling 44
undemocratic 44
uniting 44
victorious 44
welcoming 44
winds 44
writes 44
zika 44
-- 43
2019 43
72 43
74 43
8.5 43
abolished 43
admired 43
afforded 43
ammunition 43
annualized 43
antagonism 43
apology 43
appropriately 43
arriving 43
backgrounds 43
bad@@ 43
bes 43
big-@@ 43
biomedical 43
biotechnology 43
boasts 43
bombers 43
brands 43
campaigners 43
caring 43
ced 43
charities 43
che 43
chin@@ 43
coherence 43
colonies 43
compromising 43
conservatism 43
constituent 43
contributor 43
critique 43
deficiency 43
demographics 43
desires 43
destined 43
detained 43
determinant 43
dom@@ 43
draws 43
educating 43
edward 43
ening 43
excludes 43
expenses 43
fast-@@ 43
forecasters 43
forward-looking 43
halved 43
hayek 43
hazards 43
high-profile 43
hur@@ 43
impedes 43
impediment 43
incited 43
incompetent 43
inheritance 43
invaluable 43
issuance 43
jailed 43
jimmy 43
kin@@ 43
leaked 43
leaks 43
manchester 43
marry 43
mecca 43
mercy 43
millennia 43
mini-@@ 43
mountains 43
mounted 43
muddle 43
narrowing 43
negatively 43
notoriously 43
om 43
ominous 43
originated 43
ousness 43
outlined 43
outward 43
pentagon 43
pivotal 43
plan@@ 43
politburo 43
positively 43
predictability 43
prejudice 43
pri 43
prophet 43
provocations 43
publications 43
redistributive 43
remarks 43
remembering 43
ruin 43
sample 43
sends 43
setbacks 43
shipping 43
shoes 43
showdown 43
smoke 43
sober 43
social-@@ 43
spectacularly 43
spotlight 43
sses 43
stiglitz 43
sunni-shia 43
supplement 43
suspension 43
swung 43
tahrir 43
tapping 43
tense 43
theater 43
third-@@ 43
trade-@@ 43
troop 43
unjust 43
untuk 43
utter 43
van@@ 43
vanished 43
waged 43
wasteful 43
,000-@@ 42
-of-gdp 42
2.@@ 42
4.3 42
9-@@ 42
97 42
abolish 42
academia 42
anarchy 42
architect 42
aries 42
arrows 42
award 42
billionaires 42
biomass 42
black@@ 42
blackmail 42
burden-sharing 42
by-@@ 42
carmen 42
cartels 42
catching 42
circumvent 42
cleaning 42
communal 42
conceptual 42
cooperating 42
cornerstone 42
councils 42
counter-productive 42
cy 42
debilitating 42
defeating 42
defuse 42
defy 42
discredit 42
discriminatory 42
dogs 42
doom 42
dow 42
downstream 42
economic-growth 42
el-@@ 42
electronics 42
emit 42
endowments 42
eu-wide 42
eurasia 42
evaluating 42
fallacy 42
faltering 42
fashionable 42
favorably 42
formulated 42
free@@ 42
generosity 42
glory 42
gri@@ 42
grounded 42
guerrillas 42
harassment 42
highways 42
home@@ 42
humanities 42
income-tax 42
indifferent 42
influencing 42
ingredient 42
islamabad 42
kurdistan 42
lab 42
lama 42
lessly 42
lets 42
liberated 42
liver 42
loom 42
loop 42
lords 42
lots 42
lunch 42
mad 42
mathematical 42
mediocre 42
michel 42
mid-century 42
misplaced 42
mozambique 42
nazism 42
naïve 42
newfound 42
non-profit 42
okinawa 42
one-time 42
ossetia 42
out-@@ 42
overdue 42
parameters 42
paramount 42
partition 42
pas@@ 42
physically 42
pin@@ 42
pioneering 42
port@@ 42
processed 42
prominence 42
propel 42
propelled 42
psychiatric 42
quar@@ 42
quit 42
railways 42
registration 42
reinvigorate 42
relation 42
renewable-energy 42
rethinking 42
rim 42
sand 42
scaled 42
scourge 42
se-@@ 42
sequencing 42
setback 42
sheikh 42
shortsighted 42
shrunk 42
smo@@ 42
stagnated 42
sticking 42
stubbornly 42
substitutes 42
substitution 42
tail 42
taxi 42
theresa 42
tic@@ 42
tin 42
tired 42
top-@@ 42
torn 42
totaling 42
tting 42
tune 42
tunisian 42
two-year 42
ubiquitous 42
unaware 42
undesirable 42
uneasy 42
unhealthy 42
uni@@ 42
unpleasant 42
upheld 42
utilities 42
validity 42
willingly 42
yukos 42
-and-@@ 41
10-15 41
350 41
accompany 41
accompanying 41
accusing 41
ach 41
acquisitions 41
adherents 41
aig 41
amend 41
amp@@ 41
anonymous 41
anti-american 41
anxieties 41
ath 41
atmospheric 41
avoids 41
bailing 41
barrels 41
belonging 41
biden 41
blue-collar 41
bout 41
brac@@ 41
bullet 41
bundestag 41
buys 41
carnage 41
chauvinism 41
clothes 41
cocaine 41
cohesive 41
consolidating 41
crippling 41
deeds 41
delegates 41
dent 41
diets 41
dilma 41
distances 41
divergent 41
diversion 41
dust 41
earners 41
economy-wide 41
embody 41
empathy 41
enhances 41
eternal 41
fleet 41
float 41
flooded 41
food-@@ 41
for-@@ 41
ford 41
fore 41
fy 41
gauge 41
gerhard 41
greeted 41
histories 41
ibm 41
inappropriate 41
incidence 41
instincts 41
instructive 41
insure 41
jim 41
journals 41
junior 41
khatami 41
las 41
leg@@ 41
lenin 41
levers 41
life-@@ 41
lithuania 41
locals 41
longevity 41
loosen 41
loosening 41
metals 41
minerals 41
mit@@ 41
momentous 41
nascent 41
neurons 41
notions 41
nuanced 41
nurses 41
offspring 41
owns 41
parks 41
pax 41
pe 41
pesticides 41
policing 41
post@@ 41
posturing 41
pped 41
precedents 41
predicts 41
preparedness 41
price-@@ 41
prisoner 41
pro-democracy 41
prompting 41
prosecuted 41
prospective 41
publicized 41
punishing 41
pur@@ 41
quagmire 41
quantum 41
recalls 41
recessionary 41
relieve 41
rendering 41
reserved 41
reshaping 41
restrain 41
resurgent 41
revolutionaries 41
rhetorical 41
ris@@ 41
rupee 41
satisfying 41
schumpeter 41
sco@@ 41
screen 41
self-serving 41
separately 41
serb 41
silva 41
spectacle 41
stockpiles 41
suicidal 41
sul@@ 41
surgery 41
surveyed 41
tasked 41
tin@@ 41
translates 41
tumor 41
um@@ 41
unanimous 41
unrelated 41
unwanted 41
upset 41
villagers 41
volunteers 41
wildly 41
wrongly 41
yemeni 41
15-@@ 40
1977 40
1997-1998 40
2100 40
30-year 40
30@@ 40
78 40
abused 40
accomplishments 40
adversely 40
aides 40
alexis 40
allegiance 40
ams 40
antibiotic 40
anticipating 40
anticipation 40
ao 40
appeasement 40
ate-@@ 40
banner 40
beaten 40
bil@@ 40
bles 40
cervical 40
cigarettes 40
clouds 40
commissioned 40
complications 40
constitutions 40
cotton 40
dearth 40
directive 40
disarray 40
disciplined 40
discretion 40
disrupting 40
divides 40
drug-resistant 40
dur@@ 40
eisenhower 40
empires 40
en-@@ 40
endeavor 40
energies 40
erupt 40
ess 40
far@@ 40
fle@@ 40
flo@@ 40
fluid 40
forcefully 40
fta 40
gas-@@ 40
glass 40
growth-enhancing 40
guatemala 40
hardware 40
hell 40
hesitate 40
himalayan 40
hired 40
hits 40
hollow 40
hon@@ 40
hurdles 40
ide@@ 40
insider 40
intermediate 40
intermediation 40
j 40
kick 40
kills 40
lan 40
libyans 40
lim@@ 40
log@@ 40
mafia 40
medieval 40
mercantilist 40
merger 40
mitterrand 40
moderately 40
nat@@ 40
nurtured 40
ori@@ 40
overlapping 40
panels 40
pending 40
phelps 40
planetary 40
polar 40
post-2015 40
prejudices 40
prematurely 40
preserved 40
prolong 40
propensity 40
queen 40
raging 40
rallied 40
reassured 40
reliant 40
remarked 40
resounding 40
retraining 40
revaluation 40
rift 40
rigged 40
robotics 40
salman 40
sam@@ 40
sav@@ 40
schroeder 40
scratch 40
seriousness 40
shake 40
shall 40
slashed 40
spare 40
spirits 40
spontaneous 40
squarely 40
stepping 40
sunday 40
tab@@ 40
thorough 40
ticket 40
timetable 40
tolerated 40
transformations 40
tz 40
unease 40
ung 40
unifying 40
ups 40
vain 40
valuations 40
veil 40
vitality 40
wanting 40
wide-ranging 40
wolf 40
zhao 40
í@@ 40
— 40
0.9 39
500,000 39
7,000 39
84 39
93 39
abilities 39
abyss 39
accuse 39
addis 39
admiration 39
adversary 39
ailing 39
akan 39
algerian 39
all-out 39
alternatively 39
anti-western 39
applicable 39
appointments 39
arming 39
asks 39
attendance 39
bashir 39
behaving 39
beset 39
bidding 39
borrower 39
boycott 39
burdensome 39
charitable 39
chechen 39
churches 39
cio 39
colleges 39
complacent 39
compounds 39
confirmation 39
constituted 39
constructing 39
contrasts 39
cost-@@ 39
countercyclical 39
crack 39
creditworthiness 39
ctbt 39
culprit 39
deli@@ 39
denies 39
detection 39
deutsche 39
devalue 39
direc@@ 39
disaffected 39
disinformation 39
dissolution 39
distinctive 39
echo 39
enacting 39
entrants 39
epic 39
estonia 39
ethanol 39
farmland 39
featured 39
feeds 39
finger 39
fixes 39
footprint 39
forbidden 39
german-@@ 39
greatness 39
gru@@ 39
gy@@ 39
hallmark 39
harvest 39
hear@@ 39
humiliated 39
ida 39
ids 39
inclination 39
inconceivable 39
incur 39
installations 39
insurmountable 39
ja 39
jeremy 39
jobless 39
labor-@@ 39
lebih 39
loopholes 39
macri 39
maker 39
manifestation 39
manila 39
marshal 39
massacres 39
mil@@ 39
milk 39
motor 39
mul@@ 39
na 39
nasa 39
nasser 39
nelson 39
neoliberal 39
nieto 39
nokia 39
nominated 39
nurturing 39
nutritional 39
oath 39
occasional 39
oda 39
off@@ 39
or-@@ 39
orleans 39
ouster 39
periodically 39
pew 39
peña 39
pho@@ 39
physicists 39
pl@@ 39
pop 39
poster 39
preparations 39
presided 39
pro-market 39
provocation 39
proxies 39
recapitalize 39
recurring 39
renegotiation 39
righ@@ 39
risk-free 39
rowhani 39
rushed 39
short- 39
shrine 39
shu@@ 39
smallest 39
sor@@ 39
spillovers 39
stan@@ 39
start-up 39
sters 39
subsidizing 39
subsistence 39
supervisor 39
surprises 39
surviving 39
sustainably 39
tertiary 39
then-president 39
third-largest 39
tree 39
trips 39
unreasonable 39
us-japan 39
vacation 39
victor 39
wahhabi 39
war-@@ 39
ward 39
xi@@ 39
yan@@ 39
15,000 38
1956 38
2.9 38
3d 38
73 38
ababa 38
accommodating 38
affiliated 38
aggravate 38
ally-@@ 38
analyzed 38
appearances 38
ara 38
assisted 38
associate 38
attain 38
aung 38
bank-@@ 38
bare 38
basin 38
berg 38
bordering 38
boring 38
brinkmanship 38
budapest 38
build-up 38
bureaucracies 38
capital-intensive 38
capitalization 38
celebrating 38
cheating 38
cling 38
commanding 38
complexities 38
conceivable 38
concentrations 38
consistency 38
cooling 38
customary 38
database 38
decarbonization 38
defaulted 38
dem@@ 38
density 38
denver 38
dictated 38
digitization 38
dol@@ 38
downturns 38
drastically 38
eased 38
emergencies 38
exuberance 38
failings 38
fights 38
freeing 38
frustrations 38
g7 38
generalized 38
gent 38
gro@@ 38
grossly 38
hacking 38
hague 38
haircut 38
hints 38
horizons 38
human-induced 38
ily 38
incipient 38
inducing 38
inflow 38
institutionalized 38
intrusive 38
inviting 38
isolating 38
jcpoa 38
justifies 38
ka@@ 38
kenyan 38
keys 38
koran 38
laboratories 38
laborers 38
lady 38
lar@@ 38
legality 38
letters 38
lifelong 38
lighting 38
long-lasting 38
macroprudential 38
meng@@ 38
metropolitan 38
mismatch 38
money-@@ 38
mortgage-backed 38
mueller 38
muster 38
nanotechnology 38
non-existent 38
non-tariff 38
observations 38
of@@ 38
oil-price 38
oil-producing 38
owning 38
pac@@ 38
pale 38
passions 38
permission 38
phasing 38
pictures 38
pity 38
planners 38
pol@@ 38
precedence 38
precipitate 38
profligacy 38
realistically 38
reconciled 38
record-high 38
reelection 38
refers 38
releasing 38
repo 38
ric@@ 38
ry@@ 38
sacrificing 38
sahel 38
salvation 38
scare 38
scramble 38
script 38
seekers 38
shaky 38
shots 38
show@@ 38
snow 38
sou@@ 38
sounding 38
stoke 38
strikingly 38
stripped 38
succumbed 38
tables 38
tim@@ 38
treats 38
truths 38
umbrella 38
undergone 38
unnoticed 38
unwarranted 38
ure 38
variables 38
website 38
weekend 38
windfall 38
woefully 38
wonderful 38
wrenching 38
zuma 38
-like 37
2.0 37
2008-@@ 37
4.6 37
absorbing 37
advantageous 37
aires 37
ale 37
alignment 37
ameliorate 37
amsterdam 37
antarctic 37
attest 37
averted 37
bali 37
bank@@ 37
bric 37
bury 37
cap-and-trade 37
chamber 37
cle@@ 37
clearinghouse 37
confucian 37
consultations 37
consumption-tax 37
curtailing 37
dalai 37
decade-long 37
depletion 37
dering 37
derives 37
devising 37
dick 37
differentials 37
disconnect 37
dispersed 37
dmitri 37
dominique 37
dr@@ 37
draconian 37
egalitarian 37
embarrassing 37
ened 37
enforceable 37
espionage 37
euro-atlantic 37
exempt 37
exemption 37
extinction 37
exxonmobil 37
fe 37
fifty 37
flourishing 37
for-profit 37
fracking 37
gangs 37
glaring 37
grateful 37
gülenists 37
hackers 37
harmed 37
heels 37
hesitant 37
holdouts 37
hun 37
identifies 37
indoor 37
infants 37
inherit 37
instantly 37
instrumental 37
interwar 37
invests 37
isolationist 37
kat@@ 37
kha@@ 37
kings 37
kov 37
kyrgyzstan 37
lagged 37
land-@@ 37
logists 37
lon@@ 37
m. 37
mag@@ 37
man-made 37
matches 37
matteo 37
maturities 37
movies 37
mp@@ 37
muslim-majority 37
mutualization 37
nan@@ 37
nasty 37
ners 37
nor@@ 37
ozone 37
painfully 37
partially 37
pearl 37
perils 37
petersburg 37
pharmaceuticals 37
philosophers 37
piecemeal 37
planes 37
poet 37
precondition 37
predatory 37
preferential 37
presenting 37
proclaiming 37
prohibiting 37
protestant 37
radioactive 37
ravaged 37
raúl 37
reaffirm 37
reaffirmed 37
reassert 37
recruits 37
reliability 37
reservations 37
ruble 37
sat@@ 37
satellites 37
saud 37
sec 37
sexually 37
shadows 37
shly 37
sided 37
sins 37
sive 37
sized 37
social-democratic 37
sol@@ 37
spawned 37
stimulated 37
sunlight 37
sup@@ 37
supervisors 37
tail@@ 37
tandem 37
therapeutic 37
tional 37
touted 37
tracks 37
underinvestment 37
undocumented 37
unnecessarily 37
update 37
ur 37
verification 37
videos 37
violates 37
vitally 37
voiced 37
wake-up 37
wire 37
wished 37
wolfgang 37
workable 37
yearning 37
0 36
0-@@ 36
1900 36
2º 36
4.8 36
40,000 36
6.7 36
69 36
98 36
adventure 36
afd 36
angola 36
arbitrage 36
arc 36
armenian 36
ased 36
associates 36
at-@@ 36
avoidable 36
backbone 36
bashing 36
bbc 36
bble 36
birthday 36
bis 36
boundary 36
bread 36
by@@ 36
cease-fire 36
ceremony 36
chairs 36
challenger 36
chil@@ 36
chinese-@@ 36
christianity 36
cites 36
clerics 36
clu@@ 36
colonel 36
commanders 36
complicate 36
composite 36
counter-cyclical 36
counterweight 36
creators 36
credited 36
crushed 36
curiosity 36
cynicism 36
daring 36
deferred 36
deliberation 36
delivers 36
dinner 36
distorting 36
donbas 36
drafting 36
dru@@ 36
elephant 36
eligibility 36
ement 36
epicenter 36
eradicating 36
ets 36
explored 36
ey 36
fan 36
fend 36
fostered 36
frankly 36
frontline 36
ft 36
gamal 36
gambling 36
garment 36
gil@@ 36
glimpse 36
grandchildren 36
half-million 36
hang 36
holder 36
holland 36
horn 36
hotels 36
ils 36
inject 36
instructions 36
insured 36
intertwined 36
interviews 36
intolerable 36
invoke 36
job-@@ 36
juan 36
kh@@ 36
laundering 36
liable 36
lic@@ 36
lincoln 36
loo@@ 36
mayhem 36
measles 36
mentally 36
monetization 36
monumental 36
morale 36
mur@@ 36
muted 36
nine-@@ 36
nord 36
observe 36
oil-rich 36
opens 36
overtaken 36
pakistanis 36
palpable 36
passengers 36
petition 36
philanthropy 36
philosophical 36
plummet 36
presumed 36
profligate 36
projection 36
pronouncements 36
prosecute 36
psycho@@ 36
r2p 36
rain 36
receipts 36
references 36
regaining 36
relates 36
reputations 36
rers 36
reshape 36
restraints 36
revelation 36
rife 36
samuelson 36
self-inflicted 36
sgp 36
shinawatra 36
sm 36
social-security 36
sophistication 36
sorry 36
stanley 36
stigma 36
stoking 36
stretched 36
striving 36
tall 36
tantamount 36
tepid 36
threw 36
tobin 36
tourist 36
trac@@ 36
travails 36
turnaround 36
unicef 36
unleashing 36
unpaid 36
unsuccessful 36
valuation 36
vegetables 36
vic@@ 36
vindicated 36
virginia 36
visas 36
visitors 36
vivid 36
wor@@ 36
world-@@ 36
zhu 36
,0@@ 35
-market 35
0.0@@ 35
0.6 35
12@@ 35
1932 35
2-3 35
3-4 35
3.@@ 35
450 35
750 35
92 35
abnormal 35
afterwards 35
albania 35
alli@@ 35
ancestors 35
anti-americanism 35
anti-eu 35
anti-globalization 35
apathy 35
appointing 35
arrogant 35
aspiring 35
ass@@ 35
assurance 35
ational 35
attained 35
attributes 35
battery 35
beacon 35
beggar-thy-neighbor 35
beleaguered 35
benchmarks 35
benghazi 35
ber 35
binge 35
bottom-up 35
bran@@ 35
buenos 35
cable 35
cannabis 35
carrier 35
centrality 35
channeling 35
chips 35
clar@@ 35
clauses 35
coexistence 35
combustion 35
comeback 35
communiqué 35
concluding 35
confrontational 35
confucianism 35
consumer-@@ 35
continuously 35
contributors 35
converting 35
coping 35
critic 35
culminating 35
curricula 35
cutbacks 35
cy@@ 35
cyber-@@ 35
dairy 35
debt-financed 35
disturbances 35
diverted 35
dominating 35
dragging 35
envisioned 35
euroskeptics 35
exodus 35
fingers 35
flags 35
forceful 35
glaciers 35
glo@@ 35
graphic 35
greener 35
guardian 35
hair 35
hampered 35
harming 35
headway 35
ides 35
impossibility 35
inf@@ 35
injury 35
insecure 35
insulate 35
insulated 35
intra-@@ 35
intrinsic 35
inventory 35
investigating 35
islamism 35
itated 35
joke 35
kets 35
kilograms 35
liber@@ 35
liberalize 35
lima 35
loser 35
loudly 35
macro-@@ 35
madness 35
manufacture 35
marginalization 35
marking 35
mes 35
migrate 35
mitchell 35
motivate 35
natural-gas 35
neutrality 35
nicholas 35
paranoid 35
paraphrase 35
paulo 35
pervez 35
ples 35
pluralistic 35
polluted 35
pon@@ 35
positioning 35
post-conflict 35
preliminary 35
protein 35
protesting 35
pumped 35
quarterly 35
randomized 35
recruiting 35
red-@@ 35
rel@@ 35
relaxed 35
relaxing 35
reliably 35
renounce 35
rent-seeking 35
residence 35
residual 35
resorted 35
revitalize 35
rich-country 35
sanctuary 35
sandy 35
scandinavia 35
sect 35
securitization 35
selecting 35
separating 35
shaking 35
shale-gas 35
sincere 35
sinister 35
sits 35
slashing 35
slip 35
slipped 35
speakers 35
starved 35
statesmen 35
stays 35
stewardship 35
stockpile 35
subordinate 35
supporter 35
ter-@@ 35
textiles 35
themes 35
thy 35
ti 35
ton@@ 35
underwater 35
unfold 35
unreliable 35
unwise 35
usefulness 35
vac@@ 35
vat 35
veterans 35
wal-mart 35
weighing 35
wheat 35
wiser 35
yar 35
10-@@ 34
100-@@ 34
12-@@ 34
170 34
1957 34
1961 34
19th 34
3.7 34
acknowledges 34
acupuncture 34
aded 34
allocations 34
analogies 34
anism 34
app 34
approached 34
arabic 34
aspires 34
auto@@ 34
band 34
battling 34
bec@@ 34
betrayal 34
blin@@ 34
blo@@ 34
brake 34
breath 34
buffett 34
canal 34
caps 34
changer 34
charm 34
child-@@ 34
christine 34
client 34
comparatively 34
competitor 34
contractors 34
corporate-@@ 34
corrected 34
counteract 34
cpi 34
dared 34
data-@@ 34
dating 34
defec@@ 34
definitely 34
demand-@@ 34
detriment 34
devil 34
dic@@ 34
disabled 34
dissident 34
divestment 34
earliest 34
emotion 34
ena 34
endanger 34
energy-intensive 34
enriching 34
eurasian 34
eurogroup 34
exercising 34
fading 34
fare 34
farmer 34
fdp 34
fee 34
fication 34
fixed-@@ 34
fool 34
frustrating 34
genomics 34
gifts 34
glu@@ 34
gor@@ 34
hard@@ 34
heavier 34
hectares 34
hesitation 34
homo 34
ic-@@ 34
ideologically 34
illegitimate 34
illustrated 34
impeachment 34
inde@@ 34
indefinite 34
injustices 34
insignificant 34
intentionally 34
interpol 34
item 34
kabul 34
keqiang 34
khan 34
kidney 34
lawrence 34
legacies 34
lens 34
less-@@ 34
like-minded 34
lion 34
lo 34
loaded 34
long-awaited 34
long-range 34
ly-@@ 34
mac 34
maj@@ 34
manufacturer 34
master@@ 34
math 34
mayors 34
medication 34
melinda 34
merchandise 34
michigan 34
microeconomic 34
mitigated 34
modes 34
monitors 34
monnet 34
moratorium 34
moribund 34
mosque 34
muscle 34
north-south 34
nya 34
palin 34
pbc 34
perdagangan 34
perpetuate 34
peso 34
pic@@ 34
pile 34
poli@@ 34
post-1945 34
postponing 34
prowess 34
puzzling 34
quell 34
quoted 34
radi@@ 34
reacting 34
recalled 34
recovers 34
redistribute 34
refinance 34
resentments 34
resorting 34
resource-@@ 34
respectable 34
revising 34
rupture 34
self-confidence 34
sells 34
senegal 34
serbs 34
signatory 34
sively 34
soft-power 34
startling 34
steal 34
sue 34
sun@@ 34
tenets 34
tered 34
terrifying 34
thank 34
theft 34
theorists 34
thwart 34
tillerson 34
trans 34
tribunals 34
tricky 34
uncompetitive 34
underdeveloped 34
unforeseen 34
unprepared 34
untold 34
varies 34
vegas 34
vel@@ 34
vigor 34
violently 34
walked 34
weekly 34
wel@@ 34
well@@ 34
wells 34
western-@@ 34
wings 34
wit@@ 34
zionist 34
ü@@ 34
1.25 33
1938 33
1953 33
61 33
9,000 33
91 33
abolition 33
ac 33
airspace 33
alities 33
ankara 33
ards 33
arithmetic 33
arrests 33
atively 33
bab@@ 33
backers 33
ballots 33
bankruptcies 33
bel@@ 33
bits 33
blatant 33
blockade 33
book@@ 33
bother 33
bou@@ 33
boun@@ 33
brighter 33
builders 33
bully 33
cancel 33
captain 33
cardiovascular 33
casting 33
cat 33
ch-@@ 33
charlie 33
cher@@ 33
cherished 33
childbirth 33
chip 33
closure 33
coffers 33
coincided 33
compares 33
complaint 33
complicity 33
concession 33
confederation 33
consensual 33
contemplating 33
convertibility 33
coral 33
correlated 33
cows 33
crafting 33
credit-@@ 33
cultivated 33
damages 33
decreasing 33
defects 33
dengan 33
deserved 33
destabilization 33
dev@@ 33
differs 33
directives 33
disengagement 33
domains 33
dried 33
e-commerce 33
ect 33
editors 33
enrolled 33
entrance 33
esdp 33
evade 33
evaluated 33
exploded 33
faded 33
fannie 33
fantasies 33
fighter 33
first-ever 33
foes 33
fol@@ 33
frac@@ 33
framing 33
friedrich 33
fro@@ 33
ful@@ 33
gang 33
geographically 33
ghraib 33
grace 33
graph@@ 33
greedy 33
groundbreaking 33
hamid 33
hansen 33
heartland 33
hin@@ 33
honesty 33
hostilities 33
impartial 33
indonesian 33
ined 33
inefficiencies 33
infighting 33
ingenuity 33
initiating 33
injected 33
insiders 33
inspectors 33
interbank 33
investment-@@ 33
ivoire 33
jackson 33
jean 33
jihadis 33
jonathan 33
jpmorgan 33
jr. 33
junk 33
lab@@ 33
lavish 33
leftists 33
linear 33
meals 33
meter 33
mid-1990 33
mighty 33
monks 33
monuments 33
mosques 33
municipalities 33
murders 33
nerve 33
non-nuclear 33
nuclear-power 33
occurrence 33
oral 33
ordering 33
outer 33
overt 33
paltry 33
peacekeepers 33
pendulum 33
penetration 33
persisted 33
pleased 33
poisoned 33
post-2008 33
posted 33
pretense 33
programming 33
psychologists 33
ramifications 33
recurrence 33
redundant 33
reg@@ 33
regained 33
rehabilitation 33
relate 33
respecting 33
retrospect 33
revert 33
revisions 33
ricardo 33
ridden 33
rubble 33
s/@@ 33
salt 33
scarcely 33
slim 33
solzhenitsyn 33
som@@ 33
someday 33
soros 33
spo@@ 33
sporting 33
squeezed 33
stamp 33
staunch 33
stoked 33
substances 33
tap@@ 33
ths 33
timid 33
tory 33
triggers 33
trilateral 33
tter 33
tti 33
tusk 33
ubi 33
unambiguous 33
uncontrolled 33
underlies 33
uzbekistan 33
ville 33
warmer 33
warns 33
whopping 33
win@@ 33
winner-take-all 33
zz@@ 33
ö@@ 33
+ 32
-minded 32
.com 32
00 32
4,@@ 32
400,000 32
50th 32
abdel 32
accommodative 32
adhering 32
adventures 32
after-tax 32
ano@@ 32
apartment 32
appreciating 32
aqu@@ 32
aspiration 32
assaults 32
awash 32
bachelet 32
barak 32
behaved 32
below-@@ 32
bismarck 32
bleeding 32
blog 32
bombed 32
bonus 32
bottle 32
bottlenecks 32
brazilians 32
break@@ 32
brokers 32
business-@@ 32
buttress 32
cares 32
cdf 32
census 32
characterizes 32
clean@@ 32
clinic 32
commerci@@ 32
consulted 32
cumbersome 32
cutting-edge 32
dari 32
dealings 32
dear 32
def@@ 32
depths 32
dest 32
dhabi 32
disclose 32
disguised 32
distract 32
dogma 32
dormant 32
drafted 32
dress 32
dynastic 32
ears 32
egg 32
eighth 32
elizabeth 32
email 32
ences 32
endangering 32
energy-efficient 32
eruption 32
ethically 32
euroskeptic 32
evening 32
evidence-based 32
facilitates 32
faiths 32
fascinating 32
fences 32
fiercely 32
fifteen 32
fil@@ 32
flames 32
forcibly 32
formulating 32
franco 32
freshwater 32
full-@@ 32
gal@@ 32
gloomy 32
gravest 32
gul@@ 32
ha 32
hampering 32
har 32
hawaii 32
heavy-handed 32
hindus 32
illustrate 32
importer 32
impressed 32
inciting 32
income-@@ 32
indexed 32
injuries 32
instinct 32
instituted 32
inter-governmental 32
iter 32
joe 32
kick-start 32
lac@@ 32
lahore 32
lake 32
lawlessness 32
leaning 32
legitimize 32
legitimized 32
lifeline 32
lobbied 32
logically 32
low-skill 32
mask 32
mate 32
megabanks 32
menace 32
mental-health 32
metal 32
militarism 32
misuse 32
mugabe 32
namibia 32
nar@@ 32
never-ending 32
non 32
non-violent 32
objection 32
occupational 32
oneself 32
orbit 32
organism 32
overwhelm 32
pan 32
parliamentarians 32
person@@ 32
phases 32
plane 32
pledging 32
plu@@ 32
plug 32
pointless 32
post-election 32
poured 32
ppp 32
prefers 32
private-@@ 32
prohibits 32
pul@@ 32
pumping 32
qui@@ 32
rajan 32
reactionary 32
reasoned 32
rebuilt 32
recommendation 32
replaces 32
reply 32
rescuing 32
resolute 32
respiratory 32
rested 32
revisionist 32
revolts 32
rings 32
rodrik 32
sadness 32
sanctioned 32
see@@ 32
sh-@@ 32
sk 32
sn@@ 32
srebrenica 32
ssing 32
stagflation 32
startup 32
stemmed 32
stic 32
stored 32
stranger 32
submission 32
subsidiary 32
summary 32
tations 32
terrain 32
testament 32
thers 32
thwarted 32
totaled 32
totalitarianism 32
traced 32
trade-off 32
truman 32
tt 32
underlie 32
unravel 32
uri 32
ven@@ 32
virulent 32
visionary 32
warheads 32
wiped 32
wwi 32
,@@ 31
110 31
17.@@ 31
1958 31
1964 31
2000-@@ 31
25,000 31
25-@@ 31
250,000 31
83 31
abundantly 31
adept 31
affirmative 31
agony 31
airstrikes 31
alarmed 31
amenable 31
analyst 31
anders 31
anti-european 31
anti-japanese 31
ap 31
appealed 31
apt 31
arabian 31
arbitration 31
arian 31
assassinated 31
atic 31
attorney 31
attracts 31
bat 31
batteries 31
bedrock 31
belonged 31
bolder 31
bribery 31
buffers 31
but@@ 31
cau@@ 31
cds 31
ceased 31
celebrations 31
centralization 31
chambers 31
charging 31
circuit 31
clean-energy 31
cleared 31
commissioners 31
commonwealth 31
confidence-building 31
conquest 31
contaminated 31
contender 31
contractionary 31
corridor 31
crazy 31
crimin@@ 31
criticisms 31
crowding 31
cruelty 31
crush 31
crushing 31
cult 31
côte 31
dalam 31
day-to-day 31
debt-service 31
decoupling 31
deduction 31
deep-seated 31
degraded 31
deposed 31
depress 31
deprive 31
din@@ 31
directing 31
discounted 31
dismantled 31
dismissing 31
distracted 31
divine 31
dom 31
drink 31
dt 31
dumping 31
echoed 31
edition 31
electrical 31
employs 31
enclaves 31
energetic 31
entailed 31
erected 31
erodes 31
exorbitant 31
expelled 31
fertilizers 31
fications 31
fillon 31
firewall 31
fla@@ 31
flights 31
fosters 31
frightened 31
geun-hye 31
grass 31
halving 31
happier 31
harmonious 31
head-on 31
hemisphere 31
higgs 31
high-growth 31
high-risk 31
hinges 31
homogeneous 31
hook 31
hpv 31
humala 31
hydrocarbons 31
ians 31
idly 31
illusory 31
imperialist 31
inaccurate 31
inception 31
inspection 31
inspections 31
insult 31
intermediaries 31
intransigence 31
janeiro 31
jpm 31
knowhow 31
lackluster 31
ladder 31
laos 31
lasts 31
lends 31
libel 31
liberate 31
long-time 31
mae 31
maize 31
micro 31
microfinance 31
modeled 31
monarchies 31
montreal 31
mosquitoes 31
muddling 31
n-@@ 31
nationalization 31
nehru 31
no-fly 31
og@@ 31
packed 31
pad 31
pathogens 31
pathways 31
patron 31
payoff 31
percentage-point 31
perpetuating 31
personalities 31
plunging 31
pooling 31
pornography 31
possessing 31
premia 31
prescribed 31
pressured 31
presumption 31
presumptive 31
principled 31
proceeding 31
proclaim 31
productivity-enhancing 31
proudly 31
proverbial 31
pushes 31
ram@@ 31
rand 31
rationing 31
read@@ 31
real-time 31
redefine 31
refu@@ 31
remotely 31
renegotiate 31
repressed 31
reside 31
resource-rich 31
restart 31
retribution 31
risked 31
romanian 31
romantic 31
rosy 31
sacked 31
saint 31
schoolchildren 31
scored 31
sea-@@ 31
segregation 31
sergei 31
shor@@ 31
siberia 31
side@@ 31
sign@@ 31
slipping 31
smallholder 31
spi@@ 31
state-controlled 31
stereotypes 31
sticks 31
tarnished 31
taxable 31
teaches 31
tear 31
technique 31
ther@@ 31
three-year 31
tilted 31
tis 31
tness 31
too-big-to-fail 31
toppling 31
traffickers 31
transparently 31
travelers 31
ts@@ 31
turnover 31
tweets 31
ult 31
unelected 31
unfavorable 31
unsettled 31
unsettling 31
usher 31
venezuelans 31
vietnamese 31
vigilant 31
visibly 31
vs 31
watanabe 31
water@@ 31
well-established 31
wikileaks 31
windows 31
workings 31
www.@@ 31
x-@@ 31
ze@@ 31
zi@@ 31
1940s 30
1946 30
1963 30
20th 30
4.4 30
4.@@ 30
5.6 30
71 30
800,000 30
abduction 30
ables 30
abraham 30
administer 30
administrators 30
alawite 30
alien 30
anna 30
apologies 30
aquino 30
ariel 30
arisen 30
ash 30
assertions 30
astounding 30
audit 30
authentic 30
await 30
b-@@ 30
bers 30
bigotry 30
bit@@ 30
blunder 30
bnp 30
boast 30
branded 30
breathe 30
breathing 30
broadcasting 30
buc@@ 30
businesspeople 30
carl 30
catastrophes 30
categor@@ 30
childcare 30
chronically 30
cigarette 30
clan 30
climate-related 30
climbed 30
cohort 30
collaborating 30
colors 30
colossal 30
complicit 30
compounding 30
consciously 30
consist 30
conspicuously 30
contradicts 30
convictions 30
cr@@ 30
credibly 30
curtailed 30
deduc@@ 30
dele@@ 30
denounce 30
denuclearization 30
destroys 30
diamonds 30
dictum 30
diesel 30
dil@@ 30
disillusion 30
distributing 30
divergences 30
dwight 30
dwindling 30
eichengreen 30
emb@@ 30
embraces 30
emp@@ 30
endowed 30
engages 30
enlarged 30
equity-@@ 30
essay 30
evenly 30
exchequer 30
exhibit 30
exposes 30
externally 30
far-fetched 30
feminism 30
follow-up 30
french-@@ 30
fuel-@@ 30
fury 30
gan 30
gender-@@ 30
gestures 30
greens 30
h. 30
halfway 30
heal 30
heterodox 30
hijacked 30
humility 30
hydro@@ 30
hydrogen 30
hypocritical 30
ich 30
illegally 30
incredibly 30
incursion 30
intuitive 30
invent 30
jan@@ 30
jeffrey 30
jeopardized 30
jeopardy 30
jihadism 30
kam@@ 30
king@@ 30
knees 30
lauded 30
lawless 30
leprosy 30
liberalized 30
licensing 30
listened 30
loading 30
logist 30
lou@@ 30
macro-prudential 30
malawi 30
manifestations 30
marke@@ 30
mastery 30
mattered 30
mauritius 30
mechanical 30
medals 30
medications 30
meritocracy 30
modify 30
mouth 30
muddled 30
muscular 30
myths 30
nas@@ 30
near-term 30
neu@@ 30
nic@@ 30
nit@@ 30
normalcy 30
norwegian 30
nuremberg 30
nutrients 30
odious 30
offenses 30
oil@@ 30
oms 30
oph@@ 30
overblown 30
overlap 30
overseeing 30
overseen 30
overtake 30
overthrown 30
pegged 30
photos 30
pit@@ 30
pluralist 30
plurality 30
pocket 30
pol 30
policemen 30
polluters 30
polluting 30
pools 30
pouring 30
prey 30
princes 30
privatize 30
probable 30
prophecy 30
qualifications 30
rati@@ 30
realignment 30
reining 30
relegated 30
renowned 30
repairing 30
reset 30
restive 30
restrained 30
reviewed 30
rin@@ 30
ruins 30
runaway 30
sacrificed 30
saga 30
scaf 30
screens 30
semblance 30
shapes 30
shar@@ 30
shoots 30
short-@@ 30
shoulders 30
sichuan 30
sizes 30
soldier 30
solvent 30
stal@@ 30
standstill 30
stearns 30
stones 30
stranded 30
strategists 30
sty 30
sultan 30
sy 30
tajikistan 30
taper 30
tele@@ 30
tem@@ 30
termed 30
tivity 30
tragedies 30
treatable 30
truce 30
tsunamis 30
tu 30
twins 30
unaffordable 30
undo 30
unequivocally 30
unesco 30
unipolar 30
unlock 30
untapped 30
unused 30
uring 30
utmost 30
vely 30
verbal 30
wed 30
weren 30
wolfensohn 30
worst-case 30
wound 30
youtube 30
….@@ 30
-style 29
1939 29
1951 29
197@@ 29
3.1 29
30-@@ 29
4.2 29
60th 29
acknowledgement 29
adamant 29
adua 29
ain@@ 29
airline 29
ala 29
albert 29
aled 29
aligning 29
alizations 29
allure 29
amazing 29
amplified 29
ante 29
antiretroviral 29
anybody 29
app@@ 29
arab@@ 29
asset-@@ 29
attackers 29
autocracies 29
averting 29
awkward 29
bak@@ 29
beside 29
bio-@@ 29
bouts 29
breaches 29
bull 29
bypass 29
calculating 29
calories 29
cattle 29
ce-@@ 29
checking 29
chur@@ 29
coins 29
collision 29
comm@@ 29
commun@@ 29
concentrating 29
conditioning 29
conglomerates 29
copies 29
cost-benefit 29
counter-terrorism 29
crippled 29
cyclically 29
dashed 29
defied 29
deleverage 29
demand-side 29
denouncing 29
detected 29
dissolve 29
dit 29
doc@@ 29
double-dip 29
drowning 29
electrification 29
elegant 29
elementary 29
ements 29
emitters 29
enmity 29
equations 29
es-@@ 29
eu-15 29
europe@@ 29
evacuation 29
evo 29
fic@@ 29
fies 29
firsthand 29
fli@@ 29
footsteps 29
foresight 29
fray 29
fru@@ 29
german@@ 29
gini 29
glorious 29
graduation 29
greenland 29
guangdong 29
h.w 29
ham 29
hanging 29
harms 29
hazardous 29
heralded 29
hierarchical 29
highest-@@ 29
hinder 29
hindsight 29
hiroshima 29
hood 29
hurts 29
hypothetical 29
ification 29
inaugural 29
injection 29
insurgent 29
intangible 29
interventionist 29
inventories 29
irresistible 29
ise 29
isms 29
ita 29
itu@@ 29
ity-@@ 29
ji 29
kadima 29
kan@@ 29
khmer 29
lane 29
laudable 29
lead@@ 29
leaf 29
leak 29
lease 29
lev@@ 29
lever 29
library 29
livelihood 29
malaysian 29
males 29
maliki 29
mantle 29
masked 29
methane 29
minus 29
mirrors 29
misunderstanding 29
multi-polar 29
multi-year 29
naked 29
natives 29
ncd 29
neo-liberal 29
newest 29
nicolás 29
non-traditional 29
obese 29
objected 29
obrador 29
ok 29
one-half 29
one-size-fits-all 29
ord@@ 29
pack 29
packaged 29
pada 29
paradoxical 29
particle 29
pashtun 29
pennsylvania 29
performs 29
pernicious 29
photo 29
pioneered 29
piñera 29
pkk 29
pollutants 29
ponder 29
post-wwii 29
practicing 29
pro-cyclical 29
protagonists 29
publicity 29
rallying 29
re-establish 29
rebu@@ 29
reckon 29
recommends 29
reestablish 29
relocation 29
rigidities 29
ron@@ 29
sharper 29
short-termism 29
sim@@ 29
simplest 29
sino-american 29
sion-@@ 29
six-@@ 29
six@@ 29
ski 29
slope 29
sof@@ 29
sorely 29
sta 29
stakeholder 29
standardized 29
stro@@ 29
superficial 29
sweep 29
thri@@ 29
tible 29
til@@ 29
tolerable 29
trucks 29
tted 29
tumors 29
tumultuous 29
ular 29
unconscious 29
undue 29
unfunded 29
upturn 29
ushered 29
utilization 29
wa 29
wai@@ 29
whis@@ 29
win-win 29
wondered 29
y. 29
°c 29
,000 28
0,000 28
0.25 28
1-2 28
125 28
3.9 28
4.1 28
9.5 28
a. 28
acquiescence 28
acutely 28
admits 28
adolescents 28
afloat 28
ahmedinejad 28
alo@@ 28
anew 28
ant@@ 28
anti-muslim 28
antipathy 28
appease 28
apprehension 28
assistant 28
ata 28
auspices 28
aviation 28
bangladeshi 28
betrayed 28
bin@@ 28
blessed 28
blowing 28
blows 28
blu@@ 28
bluntly 28
boil 28
boldly 28
bonn 28
broadened 28
brookings 28
bursting 28
cage 28
cand@@ 28
captures 28
cat@@ 28
catalan 28
cede 28
cha@@ 28
championship 28
cla@@ 28
classrooms 28
coefficient 28
column 28
commemorate 28
compensating 28
conserve 28
consisting 28
cooperatives 28
copyright 28
corporatism 28
correcting 28
corrections 28
country-@@ 28
cracking 28
cristina 28
crony 28
cruz 28
cured 28
dal 28
dd@@ 28
dealers 28
deliberations 28
denomination 28
depriving 28
destabilized 28
determinants 28
deterring 28
developed-country 28
dhaka 28
diagnostics 28
dian 28
die@@ 28
diminishes 28
discrepancy 28
disillusioned 28
displace 28
displays 28
distortion 28
disturbed 28
dit@@ 28
doubted 28
electing 28
emboldened 28
embryos 28
emer@@ 28
eminent 28
emitted 28
end-@@ 28
envision 28
erect 28
espoused 28
estimating 28
exceedingly 28
exits 28
expansive 28
exploding 28
fa 28
fairtrade 28
fal@@ 28
fat@@ 28
fateful 28
fdic 28
feeble 28
files 28
fitting 28
fixated 28
focal 28
frag@@ 28
fulness 28
fun 28
generously 28
gg@@ 28
gging 28
guest 28
habitat 28
handing 28
hangs 28
high-end 28
hint 28
hit@@ 28
hunt 28
hunting 28
hyperinflation 28
ier 28
if@@ 28
ill@@ 28
incitement 28
indicted 28
inhibit 28
interlocutors 28
inv@@ 28
invade 28
inventions 28
investigative 28
itu 28
jam@@ 28
kerala 28
ket 28
kon@@ 28
lamented 28
lecture 28
legalization 28
leveled 28
leviathan 28
lid 28
life-threatening 28
looser 28
lung 28
maghreb 28
managerial 28
marched 28
materialized 28
may@@ 28
mekong 28
mend 28
ment-@@ 28
mes@@ 28
michelle 28
mid-term 28
motto 28
murky 28
mutation 28
nam 28
nau@@ 28
negotiator 28
nish 28
noise 28
ome@@ 28
onerous 28
onward 28
orwell 28
os@@ 28
out-of-@@ 28
outdoor 28
outraged 28
outrageous 28
outsider 28
overstated 28
p5+1 28
paint 28
paulson 28
paving 28
peasant 28
perestroika 28
permissible 28
persecuted 28
plac@@ 28
plainly 28
poison 28
pounds 28
power-sharing 28
preemptive 28
premiership 28
progressed 28
proprietary 28
py@@ 28
raft 28
rant 28
rationality 28
reads 28
recalling 28
redd+ 28
referendums 28
reformer 28
relax 28
rest@@ 28
riddled 28
ross 28
rouge 28
rulings 28
run@@ 28
sand@@ 28
sco 28
shallow 28
sham@@ 28
shining 28
short-sighted 28
simplicity 28
skyrocketing 28
slovenia 28
slu@@ 28
snap 28
social-media 28
sputnik 28
starve 28
stre@@ 28
strings 28
stunted 28
sum@@ 28
superstar 28
supplemented 28
tag 28
tame 28
tan 28
techno-@@ 28
teenagers 28
terribly 28
thin@@ 28
thrust 28
tidak 28
tran@@ 28
tren@@ 28
tribute 28
tricks 28
tripoli 28
uncovered 28
undertook 28
undone 28
unequivocal 28
unify 28
unites 28
unmistakable 28
unproductive 28
unruly 28
unsure 28
upgraded 28
veteran 28
victors 28
viral 28
wang 28
wasting 28
waziristan 28
websites 28
well-educated 28
worn 28
worship 28
xiaobo 28
yahoo 28
youngest 28
zero-@@ 28
à 28
13th 27
18th 27
1936 27
1965 27
2003-@@ 27
2022 27
2040 27
5.7 27
6.8 27
7.7 27
96 27
\u0027s 27
aaa 27
abducted 27
absorption 27
accidental 27
achieves 27
adaptive 27
ade@@ 27
adequacy 27
admire 27
afflicting 27
age-@@ 27
algorithms 27
alizes 27
altruism 27
alzheimer 27
americana 27
analytics 27
ancy 27
anom@@ 27
answering 27
antarctica 27
arable 27
asthma 27
ately 27
ath@@ 27
awaits 27
backsliding 27
bag@@ 27
bastion 27
beg@@ 27
bell 27
benjamin 27
bitterly 27
blanket 27
bloomberg 27
blunders 27
bode 27
bothered 27
bow 27
breakout 27
breed 27
breeds 27
brightest 27
brow@@ 27
buck 27
captive 27
carbon-dioxide 27
cartel 27
cash-@@ 27
checked 27
chicken 27
chilean 27
chorus 27
ck@@ 27
clear-cut 27
clerical 27
cli@@ 27
coin 27
comey 27
commercially 27
commonplace 27
competi@@ 27
conceal 27
conceivably 27
condoleezza 27
confrontations 27
contamination 27
cook 27
corrosive 27
counterbalance 27
cour@@ 27
crashed 27
cronyism 27
cultivating 27
databases 27
ddle 27
defying 27
derivative 27
diagnoses 27
disclosed 27
discomfort 27
disconnected 27
discovering 27
disregarded 27
documentary 27
donated 27
dro@@ 27
e. 27
ea@@ 27
echoes 27
educators 27
ei@@ 27
elec@@ 27
emerging-economy 27
environment@@ 27
ethic 27
evolves 27
exacerbates 27
expedient 27
extravagant 27
fanatics 27
fanfare 27
farage 27
fatally 27
fats 27
featuring 27
fel@@ 27
felipe 27
fester 27
financial-reform 27
fis@@ 27
fit@@ 27
foot@@ 27
fra@@ 27
fraudulent 27
frenzy 27
furious 27
geert 27
geithner 27
gigantic 27
good@@ 27
grac@@ 27
gulag 27
hall 27
hard-won 27
hay@@ 27
health-insurance 27
heaven 27
hedging 27
heel 27
herald 27
holistic 27
hopeless 27
hostages 27
illiterate 27
implausible 27
impotence 27
incendiary 27
incoherent 27
indcs 27
indiscriminate 27
inflate 27
insofar 27
intuition 27
ious 27
irrelevance 27
isi 27
istic 27
itable 27
itous 27
ivan 27
jack 27
jargon 27
joy 27
kal@@ 27
kicking 27
knowledge-based 27
labs 27
lament 27
lap@@ 27
last-minute 27
levied 27
lied 27
lowers 27
luther 27
malicious 27
malign 27
mandarins 27
maoist 27
mar 27
marginally 27
mari@@ 27
mars 27
marxist 27
max 27
meal 27
measurements 27
mediation 27
medium- 27
migrated 27
minsk 27
mr. 27
multipliers 27
multitude 27
mundane 27
nawaz 27
nicotine 27
non-western 27
occupies 27
offline 27
oppressed 27
ounded 27
our@@ 27
outflow 27
overestimate 27
overestimated 27
packaging 27
pair 27
pap@@ 27
parochial 27
paternalism 27
physician 27
pole 27
portable 27
post-brexit 27
preclude 27
privatized 27
probabilities 27
procedural 27
propping 27
protocols 27
rajapaksa 27
ray 27
refined 27
reform-minded 27
relocate 27
replicate 27
risk-sharing 27
rock-bottom 27
row@@ 27
sam 27
satisfactory 27
scra@@ 27
sea-level 27
sealed 27
sein 27
sexuality 27
sharks 27
shook 27
sights 27
slash 27
slightest 27
smokers 27
smugglers 27
snp 27
sobering 27
soli@@ 27
somali 27
somebody 27
sourcing 27
spilled 27
statesman 27
static 27
statute 27
steve 27
stifled 27
storing 27
strangers 27
strauss-kahn 27
strongmen 27
sudanese 27
sued 27
suggestions 27
surrogacy 27
switched 27
sworn 27
symbolism 27
são 27
tal 27
tastes 27
tears 27
tectonic 27
tempered 27
temptations 27
tentative 27
termin@@ 27
ther 27
thesis 27
time-@@ 27
time@@ 27
tives 27
token 27
toolkit 27
tou@@ 27
transmit 27
unanimity 27
unfounded 27
untested 27
unwelcome 27
unwinding 27
utopian 27
vendors 27
venter 27
vitamin 27
vol@@ 27
vs. 27
weber 27
well-designed 27
wetlands 27
wn 27
yev 27
yitzhak 27
zardari 27
zeal 27
€1 27
'@@ 26
00-@@ 26
0th 26
1919 26
1920s 26
200-@@ 26
200@@ 26
240 26
2°c 26
4.7 26
60,000 26
60-@@ 26
700,000 26
79 26
abandonment 26
abolishing 26
abu@@ 26
adulthood 26
advertisers 26
advise 26
afghans 26
african-american 26
ahmed 26
air-@@ 26
airplane 26
all-powerful 26
altruistic 26
amended 26
aming 26
anathema 26
animosity 26
anti-democratic 26
antitrust 26
applauded 26
applicants 26
aps 26
ari 26
arthur 26
ases 26
assemble 26
asymmetry 26
attests 26
ax@@ 26
behind-the-scenes 26
bend 26
bickering 26
bir@@ 26
births 26
blindness 26
brezhnev 26
built-in 26
bun@@ 26
c-@@ 26
calibrated 26
carlos 26
casual 26
catch@@ 26
causal 26
centerpiece 26
chad 26
chas@@ 26
chemical-weapons 26
chers 26
classi@@ 26
clin@@ 26
collusion 26
commands 26
commu@@ 26
communicable 26
compar@@ 26
conce@@ 26
confidently 26
configuration 26
conjunction 26
consortium 26
contagious 26
continents 26
counsel 26
cracks 26
custody 26
darkness 26
dated 26
decency 26
deepens 26
derailed 26
despotic 26
devoid 26
devolution 26
diffuse 26
dim 26
disadvantages 26
disappearing 26
disguise 26
dish 26
dislike 26
dispatched 26
dissolved 26
distinguishing 26
diverting 26
dr. 26
eb@@ 26
economic-@@ 26
editor 26
editorial 26
emails 26
emig@@ 26
encounters 26
eness 26
equip 26
ever-larger 26
expropriation 26
extensively 26
extra-@@ 26
federalist 26
firepower 26
fiscal-policy 26
fishermen 26
flynn 26
forego 26
forty 26
four-year 26
front-loaded 26
fts 26
g8 26
gallup 26
gas@@ 26
gateway 26
genomic 26
geo@@ 26
geostrategic 26
gop 26
gos 26
graft 26
grandfather 26
graphy 26
grillo 26
gur@@ 26
gut 26
halting 26
hariri 26
heady 26
hinted 26
honored 26
hoover 26
humankind 26
hype 26
ica 26
iconic 26
impulses 26
inextricably 26
inflation-@@ 26
ingrained 26
ini@@ 26
insidious 26
inspires 26
insurrection 26
intellectually 26
interconnectedness 26
intimate 26
invasive 26
investigated 26
investigators 26
investment-led 26
issuers 26
ivory 26
juncture 26
jury 26
kel@@ 26
laissez-faire 26
land-use 26
ld 26
legs 26
leung 26
lined 26
liquidate 26
localized 26
lonely 26
loosely 26
low-skilled 26
macro@@ 26
marines 26
maturing 26
mdg 26
mechanics 26
merge 26
microbes 26
mid-1980 26
miscalculation 26
misconduct 26
missile-defense 26
mistakenly 26
mockery 26
modeling 26
modestly 26
mortal 26
multiply 26
narrower 26
neatly 26
neglecting 26
newer 26
newport 26
night@@ 26
nitrogen 26
northwest 26
nudge 26
ohio 26
ominously 26
orchestrated 26
ov@@ 26
overhauling 26
overriding 26
overthrew 26
painted 26
panicked 26
pariah 26
patrol 26
personalized 26
persuasion 26
philippine 26
piracy 26
pitfalls 26
plat@@ 26
plutonium 26
polite 26
poly@@ 26
pos@@ 26
pour 26
pre-emptive 26
preconditions 26
pretending 26
primaries 26
prohibitively 26
prominently 26
proportional 26
propped 26
protested 26
pt 26
publics 26
pyongyang 26
radar 26
reaping 26
recapture 26
recording 26
reefs 26
reformists 26
reinvent 26
relinquish 26
reluctantly 26
remainder 26
remark 26
replete 26
respite 26
resumed 26
riches 26
rigidity 26
risk-management 26
ro 26
rosneft 26
rot 26
runoff 26
russia-@@ 26
ry-@@ 26
sab@@ 26
sabotage 26
saddled 26
scientifically 26
seal 26
secretariat 26
senses 26
sey 26
shortcoming 26
silenced 26
simplify 26
sing@@ 26
sixteenth 26
socialization 26
soils 26
sow 26
spl@@ 26
staffed 26
stagnate 26
starving 26
stave 26
steering 26
stiff 26
streams 26
structurally 26
su 26
sunk 26
superpowers 26
swath 26
swaths 26
sweet 26
swimming 26
sword 26
taboos 26
tag@@ 26
teachings 26
ten-@@ 26
tfp 26
tower 26
trade-offs 26
treason 26
tribe 26
tweet 26
tying 26
unfamiliar 26
upsurge 26
ura 26
us@@ 26
ut@@ 26
variants 26
velocity 26
wan@@ 26
wane 26
war-torn 26
wash 26
watchdog 26
wea@@ 26
weary 26
wedge 26
well-defined 26
whales 26
whatsoever 26
wives 26
woodrow 26
write-offs 26
xilai 26
yawning 26
zero-carbon 26
zo@@ 26
zurich 26
és 26
16-@@ 25
18-@@ 25
193@@ 25
1966 25
2007-@@ 25
4.9 25
6-7 25
600,000 25
:@@ 25
abdul 25
aber@@ 25
abortions 25
abusive 25
accelerates 25
accompanies 25
accrue 25
across-the-board 25
adolf 25
ae 25
affordability 25
albanian 25
alling 25
alto 25
alumni 25
aned 25
animated 25
annexed 25
apes 25
appliances 25
ascent 25
assimilation 25
ast 25
auction 25
awaiting 25
ay 25
backfire 25
bangalore 25
bayrou 25
beneficiary 25
benevolent 25
bic@@ 25
bing 25
bio-fuels 25
bird 25
blanchard 25
bloggers 25
blood@@ 25
blurred 25
bodes 25
bone 25
cake 25
capped 25
cardinal 25
carriers 25
castes 25
cham@@ 25
championing 25
cher 25
chiefs 25
citizenry 25
cleric 25
cluster 25
comfortably 25
common@@ 25
compliant 25
conceded 25
concomitant 25
confuse 25
conquer 25
consisted 25
conspicuous 25
constitutionally 25
contractual 25
controversies 25
conveniently 25
cost@@ 25
countered 25
crow@@ 25
dar 25
deline@@ 25
demo@@ 25
democratizing 25
deprivation 25
detractors 25
devi@@ 25
disagreed 25
discarded 25
distorts 25
distraction 25
dou@@ 25
downfall 25
dreamed 25
dublin 25
earthquakes 25
easiest 25
eco@@ 25
elders 25
elling 25
elu@@ 25
embroiled 25
embryonic 25
emotionally 25
encro@@ 25
endlessly 25
endorsing 25
endowment 25
ens@@ 25
enthusiastically 25
ep 25
epidemiological 25
equitably 25
eradicated 25
euphoria 25
evangelical 25
execute 25
exiled 25
expresses 25
expulsion 25
facile 25
fanatical 25
faulty 25
fervent 25
ffs 25
fitness 25
fix@@ 25
flowed 25
forgiven 25
fracturing 25
freddie 25
galvanize 25
gambit 25
genocidal 25
genomes 25
governs 25
grabs 25
grapple 25
hai 25
hamper 25
handouts 25
hard-line 25
harmonize 25
harnessing 25
headscarf 25
health-@@ 25
hebdo 25
heir 25
helicopters 25
help@@ 25
helsinki 25
high-yield 25
hil@@ 25
hitherto 25
hiv-positive 25
home-@@ 25
homosexuality 25
hopelessness 25
hovering 25
hydropower 25
hygiene 25
ial 25
iceberg 25
icon 25
idealism 25
ifo 25
impro@@ 25
ine-@@ 25
inept 25
inescapable 25
influenza 25
informally 25
ining 25
inmates 25
irgc 25
jun@@ 25
justifying 25
kuroda 25
kyong-hui 25
largesse 25
las@@ 25
late-@@ 25
latent 25
law-enforcement 25
layers 25
lectures 25
limbo 25
literate 25
long-overdue 25
lottery 25
louis 25
man-@@ 25
manifesto 25
manpower 25
medium-@@ 25
middle-aged 25
mightily 25
modicum 25
mold 25
multicultural 25
murderer 25
mysterious 25
neutralize 25
non-eu 25
northeastern 25
northwestern 25
novelist 25
obscured 25
ounce 25
ound 25
outreach 25
oxygen 25
paralyzing 25
paranoia 25
pardon 25
patented 25
perjanjian 25
philanthropic 25
picks 25
pinochet 25
pioneer 25
pisa 25
plateau 25
plo@@ 25
poisonous 25
politicization 25
pre-war 25
precipitously 25
prestigious 25
primitive 25
pro-western 25
problem-solving 25
proceeded 25
prodi 25
profiles 25
programme 25
psychologically 25
pyramid 25
qe3 25
rallies 25
rays 25
realist 25
rebate 25
recalcitrant 25
record-low 25
rectitude 25
reddit 25
redefined 25
relapse 25
relaxation 25
religiously 25
remorse 25
renders 25
renunciation 25
replicated 25
resent 25
resident 25
resonance 25
resonates 25
restructurings 25
retaliate 25
riyadh 25
roy@@ 25
sanction 25
sands 25
saves 25
scary 25
second-class 25
secretly 25
sections 25
secularists 25
seizure 25
seminal 25
sessions 25
seventeenth 25
shark 25
shelf 25
shipped 25
shrank 25
shutting 25
sia 25
sil@@ 25
similarity 25
singer 25
slave 25
sliding 25
slobodan 25
snow@@ 25
souls 25
sounded 25
spaniards 25
stab@@ 25
statecraft 25
stationed 25
statist 25
ste 25
stered 25
stomach 25
stubborn 25
stunned 25
submarines 25
supplements 25
swa@@ 25
switching 25
telecoms 25
temple 25
textile 25
thinker 25
throes 25
throne 25
thumb 25
tifying 25
tive-@@ 25
toughest 25
trace 25
traces 25
transplant 25
troublesome 25
tuition 25
tung 25
turkmenistan 25
uae 25
ukip 25
unchallenged 25
undeniably 25
underpinnings 25
unsafe 25
unstoppable 25
unsurprising 25
upwards 25
usable 25
v-@@ 25
vaccinated 25
vanish 25
veness 25
vice-president 25
vin 25
void 25
vultures 25
washing 25
wef 25
weighted 25
whit@@ 25
wipe 25
withhold 25
workforces 25
wreak 25
ya@@ 25
zi 25
º 25
-of-@@ 24
1976 24
2002-@@ 24
2004-@@ 24
2035 24
5.8 24
7.8 24
89 24
accorded 24
adage 24
ading 24
admirable 24
aff@@ 24
aking 24
alistic 24
aluminum 24
amplify 24
anne 24
apocalyptic 24
apologize 24
ared 24
asing 24
asis 24
automotive 24
avenue 24
aya 24
aziz 24
bags 24
barry 24
belgian 24
benazir 24
benedict 24
bet@@ 24
block@@ 24
boasted 24
bowl 24
break-up 24
breivik 24
brigades 24
brokered 24
bub@@ 24
buy-@@ 24
cared 24
carolina 24
cautiously 24
cellular 24
cem@@ 24
chasing 24
chemotherapy 24
chongqing 24
cing 24
city-@@ 24
clam@@ 24
clearest 24
cleavages 24
clusters 24
coincide 24
collaborators 24
comforting 24
consultants 24
contests 24
contextual 24
corners 24
corridors 24
creed 24
crowdfunding 24
ddt 24
decades-long 24
deceptive 24
decom@@ 24
decree 24
defamation 24
defer 24
definitively 24
deployments 24
des@@ 24
dge 24
dictatorial 24
differing 24
dirt 24
disabilities 24
disenchantment 24
distribu@@ 24
domin@@ 24
downing 24
dragon 24
dreaded 24
duma 24
dun@@ 24
dwellers 24
early-stage 24
educ@@ 24
elitist 24
ely 24
embarking 24
enactment 24
encompassing 24
encroachment 24
ency 24
engulfed 24
entrusted 24
envisage 24
ese 24
ethnically 24
ever-closer 24
ever-increasing 24
evidenced 24
exchanged 24
exponentially 24
extracted 24
ez@@ 24
faithful 24
famines 24
fared 24
façade 24
feder@@ 24
fiasco 24
fiscal-@@ 24
fisher 24
flake 24
flip 24
fon@@ 24
fractured 24
frictions 24
gaping 24
gays 24
geared 24
genic 24
ger-@@ 24
gged 24
go-@@ 24
grams 24
graph 24
guardians 24
gues 24
gul 24
guy 24
harbinger 24
hardened 24
hat@@ 24
hefty 24
hens 24
hereditary 24
heyday 24
hiccup 24
hormone 24
hydroelectric 24
ideologues 24
ified 24
imitate 24
impersonal 24
implicated 24
inadequacy 24
incorporating 24
incorrect 24
indignation 24
inexorably 24
inexperienced 24
infer@@ 24
infinite 24
inflation-targeting 24
inspirational 24
intentional 24
inter-american 24
intergenerational 24
interrupted 24
intimidate 24
inácio 24
janata 24
jordanian 24
kadyrov 24
kant 24
kevin 24
knit 24
krill 24
kun@@ 24
labeling 24
labor-saving 24
landed 24
legitimizing 24
leonid 24
licensed 24
licenses 24
lings 24
lit 24
litigation 24
lively 24
long@@ 24
magnified 24
marxism 24
memorial 24
mentor 24
merging 24
mic@@ 24
militarized 24
misinformation 24
mob 24
modern@@ 24
mol@@ 24
mud 24
murderers 24
nagasaki 24
naming 24
neg@@ 24
neo@@ 24
neoclassical 24
nes 24
normality 24
nostalgic 24
novartis 24
obstruction 24
ol 24
oll@@ 24
one-year 24
onslaught 24
organizers 24
originate 24
oring 24
ory 24
overshadowed 24
overturned 24
pains 24
parental 24
peaks 24
penchant 24
perennial 24
petro@@ 24
physicist 24
pit 24
plaza 24
pleasant 24
popul@@ 24
posi@@ 24
possessed 24
postcommunist 24
predictive 24
premises 24
presses 24
princelings 24
principally 24
profit-@@ 24
prostitution 24
quantify 24
quot 24
races 24
raped 24
reclaim 24
recurrent 24
redirect 24
reeling 24
regressive 24
remuneration 24
res@@ 24
resemblance 24
resettlement 24
reverting 24
roiling 24
rolls 24
romer 24
rushing 24
rust 24
sad@@ 24
salient 24
scar@@ 24
scattered 24
sectarianism 24
self-sufficiency 24
ser 24
service-sector 24
sham 24
shel@@ 24
shenzhen 24
slow-@@ 24
sour 24
spills 24
spy 24
stabilizers 24
staging 24
staple 24
statesmanship 24
sterilization 24
strang@@ 24
strategist 24
submarine 24
subpar 24
surges 24
surround 24
swf 24
sydney 24
synonymous 24
tackled 24
taj 24
tar 24
tas@@ 24
televised 24
temp@@ 24
theoretically 24
thugs 24
tici@@ 24
tify 24
timed 24
tization 24
tracked 24
trail 24
twelve 24
una 24
unaddressed 24
unbearable 24
underscoring 24
unethical 24
unseen 24
upstream 24
ures 24
validate 24
valls 24
ven 24
vigilantes 24
vill@@ 24
vow 24
waited 24
walks 24
warriors 24
well-meaning 24
wielding 24
08 23
16,000 23
170@@ 23
190 23
1941 23
1983 23
1st 23
2,500 23
20-30 23
5-10 23
5.2 23
6.4 23
7.4 23
7.6 23
abdul@@ 23
aches 23
aching 23
addictive 23
ado@@ 23
adolescent 23
aerial 23
age-old 23
akh@@ 23
aks 23
ambivalent 23
anachronistic 23
ances 23
anda 23
announcements 23
antagon@@ 23
anti-austerity 23
anti-immigration 23
apec 23
ara@@ 23
arity 23
arizona 23
artillery 23
asserts 23
assi@@ 23
ast@@ 23
asymmetrical 23
avenues 23
averages 23
avowed 23
awakened 23
barometer 23
battered 23
beholden 23
bharatiya 23
blames 23
bmi 23
bollywood 23
botswana 23
bounds 23
brain@@ 23
breathtaking 23
bred 23
cables 23
cages 23
cameras 23
capital-flow 23
carnegie 23
carpet 23
casualty 23
catches 23
celebrity 23
chi 23
chickens 23
clinging 23
coexist 23
collabor@@ 23
collateralized 23
columnist 23
commentator 23
communicating 23
connects 23
consumer-led 23
consumes 23
contemplated 23
contradict 23
convertible 23
cop 23
corporatist 23
cozy 23
cra 23
cubic 23
currents 23
cusp 23
dance 23
dations 23
deaton 23
decelerating 23
deceleration 23
decimated 23
defective 23
defensible 23
deficit-@@ 23
defined-benefit 23
definitions 23
defl@@ 23
delu@@ 23
depart 23
depleting 23
depressive 23
derided 23
destinations 23
detroit 23
devotion 23
diagnose 23
dic 23
differentiated 23
dignified 23
discord 23
disease-@@ 23
disgust 23
disinflation 23
dissatisfied 23
distinguishes 23
dness 23
domino 23
donate 23
drowned 23
du 23
duke 23
early-@@ 23
eea 23
efully 23
elicit 23
em 23
envi@@ 23
equi@@ 23
eric 23
escalated 23
evils 23
exchanging 23
exhibition 23
exotic 23
fairy 23
fanaticism 23
feldstein 23
feu@@ 23
figuring 23
filipino 23
finite 23
fixed-asset 23
fou@@ 23
fractious 23
freezing 23
freight 23
futility 23
galvanized 23
garbage 23
gary 23
gh 23
ghosts 23
ght 23
gni 23
god@@ 23
govern@@ 23
grand@@ 23
grappling 23
gripped 23
gst 23
guarded 23
guise 23
hat 23
hectare 23
helmut 23
herbert 23
heroin 23
hesit@@ 23
honduras 23
horri@@ 23
horrible 23
hydrocarbon 23
hysteria 23
illumin@@ 23
impress 23
improbable 23
incub@@ 23
incursions 23
indictment 23
inequities 23
inexorable 23
inflicting 23
initi@@ 23
innumerable 23
inroads 23
instituting 23
intel 23
intern@@ 23
intricate 23
intriguing 23
intrusion 23
inward-looking 23
iowa 23
itating 23
ium 23
jersey 23
jones 23
justifiable 23
lanes 23
left-leaning 23
leg 23
lgbt 23
libertarian 23
lier 23
limitation 23
logging 23
luiz 23
lun@@ 23
lure 23
manu@@ 23
manual 23
marriages 23
mbs 23
mega-regional 23
mentions 23
menu 23
metabo@@ 23
mice 23
middle- 23
mills 23
mistreatment 23
mncs 23
moderated 23
monetarist 23
mongering 23
monument 23
multiplying 23
mussolini 23
nag@@ 23
needing 23
needy 23
nile 23
oblivious 23
one-off 23
onian 23
originating 23
outcry 23
outpaced 23
outsourced 23
overhangs 23
participant 23
passport 23
passports 23
patently 23
peacemaking 23
pes@@ 23
philanthropists 23
piled 23
plaintiffs 23
planted 23
play@@ 23
porous 23
portraying 23
power-@@ 23
powerfully 23
pp 23
precautions 23
precipitous 23
preeminent 23
presentation 23
prizes 23
proportionate 23
protestants 23
public-opinion 23
public-relations 23
purged 23
qualitative 23
quipped 23
radicalized 23
ransom 23
rattling 23
receded 23
recipes 23
reelected 23
reinvigorating 23
relieved 23
replicating 23
reputational 23
researcher 23
resonate 23
respectful 23
rewrite 23
ripe 23
risk-averse 23
roiled 23
roof@@ 23
ruthlessly 23
sacrosanct 23
scapegoat 23
schmidt 23
seasoned 23
sechin 23
secrets 23
self-reliance 23
shale-energy 23
shedding 23
shine 23
shrug 23
single-minded 23
singled 23
sino-@@ 23
sir 23
ska 23
slums 23
small-@@ 23
smartphones 23
sociologist 23
spans 23
spar@@ 23
specifics 23
speculated 23
spelled 23
spiraling 23
spying 23
squeezing 23
stadiums 23
statutory 23
stealing 23
stic@@ 23
streak 23
stuart 23
subjective 23
subservient 23
suffrage 23
sufi 23
suharto 23
summarized 23
supra-national 23
suspending 23
sykes-picot 23
tablets 23
tant 23
tas 23
template 23
tenuous 23
terminal 23
thered 23
thir@@ 23
thirst 23
thresholds 23
thrives 23
ticking 23
tilt 23
tioning 23
titles 23
topped 23
translating 23
transported 23
trough 23
tudor 23
turing 23
tweeted 23
twenty-@@ 23
unacceptably 23
unambiguously 23
unconstitutional 23
unfairly 23
union@@ 23
upswing 23
vo 23
wards 23
warrants 23
wo 23
xing 23
youthful 23
á@@ 23
• 23
15.@@ 22
150,000 22
169 22
1937 22
194@@ 22
1955 22
2014-@@ 22
21st 22
230 22
23andme 22
35@@ 22
5.@@ 22
70th 22
8.3 22
94 22
abe@@ 22
accelerator 22
accomplishment 22
adenauer 22
adi@@ 22
advertisements 22
advising 22
affiliates 22
afflict 22
after@@ 22
aiding 22
al-maliki 22
alarmingly 22
allowances 22
amartya 22
ambassadors 22
american-@@ 22
anno@@ 22
antiquated 22
apples 22
appointees 22
arbiter 22
arch@@ 22
aring 22
armenians 22
ascendancy 22
ashton 22
assign 22
astro@@ 22
ater@@ 22
atop 22
attaining 22
aud@@ 22
augmented 22
authorization 22
backfired 22
bacterium 22
basing 22
bc 22
behaves 22
beli@@ 22
big@@ 22
billion-dollar 22
blatantly 22
bling 22
blogs 22
borrows 22
bottom@@ 22
brigade 22
brigh@@ 22
brush 22
bulwark 22
bumpy 22
burns 22
butter 22
cacs 22
cambodian 22
centrifuges 22
characters 22
chim@@ 22
cjd 22
clinicians 22
clues 22
coal-@@ 22
colorful 22
commodity-price 22
conditioned 22
congestion 22
conquered 22
consult 22
contain@@ 22
contractor 22
converging 22
conveyed 22
count@@ 22
countervailing 22
creatures 22
cri@@ 22
cubans 22
cultivation 22
day@@ 22
deaf 22
decentralization 22
dedication 22
democrati@@ 22
demonetization 22
densely 22
dental 22
depressions 22
descended 22
desirability 22
detrimental 22
digits 22
discourages 22
disp@@ 22
diversifying 22
dokdo 22
doorstep 22
dot-com 22
doubtless 22
downgraded 22
dressed 22
druze 22
durability 22
détente 22
eagerly 22
eagerness 22
electro@@ 22
eliminates 22
employment-@@ 22
entrepreneur 22
epigenetic 22
ered 22
ex 22
exceptionalism 22
executing 22
exemplary 22
exemptions 22
expansionist 22
explode 22
eyed 22
fab@@ 22
fao 22
far-sighted 22
feminist 22
fervor 22
fickle 22
fili@@ 22
fledgling 22
flies 22
flowers 22
foe 22
formulation 22
fs 22
gar 22
glim@@ 22
glimmer 22
globalizing 22
gloom 22
graduated 22
grandiose 22
grandmother 22
greening 22
grips 22
growers 22
gujarat 22
halve 22
harbors 22
hard-to-@@ 22
hasten 22
hatoyama 22
hen@@ 22
herein 22
hiking 22
holdout 22
homeless 22
honestly 22
hopelessly 22
hou@@ 22
hourly 22
hukou 22
ib@@ 22
idealistic 22
impe@@ 22
impotent 22
inate 22
individualism 22
infra@@ 22
inhibitors 22
injecting 22
interstate 22
interviewed 22
invoking 22
ira 22
ises 22
japanese-@@ 22
johannesburg 22
jokes 22
jump-start 22
kar 22
kidnapped 22
kilometer 22
kol@@ 22
laureates 22
lawsuit 22
least-developed 22
lef@@ 22
len 22
leninist 22
leveling 22
liberating 22
lif@@ 22
lightly 22
literary 22
locate 22
longtime 22
louder 22
mach@@ 22
magazines 22
mail 22
mala@@ 22
maneuvers 22
manifested 22
marginalize 22
mass-@@ 22
mbles 22
memoirs 22
mercosur 22
metaphors 22
midnight 22
mike 22
mimic 22
minimum-wage 22
miserable 22
misused 22
modern-day 22
molecules 22
morphed 22
multifaceted 22
musical 22
nativist 22
navigating 22
neo-conservative 22
newborn 22
nikita 22
nom@@ 22
non-democratic 22
normative 22
nouri 22
numerical 22
obscures 22
offerings 22
oil-exporting 22
old-age 22
omar 22
onic 22
oper@@ 22
ost@@ 22
ounding 22
outlet 22
overcame 22
panics 22
parkinson 22
particul@@ 22
pathway 22
peace-@@ 22
peer-to-peer 22
penalize 22
per-@@ 22
philip 22
photographs 22
pigs 22
pin 22
pius 22
politic@@ 22
poroshenko 22
post-industrial 22
potter 22
pre-2008 22
precipitated 22
precursor 22
pregnancy 22
priests 22
productively 22
professions 22
programmed 22
prosecuting 22
psychiatry 22
public-policy 22
purity 22
quote 22
ramallah 22
ranges 22
rats 22
recruited 22
recur 22
reflation 22
regul@@ 22
releases 22
relocating 22
reproduction 22
reservoirs 22
resolutely 22
revisited 22
revitalization 22
rigorously 22
rio+20 22
rotating 22
rumor 22
rumored 22
s-based 22
samples 22
sanguine 22
scapegoats 22
schuman 22
sci@@ 22
seasonal 22
sectoral 22
self-evident 22
self-reinforcing 22
seller 22
sensitivities 22
sequester 22
sequestration 22
sher@@ 22
shockingly 22
shootings 22
simplified 22
singular 22
sixty 22
sle@@ 22
slice 22
slo@@ 22
slowdowns 22
smile 22
soe 22
spate 22
spe@@ 22
spree 22
ssed 22
sta@@ 22
stag@@ 22
state-building 22
state-of-the-art 22
state-sponsored 22
steadfast 22
steered 22
streamline 22
stricken 22
styles 22
sub-national 22
suez 22
supervise 22
supervised 22
survives 22
symbolized 22
synthesis 22
tains 22
takers 22
tales 22
taming 22
tellingly 22
tender 22
testified 22
the-@@ 22
theorist 22
third-party 22
thucydides 22
timeline 22
tionally 22
tionist 22
tipped 22
tism 22
top@@ 22
tor-@@ 22
towers 22
tradeoffs 22
tragically 22
trans-@@ 22
triangle 22
trickle-down 22
trumps 22
tsai 22
turbines 22
unabated 22
unanswered 22
unanticipated 22
unbridled 22
uncharted 22
underdevelopment 22
unfolded 22
unfulfilled 22
upfront 22
urban@@ 22
value-@@ 22
vanguard 22
verify 22
vers@@ 22
vetoed 22
vin@@ 22
vividly 22
walmart 22
walter 22
whichever 22
wikipedia 22
wine 22
witnesses 22
wrath 22
wreck 22
write-downs 22
xed 22
xes 22
yer 22
yu 22
zambia 22
zar@@ 22
zine 22
.org 21
1,500 21
101 21
16.@@ 21
20-year 21
3,@@ 21
3-5 21
6.2 21
6.3 21
8.@@ 21
abdic@@ 21
able-@@ 21
aerospace 21
affiliation 21
affront 21
agile 21
ahtisaari 21
aipac 21
airplanes 21
al- 21
alienate 21
aling 21
alleviating 21
altar 21
amed 21
amplifying 21
amply 21
anglo-american 21
angst 21
anguish 21
annihilation 21
anomaly 21
anonymity 21
anti-poverty 21
apologized 21
appropri@@ 21
arche@@ 21
arms-control 21
arranged 21
arresting 21
artist 21
aspirational 21
ass 21
assisting 21
asteroid 21
astonishingly 21
astute 21
attainable 21
augu@@ 21
authoritative 21
authorize 21
avi@@ 21
awe 21
bac@@ 21
back-@@ 21
baker 21
barghouti 21
barro 21
becker 21
belgrade 21
bengali 21
bentham 21
bi 21
bility 21
binds 21
bob 21
bogus 21
bond-buying 21
boomers 21
brisbane 21
brunei 21
burg 21
busts 21
button 21
byproduct 21
cab@@ 21
calculates 21
cargo 21
casts 21
ceding 21
ceilings 21
centrally 21
cessation 21
cheer 21
chem@@ 21
chiang 21
christopher 21
claimants 21
classification 21
clim@@ 21
clou@@ 21
codependency 21
compatriots 21
complemented 21
conclusive 21
condemns 21
confucius 21
congressmen 21
consumption-@@ 21
contenders 21
contention 21
contraception 21
convening 21
cooperated 21
crescent 21
cries 21
csr 21
cunning 21
custom@@ 21
dearly 21
debt-fueled 21
decades-old 21
decidedly 21
delegated 21
delors 21
deputies 21
designer 21
devastate 21
developmental 21
dges 21
disastrously 21
disbur@@ 21
dishonest 21
disper@@ 21
distinctly 21
doctrines 21
doubly 21
draw@@ 21
drinks 21
droves 21
dump 21
ech@@ 21
eib 21
eigh@@ 21
ele@@ 21
ell@@ 21
embarrassment 21
emigration 21
emo@@ 21
enp 21
enroll 21
erdogan 21
erecting 21
eritrea 21
ero@@ 21
ety 21
evic@@ 21
excuses 21
exemplifies 21
export-@@ 21
ext@@ 21
extracting 21
fabric@@ 21
familiarity 21
farm@@ 21
fattah 21
fc 21
fear-@@ 21
financial-services 21
floated 21
florence 21
fluctu@@ 21
fooled 21
foothold 21
friday 21
front-@@ 21
funders 21
funeral 21
gang@@ 21
gavi 21
genie 21
gers 21
giscard 21
glob@@ 21
golan 21
good-@@ 21
grasped 21
gray 21
griesa 21
groupings 21
guarantor 21
gül 21
gülenist 21
hal 21
hammer 21
harmless 21
harmonized 21
headquartered 21
heighten 21
heirs 21
hem@@ 21
high-ranking 21
high-value 21
hindering 21
ho 21
holmes 21
horizontal 21
horrendous 21
hurdle 21
ill-conceived 21
imaginative 21
imper@@ 21
incarceration 21
indicative 21
inevitability 21
infec@@ 21
infect 21
inflame 21
inland 21
institutionally 21
instructed 21
instruction 21
insu@@ 21
intelligentsia 21
intensely 21
internet-@@ 21
interrogation 21
irving 21
isps 21
iv 21
jan 21
jang 21
jin@@ 21
jumping 21
keepers 21
kick@@ 21
kindleberger 21
kis@@ 21
kohl 21
kushner 21
lakes 21
lame 21
lancet 21
leeway 21
left-right 21
legendary 21
legitimately 21
likened 21
lis 21
lity 21
livni 21
lone 21
long-established 21
low-productivity 21
lucas 21
macedonia 21
macierewicz 21
malnourished 21
manhattan 21
manufactures 21
mapping 21
marsh@@ 21
maxim@@ 21
mbling 21
mcconnell 21
memb@@ 21
meritocratic 21
mildly 21
milli@@ 21
misallocation 21
mismanaged 21
misrule 21
missteps 21
monster 21
moroccan 21
motors 21
mourning 21
mouths 21
muscles 21
nail 21
navigation 21
necess@@ 21
needlessly 21
net@@ 21
new-@@ 21
nonfinancial 21
nongovernmental 21
nonproliferation 21
normalizing 21
noteworthy 21
npls 21
nursing 21
oblige 21
obstruct 21
ola 21
oligarchy 21
ological 21
open-@@ 21
opera 21
opting 21
oscill@@ 21
ose 21
overstretched 21
overweight 21
painting 21
palatable 21
palestinian-israeli 21
palo 21
pandering 21
paracetamol 21
parade 21
paradise 21
paramilitary 21
parti@@ 21
pathetic 21
pau@@ 21
pdvsa 21
pent-up 21
pesos 21
pil@@ 21
pioneers 21
pitting 21
pla@@ 21
plato 21
playbook 21
plots 21
plotting 21
polarizing 21
policy-@@ 21
posting 21
pot@@ 21
poverty-reduction 21
pre-recession 21
preach 21
preaching 21
pro-american 21
probe 21
product-@@ 21
progressively 21
prote@@ 21
protector 21
publishes 21
putsch 21
rafsanjani 21
raid 21
ram 21
rash 21
rations 21
reassurance 21
rebounded 21
recast 21
reception 21
reciprocal 21
reciprocity 21
red@@ 21
redouble 21
regionally 21
regre@@ 21
reopened 21
repayments 21
reproduce 21
requisite 21
resuming 21
revisit 21
ria 21
ritual 21
roman@@ 21
roo@@ 21
rudimentary 21
sadr 21
salaf@@ 21
sanc@@ 21
scales 21
scared 21
schism 21
scholarly 21
sclerotic 21
scots 21
searches 21
secretive 21
self-destructive 21
self-proclaimed 21
services-led 21
shevardnadze 21
shielded 21
shimon 21
shoring 21
sino-japanese 21
sky-high 21
sky@@ 21
slippery 21
smallpox 21
smartest 21
smartphone 21
snb 21
sni@@ 21
soup 21
sourced 21
sparking 21
speci@@ 21
speculate 21
spite 21
stamps 21
state-led 21
staunchly 21
stirred 21
stirring 21
strongman 21
stumbling 21
substituting 21
suburbs 21
sulfur 21
superstars 21
susceptibility 21
swallow 21
s—@@ 21
tac@@ 21
takeoff 21
tamils 21
technology-driven 21
temperament 21
theological 21
thi@@ 21
time-consuming 21
timothy 21
tom 21
tournament 21
transactional 21
transcends 21
tures 21
tycoon 21
unarmed 21
uncommon 21
uncoordinated 21
unde@@ 21
undercutting 21
understandings 21
uneducated 21
unlocking 21
unpopularity 21
upend 21
upper-@@ 21
urges 21
vacations 21
watches 21
weaponry 21
wedded 21
weimar 21
well-intentioned 21
wireless 21
wrong@@ 21
year@@ 21
yingluck 21
yp@@ 21
zoellick 21
è@@ 21
ó@@ 21
ón 21
€500 21
10-20 20
12,000 20
15-year 20
1907 20
193 20
2nd 20
40@@ 20
5.1 20
6.@@ 20
8.4 20
aberration 20
abject 20
accidentally 20
acious 20
acquiesce 20
adopts 20
advanced-economy 20
affirm 20
affirmed 20
aggravating 20
airbnb 20
al-ahmar 20
al-shabaab 20
amidst 20
amnesia 20
analy@@ 20
andre@@ 20
ania 20
anti-trust 20
applause 20
approving 20
archaic 20
aroused 20
arrives 20
arti@@ 20
assuage 20
assuring 20
asymmetries 20
atingly 20
augmenting 20
auschwitz 20
avo@@ 20
backyard 20
bacterial 20
barbaric 20
bath@@ 20
bau@@ 20
beaches 20
beans 20
beg 20
bells 20
ber-@@ 20
besar 20
besieged 20
bible 20
blindly 20
bluff 20
boldness 20
bond-market 20
boot 20
bore 20
branding 20
brca1 20
brew 20
bridging 20
bypassing 20
cal 20
calorie 20
campus 20
cancellation 20
cash-strapped 20
cc@@ 20
celebrities 20
cent 20
ceremonies 20
chec@@ 20
chiefly 20
chilling 20
choke 20
cleanup 20
colli@@ 20
colon@@ 20
colorado 20
command-and-control 20
commanded 20
commemor@@ 20
complaining 20
concessional 20
confidential 20
confinement 20
confirming 20
contingency 20
corrective 20
courting 20
criticizes 20
curbed 20
cynics 20
dah 20
daoud 20
darker 20
darkest 20
declares 20
decoupled 20
defendants 20
defiant 20
del 20
dementia 20
demography 20
dense 20
deri@@ 20
desertification 20
despotism 20
deteriorates 20
dged 20
differentiate 20
digging 20
diplomatically 20
disapproval 20
discer@@ 20
disgrace 20
dismay 20
displacing 20
dispossessed 20
dollar-@@ 20
earmarked 20
earnest 20
ecologically 20
econom@@ 20
ee@@ 20
embarrassed 20
emblematic 20
emis@@ 20
emulated 20
ensued 20
entangled 20
entrench 20
erupts 20
ethiopian 20
euthanasia 20
exhaustion 20
face-to-face 20
facilitation 20
fer 20
figured 20
fills 20
finalize 20
finalized 20
finest 20
firm@@ 20
first-hand 20
flag@@ 20
flew 20
flin@@ 20
fmln 20
foregone 20
forestall 20
fred 20
fruitful 20
fukuyama 20
func@@ 20
fund@@ 20
game-changing 20
gear 20
geothermal 20
gifted 20
glori@@ 20
gospel 20
gossip 20
great-power 20
growth-oriented 20
haldane 20
harassed 20
hawkish 20
hears 20
heft 20
helpless 20
heroism 20
hesitated 20
hierarchies 20
hirohito 20
holidays 20
hr 20
hydraulic 20
ign@@ 20
imam 20
imbued 20
imitation 20
import-@@ 20
inadequately 20
inating 20
inconsistency 20
inflating 20
insular 20
intolerant 20
intrinsically 20
intuitions 20
inventors 20
iphone 20
irre@@ 20
iso@@ 20
istically 20
jec@@ 20
judaism 20
junichiro 20
ke-@@ 20
kibaki 20
kn@@ 20
kno@@ 20
krg 20
lah 20
launches 20
layoffs 20
lec@@ 20
legion 20
listing 20
lor@@ 20
loving 20
low-lying 20
luc@@ 20
lyn@@ 20
lyndon 20
macroeconomists 20
mah@@ 20
mann 20
martial 20
mediated 20
memorable 20
metabolic 20
midterm 20
militancy 20
mini@@ 20
misconceptions 20
misdeeds 20
mismatches 20
mistre@@ 20
mond 20
monopoli@@ 20
mouse 20
myopic 20
nadu 20
naif 20
nation-building 20
nativism 20
nepotism 20
networked 20
networking 20
nigel 20
ninth 20
no-brainer 20
nominally 20
non-binding 20
non-communicable 20
non-interference 20
not@@ 20
nul@@ 20
one-tenth 20
organ@@ 20
outline 20
over-indebted 20
ozawa 20
pacifist 20
pacts 20
passivity 20
peacetime 20
percentile 20
pesticide 20
petrobras 20
pig@@ 20
pilgrims 20
piling 20
pooled 20
portrays 20
pr 20
precipice 20
preferring 20
prepares 20
pro 20
profit-sharing 20
proliferating 20
prolonging 20
propag@@ 20
prosecutions 20
prudently 20
punjab 20
purges 20
qualifies 20
quartet 20
quo@@ 20
raged 20
railroad 20
rain@@ 20
rains 20
ramp 20
rat@@ 20
raters 20
rationally 20
reactive 20
recidivism 20
reconstruct 20
record-breaking 20
reform@@ 20
refrained 20
region-wide 20
regrettable 20
reined 20
remnants 20
renege 20
repaired 20
reparations 20
repress 20
repudiation 20
resented 20
resentful 20
residency 20
responsiveness 20
restless 20
revolutionized 20
rhino 20
ridicule 20
righteous 20
rightful 20
rs 20
rudd 20
ruhollah 20
ruined 20
run-off 20
same-sex 20
sang 20
santa 20
sau@@ 20
school@@ 20
secessionist 20
second-round 20
self-imposed 20
self-sufficient 20
servant 20
sheep 20
shiites 20
shir@@ 20
shness 20
shri@@ 20
sians 20
sigh 20
sisi 20
skillful 20
skir@@ 20
skyrocketed 20
sleeping 20
smoot-hawley 20
solitary 20
spikes 20
spirited 20
stan 20
stances 20
state-run 20
state@@ 20
stipulates 20
stir 20
stock@@ 20
strident 20
stumble 20
subnational 20
super-rich 20
susan 20
swan 20
symbolically 20
synergies 20
t-to-@@ 20
tabloid 20
tearing 20
teetering 20
terminology 20
tesla 20
th-largest 20
thaler 20
thein 20
thread 20
timber 20
timor 20
tingly 20
tops 20
tumult 20
two-party 20
ums 20
unaffected 20
unfit 20
unorthodox 20
unparalleled 20
us-based 20
vanishing 20
vertical 20
vis@@ 20
warrior 20
wat@@ 20
wei@@ 20
weights 20
western-style 20
worsens 20
worthless 20
wrest@@ 20
wyoming 20
ym@@ 20
zidane 20
zuckerberg 20
10.5 19
11th 19
14-@@ 19
175 19
1800 19
1917 19
1952 19
2011-@@ 19
2021 19
4-5 19
5,@@ 19
5.3 19
6,@@ 19
6.9 19
6th 19
a\u0027s 19
abo@@ 19
abysmal 19
acid 19
activated 19
addicted 19
adhered 19
adheres 19
admon@@ 19
ahn 19
ail@@ 19
aire 19
alarmist 19
albanians 19
allay 19
american-style 19
amman 19
anarch@@ 19
anchoring 19
ani 19
ani@@ 19
anthropo@@ 19
anti-communist 19
anti-government 19
antibodies 19
antidote 19
appalled 19
appoints 19
apps 19
armaments 19
artistic 19
ase@@ 19
astronom@@ 19
bag 19
bail-@@ 19
band@@ 19
bb@@ 19
beast 19
belatedly 19
betray 19
biblical 19
biotech 19
bitterness 19
bluster 19
bogged 19
borderless 19
bored 19
brca2 19
brewing 19
buck@@ 19
bugs 19
buyer 19
cad@@ 19
caf@@ 19
cafta 19
capital-market 19
capitol 19
capping 19
carrots 19
catalyzed 19
cel@@ 19
cers 19
cheat 19
cheer@@ 19
circus 19
citibank 19
civility 19
claremont 19
classify 19
cn@@ 19
collects 19
comman@@ 19
commander-in-chief 19
communicated 19
compass 19
comple@@ 19
complicates 19
conducts 19
conflict-@@ 19
conform 19
consequent 19
consultative 19
consulting 19
consumerism 19
contending 19
contents 19
conver@@ 19
corollary 19
correspond 19
county 19
cowen 19
crashes 19
creature 19
credo 19
creeping 19
cs@@ 19
culprits 19
damning 19
dash 19
dawkins 19
debt-ceiling 19
decrimin@@ 19
deep-rooted 19
defect 19
deliveries 19
delusions 19
democratize 19
depicted 19
deportation 19
depreciations 19
development-@@ 19
deviation 19
dge@@ 19
dip 19
disaffection 19
disclosures 19
discriminate 19
disenchanted 19
dislocation 19
dissemination 19
distrac@@ 19
disunity 19
diverge 19
documentation 19
doldrums 19
dominican 19
donation 19
dor@@ 19
drifting 19
duplic@@ 19
durban 19
dwarf 19
earns 19
eighteenth-century 19
eling 19
embodiment 19
enlarging 19
enting 19
estaing 19
estrangement 19
euph@@ 19
european-@@ 19
eurozone-wide 19
excited 19
expel 19
explo@@ 19
explosions 19
fanciful 19
faraway 19
fau@@ 19
feasibility 19
feminists 19
ferdinand 19
fernández 19
fiber 19
fiduciary 19
finnish 19
fixation 19
flock 19
flux 19
fodder 19
fool@@ 19
foreclosures 19
foresaw 19
format 19
formul@@ 19
four@@ 19
frothy 19
ftt 19
fulfillment 19
gatherings 19
geno@@ 19
geo-political 19
gli@@ 19
global-@@ 19
grabbed 19
grandparents 19
gravely 19
grotesque 19
grow@@ 19
habitats 19
hai@@ 19
haircuts 19
hamas-@@ 19
hangzhou 19
hardships 19
harshly 19
hasina 19
hemoglobin 19
hi 19
hide@@ 19
high-skill 19
hoax 19
honors 19
hotter 19
houthis 19
howard 19
humble 19
iea 19
ik 19
imf-@@ 19
immature 19
impairment 19
imperfections 19
inconclusive 19
incre@@ 19
incurring 19
india-pakistan 19
indian-@@ 19
indign@@ 19
induces 19
infer 19
inflammatory 19
ingenious 19
inhabited 19
innate 19
insurer 19
insurgencies 19
interacting 19
interactive 19
interest-@@ 19
international-@@ 19
iously 19
irs 19
ius 19
ivf 19
jean-@@ 19
jittery 19
jokowi 19
just-concluded 19
karachi 19
kennan 19
kenyans 19
knesset 19
kra@@ 19
kuchma 19
laguna 19
laugh@@ 19
lays 19
lessen 19
light-@@ 19
linger 19
liquid@@ 19
loyalties 19
ludicrous 19
lukashenko 19
lópez 19
m-pesa 19
magna 19
magnet 19
magnetic 19
mahatma 19
manship 19
maoists 19
marcos 19
medal 19
meles 19
mff 19
middle-@@ 19
miracles 19
mirage 19
misunderstood 19
mogherini 19
mone@@ 19
monetize 19
morals 19
mosul 19
musk 19
nal 19
near-universal 19
negara 19
neoliberalism 19
niño 19
non-arab 19
non-eurozone 19
nonprofit 19
nose 19
not-so-@@ 19
nov@@ 19
nuclear-weapon 19
nutshell 19
obasanjo 19
obfusc@@ 19
observing 19
oh 19
olivier 19
ologists 19
ols 19
opportunistic 19
orchestr@@ 19
oregon 19
origin@@ 19
outlines 19
overhauled 19
overreach 19
ow@@ 19
ox@@ 19
oxfam 19
pag@@ 19
pales 19
patrons 19
peer-reviewed 19
pemerintah 19
penal 19
perceives 19
pers 19
pet 19
phenomenal 19
pick@@ 19
pitch 19
placate 19
plea 19
pleasing 19
plethora 19
plumbers 19
po 19
podemos 19
poetry 19
policeman 19
politik 19
poverty-@@ 19
predetermined 19
predicated 19
preempt 19
premised 19
preoccupation 19
preschool 19
prescribe 19
pro-business 19
productivity-@@ 19
prostitutes 19
psychologist 19
puzzled 19
quarrel 19
que@@ 19
real-@@ 19
recommending 19
recreate 19
recycled 19
redistributing 19
reduc@@ 19
remembers 19
reminding 19
rental 19
rep@@ 19
repatriate 19
repatriation 19
repetition 19
repri@@ 19
restraining 19
retreated 19
revolutionize 19
rex 19
riders 19
rier 19
robustly 19
rompuy 19
roof 19
sac@@ 19
saf@@ 19
sanity 19
sans 19
sarah 19
sars 19
sc 19
school-age 19
scorecard 19
scripted 19
secretaries 19
securitized 19
self-control 19
self-interested 19
self-sustaining 19
sensibly 19
separatism 19
sequences 19
shadowy 19
shirts 19
side-@@ 19
sincerity 19
sinks 19
sizable 19
skies 19
skillfully 19
slaves 19
sli@@ 19
smog 19
snu@@ 19
soci@@ 19
soften 19
spearhead 19
speeds 19
spence 19
sponsor 19
spratly 19
springs 19
spur@@ 19
ssi@@ 19
straining 19
stressing 19
stripping 19
stymied 19
subcontinent 19
subjecting 19
succumbing 19
surpassing 19
surrogate 19
symposium 19
system@@ 19
tack 19
tahun 19
tch 19
te-@@ 19
teenage 19
therein 19
thick 19
tinkering 19
tips 19
tiz@@ 19
trader 19
transmitting 19
triad 19
trickle 19
trivi@@ 19
tun@@ 19
tunnel 19
two-way 19
typ@@ 19
ukan 19
unc@@ 19
uncompromising 19
uncontrollable 19
undecided 19
underwriting 19
unmanned 19
unmet 19
unofficial 19
usu@@ 19
uttar 19
uttered 19
va@@ 19
vehemently 19
veiled 19
velvet 19
venue 19
vetting 19
visual 19
vulture 19
watson 19
wealth-@@ 19
wisconsin 19
wishing 19
wom@@ 19
workplaces 19
write-down 19
year-@@ 19
yew 19
zy 19
ł@@ 19
1,200 18
15th 18
2001-@@ 18
2010-@@ 18
22,000 18
40-@@ 18
5-6 18
50@@ 18
5th 18
6.1 18
90-@@ 18
abbott 18
abetted 18
abidine 18
accrued 18
accusation 18
acies 18
adalah 18
adamantly 18
adjacent 18
administrator 18
admissions 18
ador@@ 18
adversity 18
advertised 18
affection 18
affluence 18
african-americans 18
algorithm 18
anc 18
andy 18
ane 18
angel 18
ant-@@ 18
appe@@ 18
argu@@ 18
arrears 18
assaulted 18
atro@@ 18
attribution 18
auspicious 18
awa@@ 18
bam 18
barbarism 18
bargains 18
battleground 18
beta 18
bioph@@ 18
biting 18
blew 18
boardroom 18
boeing 18
bolivian 18
bones 18
boots 18
boxes 18
boycotts 18
brady 18
breakaway 18
breakfast 18
breastfeeding 18
brethren 18
broo@@ 18
brute 18
buttressed 18
buybacks 18
calamities 18
call@@ 18
campuses 18
carbon-based 18
carson 18
catherine 18
catholicism 18
cats 18
caucus 18
cen@@ 18
censors 18
check@@ 18
cheering 18
civil-rights 18
clad 18
clamor 18
cler@@ 18
closes 18
colombians 18
coloni@@ 18
colonization 18
colony 18
competences 18
compu@@ 18
concertación 18
condone 18
conflict-affected 18
conserv@@ 18
consolation 18
constellation 18
constrains 18
contam@@ 18
convincingly 18
corrupted 18
cracy 18
crowd-@@ 18
crying 18
crystal 18
cyclone 18
cynically 18
cypriots 18
czar 18
d-up 18
daiichi 18
dalit 18
dampening 18
dani 18
ddy 18
debt-equity 18
deceased 18
decrees 18
defaulting 18
defends 18
degrading 18
delinqu@@ 18
departing 18
deplorable 18
descend 18
desk 18
despots 18
detached 18
dex@@ 18
dging 18
diego 18
diff@@ 18
din 18
director-general 18
disappears 18
disarm 18
discreet 18
disgu@@ 18
disillusionment 18
disintegrating 18
dismissal 18
dispose 18
distancing 18
distinctions 18
dithering 18
divorced 18
dless 18
dogmatic 18
downplay 18
ebrd 18
eight-@@ 18
electorally 18
elled 18
embassies 18
emissions-reduction 18
empi@@ 18
employer-@@ 18
encompasses 18
ende@@ 18
endor@@ 18
enrique 18
eras 18
escap@@ 18
et-@@ 18
eth@@ 18
eur@@ 18
euroskepticism 18
evacuate 18
excel 18
exhaust 18
expansions 18
expires 18
exponential 18
extrapol@@ 18
eye@@ 18
factual 18
family-@@ 18
fancy 18
far-left 18
farmed 18
fascists 18
fast-track 18
fatah@@ 18
fatalities 18
fathom 18
feckless 18
feld 18
fers 18
festering 18
festival 18
ffer 18
fi 18
fiat 18
fleeting 18
flemish 18
flourished 18
forgive 18
forth@@ 18
fossil-@@ 18
frames 18
franc@@ 18
fraternity 18
fraying 18
fri@@ 18
full-employment 18
garner 18
garnered 18
gel 18
geoengineering 18
gold-@@ 18
goldstone 18
graham 18
grains 18
grudgingly 18
gruesome 18
gue 18
guests 18
half-decade 18
hamburg 18
haruhiko 18
havana 18
have-nots 18
henchmen 18
hijra 18
hindered 18
hindrance 18
hirschman 18
hoarding 18
hockey 18
homelands 18
homicide 18
hoo@@ 18
hormones 18
http 18
hung 18
hyp@@ 18
idb 18
idealized 18
idiosyncratic 18
illustration 18
ilo 18
imaginable 18
impatient 18
imprudent 18
inconsistencies 18
indefensible 18
indisputable 18
industrialists 18
inflexible 18
infusion 18
inhabit 18
ino 18
int 18
intake 18
intensifies 18
intermedi@@ 18
internalized 18
internation@@ 18
intimidated 18
intra-regional 18
invoicing 18
ip@@ 18
irrationality 18
irrespective 18
irresponsibility 18
israeli-@@ 18
itor 18
jailing 18
jets 18
kaczynski 18
kat 18
kebijakan 18
kidnapping 18
kitchen 18
knowledgeable 18
kuomintang 18
laggards 18
latecomer 18
learns 18
legitim@@ 18
lifeblood 18
lifesaving 18
lightning 18
lli@@ 18
loathing 18
lock@@ 18
long-held 18
loosened 18
low-quality 18
low@@ 18
m2 18
mall 18
manafort 18
marco 18
market-driven 18
mble 18
mcdonald 18
md@@ 18
mediator 18
menacing 18
mercantilism 18
mid-1970 18
mig@@ 18
mindsets 18
minimized 18
miniscule 18
mir@@ 18
monday 18
monsoon 18
mousavi 18
multi-party 18
multilater@@ 18
myung-bak 18
nam@@ 18
narrow@@ 18
nasrallah 18
ner@@ 18
nest 18
neur@@ 18
nevada 18
non-compliance 18
non-military 18
non-muslims 18
non-transparent 18
nourishment 18
nsa 18
nutritious 18
oming 18
one-way 18
openings 18
operatives 18
orient 18
ounds 18
outstrip 18
overlooks 18
overtime 18
overtures 18
party-@@ 18
patchwork 18
payoffs 18
peculi@@ 18
performers 18
perseverance 18
peshawar 18
pests 18
phase-out 18
pierre 18
placement 18
plains 18
plausibly 18
pli@@ 18
ploy 18
plutocracy 18
ponzi 18
portions 18
post-colonial 18
ppps 18
prerequisites 18
preserves 18
pressuring 18
prize-winning 18
proclaims 18
produc@@ 18
profiling 18
profited 18
proliferate 18
property-rights 18
prostate 18
protectionists 18
protestors 18
provi@@ 18
psychiatrists 18
psychotic 18
purportedly 18
qing 18
quicker 18
ramaphosa 18
rare-earth 18
rebuffed 18
recapitalized 18
reckoned 18
reconfig@@ 18
redundancy 18
reef 18
rein@@ 18
reinterpretation 18
reminders 18
renewing 18
reputable 18
resembling 18
reservoir 18
reviewing 18
revulsion 18
rocks 18
rout 18
s.@@ 18
sap@@ 18
scholarships 18
science-based 18
sd@@ 18
searched 18
secede 18
seconds 18
seismic 18
self-employed 18
self-esteem 18
seniority 18
sensing 18
separates 18
seven@@ 18
shadow-banking 18
shelling 18
shin 18
shoot 18
shrewd 18
shun 18
sid@@ 18
simplification 18
sino-us 18
ske@@ 18
sl@@ 18
smiles 18
solow 18
son@@ 18
sonia 18
sony 18
soundness 18
specialty 18
specify 18
spells 18
sprawling 18
spurious 18
state-level 18
step-by-step 18
stoves 18
stronghold 18
stun@@ 18
summar@@ 18
super 18
superseded 18
swamp 18
swine 18
symptomatic 18
synchronized 18
tailspin 18
tally 18
tantrum 18
tapering 18
tapped 18
tax@@ 18
taxis 18
technology-@@ 18
terror@@ 18
tha@@ 18
then-us 18
theocratic 18
tickets 18
timeframe 18
tish 18
titude 18
tooth 18
tories 18
toronto 18
touched 18
traps 18
tripling 18
truck 18
trumped 18
ts-@@ 18
tually 18
tunnels 18
u-turn 18
ultimatum 18
unconstrained 18
underestimating 18
unforeseeable 18
unholy 18
uniforms 18
uninsured 18
unprecedentedly 18
unqualified 18
unscrupulous 18
uprooted 18
valéry 18
var 18
vered 18
versailles 18
vexing 18
vigilance 18
vis 18
wales 18
waned 18
web@@ 18
whale 18
wheels 18
wherewithal 18
wielded 18
woo@@ 18
wri@@ 18
write-off 18
wrongs 18
xiaochuan 18
yasir 18
yasser 18
yn@@ 18
you@@ 18
zoning 18
− 18
,500 17
-controlled 17
-in-law 17
09 17
1.5°c 17
11-@@ 17
11@@ 17
135 17
190@@ 17
1918 17
195 17
1959 17
2011-2012 17
270 17
5.9 17
6.6 17
9th 17
a.@@ 17
abduc@@ 17
aboard 17
accru@@ 17
achilles 17
adaptable 17
adjudic@@ 17
admiral 17
adventurism 17
advisors 17
affirming 17
afternoon 17
agrarian 17
agro-@@ 17
ahmad 17
ails 17
aked 17
alleviation 17
aloof 17
alpha 17
alternate 17
aly 17
ambivalence 17
ame 17
americ@@ 17
annex 17
anti-israel 17
appreh@@ 17
appropriated 17
arab-@@ 17
ard@@ 17
arians 17
arrivals 17
asean+3 17
asset-backed 17
ater 17
atom@@ 17
ator@@ 17
atrocity 17
attendant 17
attering 17
auris 17
authenticity 17
autocrat 17
awaken 17
backwards 17
baff@@ 17
ballooning 17
bam@@ 17
bantuan 17
basics 17
bcb 17
belts 17
bengal 17
bert 17
best-known 17
biop@@ 17
birthplace 17
bloodletting 17
blue-@@ 17
bomber 17
bonanza 17
boom-bust 17
boomed 17
bos 17
bouteflika 17
breakneck 17
bribe 17
brick 17
broadcasts 17
buddhism 17
bullish 17
bung@@ 17
buoyant 17
cadres 17
calamitous 17
camera 17
canberra 17
cancún 17
cannes 17
care-giving 17
carri@@ 17
carte 17
carved 17
causality 17
causation 17
caveats 17
cbr 17
cd 17
cd@@ 17
ceausescu 17
challengers 17
chest 17
chlor@@ 17
christ@@ 17
chu@@ 17
circuits 17
circulating 17
circuses 17
cit@@ 17
citation 17
clans 17
closures 17
commemoration 17
commo@@ 17
community-based 17
compatibility 17
compreh@@ 17
conceive 17
conciliatory 17
confeder@@ 17
confines 17
conno@@ 17
cons 17
contours 17
contra@@ 17
contri@@ 17
correa 17
correspondingly 17
corresponds 17
cosmopolitans 17
counseling 17
counties 17
country-specific 17
crashing 17
crossings 17
curiously 17
custo@@ 17
daw@@ 17
deal@@ 17
debris 17
defender 17
deficit-reduction 17
deflect 17
defusing 17
degrade 17
delegating 17
demagogue 17
demilitarized 17
deplo@@ 17
designation 17
designers 17
despised 17
destruc@@ 17
dialogues 17
discernible 17
disciplinary 17
dislocations 17
displeasure 17
dissipate 17
distortionary 17
dle 17
dollar@@ 17
doubles 17
doves 17
dovish 17
downright 17
dpp 17
dream@@ 17
drill 17
dwell 17
e-mail 17
ear 17
early-warning 17
eastward 17
ecology 17
editing 17
ef 17
effici@@ 17
ela 17
elabor@@ 17
elevate 17
ene@@ 17
energize 17
engulfing 17
enlarge 17
ensue 17
enthusiasts 17
es. 17
esg 17
establishments 17
eter@@ 17
evaluations 17
ex-soviet 17
execu@@ 17
experimenting 17
extra@@ 17
exuberant 17
exxon 17
f-@@ 17
fabricated 17
fall@@ 17
fares 17
farewell 17
fascinated 17
fati@@ 17
fertilization 17
fif@@ 17
filing 17
filtering 17
finger@@ 17
fir@@ 17
fissile 17
flared 17
flash 17
floors 17
floun@@ 17
follies 17
foreseen 17
forgetting 17
franco-@@ 17
fringes 17
frontrunner 17
fulfills 17
galbraith 17
gau@@ 17
gaz@@ 17
gen 17
gene-@@ 17
genesis 17
gilani 17
government-backed 17
grabbing 17
guer@@ 17
hagel 17
hans 17
hard-pressed 17
hastily 17
hawk 17
hec@@ 17
high-productivity 17
hoenig 17
homo@@ 17
honeymoon 17
hospit@@ 17
hospitable 17
hotspots 17
housed 17
huawei 17
hum@@ 17
huntington 17
hurry 17
hwang 17
hyped 17
ich@@ 17
ik@@ 17
ill-advised 17
illinois 17
imaginary 17
impartiality 17
implacable 17
impractical 17
inalienable 17
incorporation 17
indi@@ 17
ineffectual 17
infancy 17
inhab@@ 17
inity 17
innocuous 17
innovation-@@ 17
inous 17
institution@@ 17
insulting 17
insults 17
intensification 17
interfering 17
internalize 17
internationalism 17
interpreting 17
intra-european 17
ipl 17
iq 17
ira@@ 17
irreconcilable 17
ishing 17
ising 17
iss 17
ist-@@ 17
itting 17
izers 17
jab@@ 17
jac@@ 17
jawaharlal 17
jet 17
jibril 17
juga 17
justices 17
karmapa 17
kem@@ 17
kemal 17
kemalist 17
khobragade 17
kicked 17
klaus 17
knock-on 17
konrad 17
kor@@ 17
kr@@ 17
lagos 17
landlocked 17
lapses 17
lazy 17
legend 17
lengths 17
les@@ 17
less-developed 17
let@@ 17
levant 17
life-support 17
ligh@@ 17
lighter 17
liness 17
lingu@@ 17
linkage 17
liquidation 17
literal 17
livable 17
lls 17
loads 17
low-growth 17
low-hanging 17
low-interest 17
lowest-@@ 17
lu 17
lur@@ 17
lured 17
magical 17
malfeasance 17
mashal 17
mauricio 17
med@@ 17
mediate 17
medic@@ 17
mellon 17
melt 17
memorandum 17
merchants 17
meteor@@ 17
methodology 17
mid-1990s 17
mid-nineteenth 17
militar@@ 17
militarization 17
mindanao 17
mindful 17
minuscule 17
miraculous 17
modifications 17
modus 17
monopolistic 17
moo@@ 17
motivates 17
motivating 17
motor@@ 17
multiplied 17
multipolarity 17
mushrooming 17
nationalized 17
nations-@@ 17
nearest 17
nearing 17
nefarious 17
nemesis 17
nervousness 17
neuroscience 17
nic 17
niche 17
non-bank 17
non-discrimination 17
nonpartisan 17
nou@@ 17
obor 17
oce@@ 17
offenders 17
oft-@@ 17
old-@@ 17
ology 17
ome 17
one-sided 17
onwards 17
operator 17
ou 17
outlining 17
oval 17
oversaw 17
palm 17
pam@@ 17
pandora 17
papandreou 17
parasites 17
participatory 17
pathological 17
patriarch 17
pay-for-success 17
payable 17
pd 17
peaking 17
pemex 17
people-@@ 17
pep@@ 17
perpetrator 17
perry 17
pian 17
placebo 17
pleas 17
polled 17
pollin@@ 17
pollsters 17
pom@@ 17
poppy 17
porter 17
portra@@ 17
potatoes 17
predis@@ 17
prelude 17
prints 17
prob@@ 17
promotions 17
pses 17
pumps 17
punch 17
puppet 17
purse 17
purview 17
putative 17
ques 17
radio@@ 17
rafael 17
randomly 17
ration 17
rc 17
reader 17
realists 17
receptive 17
recklessly 17
reco@@ 17
recognizable 17
redefining 17
redirected 17
reinvigorated 17
rejuvenation 17
relic 17
religi@@ 17
rem@@ 17
renounced 17
repealing 17
reporter 17
repressing 17
repro@@ 17
resur@@ 17
retailing 17
reversible 17
revolving 17
ridiculous 17
ris 17
robo@@ 17
rocky 17
rodrigo 17
rubber 17
ruinous 17
rule-@@ 17
rup@@ 17
russi@@ 17
salafi 17
sanitary 17
sank 17
sartre 17
scholarship 17
school-@@ 17
scor@@ 17
scorn 17
scrap 17
scrapped 17
screened 17
scu@@ 17
seamless 17
secularist 17
sej@@ 17
sements 17
sensational 17
sensi@@ 17
serial 17
server 17
sheds 17
shin@@ 17
shove 17
showcase 17
sikh 17
sino-russian 17
situated 17
siveness 17
sleep@@ 17
social-insurance 17
sovereign-@@ 17
sowing 17
specul@@ 17
spies 17
spilling 17
spinning 17
spir@@ 17
splitting 17
spokesperson 17
sponsoring 17
spurs 17
squares 17
stalinist 17
stat@@ 17
stateless 17
statisticians 17
statue 17
sterilized 17
stipulated 17
stock-@@ 17
straits 17
straw 17
stru@@ 17
subscribe 17
substandard 17
sucked 17
sunni-@@ 17
supermarket 17
surgeon 17
symmetrical 17
symmetry 17
sympathizers 17
tatters 17
tening 17
tennessee 17
tersebut 17
thaw 17
them@@ 17
thering 17
thermo@@ 17
thorny 17
thre@@ 17
thro@@ 17
thuggish 17
tiv@@ 17
tiveness 17
to-gdp 17
tolls 17
too-@@ 17
touches 17
trappings 17
treacherous 17
tread 17
tremendously 17
trending 17
trin@@ 17
tunis 17
two-track 17
typing 17
tyrant 17
u-@@ 17
ug@@ 17
unattainable 17
unavailable 17
undisputed 17
unfccc 17
unfolds 17
unhcr 17
uninterrupted 17
unjustified 17
unmatched 17
unmitigated 17
unrelenting 17
unwieldy 17
up-to-date 17
updating 17
upended 17
uptick 17
ured 17
utopia 17
vel 17
verifiable 17
vi 17
victimized 17
villepin 17
visibility 17
volkswagen 17
voracious 17
wag@@ 17
warlords 17
weapons-@@ 17
well-connected 17
wiesel 17
winding 17
withholding 17
won@@ 17
wore 17
wrapped 17
wrongdoing 17
yaz@@ 17
yi 17
zer 17
€10 17
//@@ 16
115 16
15-20 16
18.@@ 16
1934 16
1954 16
2009-2010 16
2016-@@ 16
500-@@ 16
7-8 16
7.@@ 16
8.6 16
80,000 16
80-@@ 16
80@@ 16
8th 16
9.6 16
9.7 16
9.@@ 16
abnormally 16
abstain 16
abstrac@@ 16
absurdity 16
abusing 16
acclaim 16
ace 16
aceh 16
ached 16
acks 16
advisor 16
ae@@ 16
affirmation 16
aide 16
ailments 16
ain 16
aka 16
al-hanashi 16
alawites 16
alesina 16
algiers 16
alienating 16
all-too-@@ 16
allah 16
alle@@ 16
alled 16
allen 16
amending 16
amorphous 16
andean 16
animosities 16
animus 16
anointed 16
anti-euro 16
anti-terrorism 16
anti-trade 16
anya 16
applicant 16
approxim@@ 16
arduous 16
arities 16
arrange 16
asan 16
ashes 16
asian-@@ 16
assign@@ 16
atatürk 16
atheists 16
athlete 16
ato@@ 16
auctions 16
audacity 16
aura 16
authorizing 16
awful 16
awi 16
backer 16
backwardness 16
bacon 16
basi@@ 16
bean 16
begging 16
belligerent 16
beloved 16
beppe 16
bering 16
beware 16
bi-@@ 16
bihar 16
blan@@ 16
ble-@@ 16
blinded 16
blogger 16
blown 16
bogeyman 16
bon 16
border-@@ 16
border@@ 16
bott@@ 16
bourgeois 16
boy@@ 16
breached 16
bread@@ 16
bri 16
buff@@ 16
bulgarian 16
bunch 16
buoyed 16
burner 16
buses 16
caesar 16
calmed 16
calming 16
canceling 16
careless 16
caricature 16
carta 16
case-by-case 16
categorical 16
cautionary 16
caveat 16
cent@@ 16
centimeters 16
centre 16
century-@@ 16
change@@ 16
chimera 16
china-led 16
chunk 16
clampdown 16
clogged 16
cnn 16
coalesce 16
codified 16
colonized 16
combinations 16
companion 16
compens@@ 16
competes 16
complements 16
comra@@ 16
conduit 16
confer 16
conflagration 16
conformity 16
connectedness 16
conte@@ 16
coo@@ 16
cop21 16
cosmopolitanism 16
counterparties 16
countrymen 16
cracked 16
crave 16
creator 16
credence 16
credit-card 16
credit@@ 16
cross-country 16
crusade 16
cryptocurrencies 16
curing 16
curtail@@ 16
custom 16
cyber@@ 16
czarist 16
dad 16
damned 16
dampened 16
dares 16
dded 16
dead@@ 16
deadliest 16
deaf@@ 16
debatable 16
debt-deflation 16
deceive 16
decel@@ 16
decouple 16
decreases 16
defies 16
demobili@@ 16
dence 16
denominator 16
deregulated 16
derision 16
deserving 16
desp@@ 16
detain 16
detec@@ 16
detecting 16
deton@@ 16
devalued 16
devaluing 16
diaoyu 16
diasporas 16
dichotomy 16
dimon 16
dious 16
discounts 16
discrepancies 16
disem@@ 16
dishon@@ 16
dispersion 16
disseminate 16
doomsday 16
dreadful 16
dressing 16
dsm 16
duck 16
dug 16
dull 16
duterte 16
e.g. 16
eco-@@ 16
economic-reform 16
edifice 16
edmund 16
eight-year 16
ekonomi 16
elder 16
elevating 16
emancipation 16
embolden 16
eminently 16
emits 16
emitter 16
enablers 16
encyclical 16
endogenous 16
energi@@ 16
enhancement 16
enraged 16
envisages 16
epochal 16
erated 16
erstwhile 16
espouse 16
estranged 16
ever-growing 16
ex-kgb 16
exaggeration 16
examinations 16
expatriate 16
explanatory 16
exposures 16
extractive 16
factored 16
falter 16
fame 16
far-@@ 16
fctc 16
ffe@@ 16
ffed 16
filipinos 16
fine-@@ 16
flan@@ 16
flesh 16
flimsy 16
forbids 16
forebears 16
fortified 16
fortress 16
franchise 16
friend@@ 16
front-page 16
fruitless 16
furniture 16
fuss 16
gal 16
gallon 16
garments 16
geo-@@ 16
geological 16
georgians 16
ggle 16
gig@@ 16
glue 16
gold@@ 16
gradualism 16
gram@@ 16
gravitate 16
grey 16
grinding 16
guo 16
guys 16
hair@@ 16
haitian 16
half-dozen 16
hard-working 16
[...]
