的 419039
， 291233
。 245090
在 81112
和 79976
— 65582
是 64044
了 60966
、 37749
也 30307
但 29254
对 26888
美国 26234
而 26208
将 26027
（ 25983
） 25925
国家 23483
“ 22833
这 22758
” 22573
经济 20624
中 20293
年 19808
一个 19610
不 18614
都 18491
我们 18212
有 18106
并 16777
他们 16705
会 16248
中国 16223
与 16001
就 15749
可能 15132
为 14880
问题 14693
上 14497
其 14289
人 14023
更 13977
政府 13974
可以 13671
他 13292
欧洲 13130
到 13077
所 12955
这些 12840
被 12767
没有 12363
已经 11273
让 10989
政治 10880
全球 10637
· 10422
需要 10293
地 10282
从 10135
它 10078
： 10043
如果 9924
以及 9841
增长 9814
政策 9618
其他 9459
世界 9394
这一 9055
以 8998
因为 8785
新 8768
来 8725
必须 8710
还 8266
欧盟 8102
但是 7776
应该 7712
要 7536
能 7473
或 7382
社会 7269
不是 7202
这样 7192
它们 7184
因此 7156
市场 7156
？ 7108
多 7096
最 6935
通过 6840
下 6741
我 6607
支持 6587
； 6521
后 6513
� 6481
投资 6435
时 6311
发展 6310
认为 6288
于 6220
成为 5995
影响 5981
总统 5843
国际 5833
地区 5799
着 5777
这个 5732
重要 5724
包括 5711
自己 5649
提供 5647
尽管 5634
许多 5526
导致 5522
进行 5476
月 5461
所有 5417
人们 5398
危机 5380
无法 5380
就是 5345
能够 5314
开始 5307
实现 5294
计划 5248
目标 5247
银行 5225
这种 5211
现在 5204
情况 5201
比 5178
正在 5155
却 5150
英国 5093
改革 5064
增加 5023
事实上 4951
债务 4881
该 4879
俄罗斯 4842
带来 4815
大 4782
很 4777
一些 4749
. 4702
把 4624
主要 4623
日本 4610
前 4592
未来 4508
向 4482
给 4476
公司 4468
说 4461
民主 4434
德国 4391
由 4390
获得 4385
发生 4323
印度 4300
等 4288
要求 4251
方面 4243
一 4236
则 4226
结果 4217
领导人 4193
那些 4191
风险 4157
之间 4116
那么 4052
任何 4009
作为 3996
伊朗 3992
安全 3983
同时 3965
存在 3932
一种 3871
如此 3849
甚至 3797
更加 3788
金融 3781
造成 3776
以色列 3760
不会 3732
解决 3726
企业 3724
机构 3704
过去 3697
又 3676
组织 3671
长期 3661
货币 3659
持续 3647
最近 3638
特别 3637
当 3635
建立 3620
- 3618
而且 3612
们 3608
目前 3606
使 3577
工作 3556
成功 3543
高 3530
可 3511
技术 3498
并且 3460
做 3454
出现 3453
此外 3434
比如 3419
一直 3405
产生 3392
稳定 3387
如今 3381
只有 3367
国内 3367
对于 3367
面临 3357
贸易 3352
法国 3324
决定 3317
收入 3310
20 3276
个 3273
挑战 3264
像 3256
研究 3237
继续 3237
如何 3235
意味着 3229
得到 3221
世纪 3200
希望 3189
同样 3187
用 3171
战争 3145
关系 3128
仍 3115
采取 3103
者 3096
选择 3074
行动 3072
什么 3068
不能 3054
似乎 3044
实施 3034
最终 3029
威胁 3025
表明 3021
西方 3003
能力 2996
欧元区 2992
教育 2990
特朗普 2990
拥有 2977
来说 2976
还是 2962
其中 2947
GDP 2939
下降 2927
; 2923
不同 2919
严重 2918
协议 2914
原因 2911
以来 2907
利益 2882
行为 2873
选举 2856
合作 2855
巨大 2851
资本 2841
生活 2840
希腊 2810
财政 2809
方式 2802
为了 2786
使用 2783
》 2781
《 2779
或者 2771
提高 2768
奥巴马 2767
承诺 2758
历史 2748
改变 2745
是否 2745
接受 2743
亚洲 2742
之 2741
环境 2732
来自 2728
仍然 2718
已 2709
措施 2698
保护 2685
一样 2683
你 2680
美元 2678
时间 2677
受到 2673
战略 2664
机会 2645
自由 2637
从而 2636
减少 2629
1 2628
作用 2627
成本 2609
由于 2605
出 2602
得 2593
几乎 2585
制度 2578
真正 2577
随着 2577
经济体 2570
资产 2570
水平 2567
各国 2557
控制 2553
人口 2542
利率 2537
即使 2535
价格 2503
降低 2494
时候 2491
需求 2483
去 2477
叙利亚 2462
伊拉克 2455
年代 2441
虽然 2440
类似 2435
当然 2431
有效 2431
谈判 2430
那样 2415
观点 2411
还有 2410
移民 2404
能源 2398
资金 2382
冲突 2379
项目 2379
和平 2374
也许 2371
完全 2368
国 2361
提出 2359
权力 2352
过 2349
非洲 2341
再 2320
欧元 2316
确保 2315
考虑 2304
成员国 2303
变化 2299
低 2298
某些 2298
土耳其 2290
反对 2288
变得 2276
联合国 2263
非常 2262
大部分 2256
及 2255
帮助 2255
一点 2254
因素 2249
领导 2243
自身 2241
体系 2239
基础 2222
内 2217
一次 2213
超过 2208
地方 2204
才 2201
最大 2201
她 2181
越来越 2169
进一步 2167
里 2167
重新 2167
只是 2164
好 2157
力量 2156
伊斯兰 2155
程度 2150
做出 2149
援助 2146
系统 2138
不断 2137
占 2137
方案 2120
今天 2118
领域 2115
保持 2109
另 2106
最后 2106
这是 2106
支出 2099
相反 2083
联盟 2081
大量 2078
关于 2069
创造 2069
过程 2057
当前 2051
具有 2043
表现 2039
关注 2038
, 2029
管理 2024
服务 2020
民众 2019
模式 2018
限制 2016
的话 2009
知道 2005
方法 2002
达到 2001
亿美元 1986
刺激 1981
人民 1976
努力 1970
很多 1968
只 1965
监管 1959
公共 1953
利用 1953
改善 1953
出口 1952
而是 1949
不仅 1942
部门 1937
关键 1934
石油 1932
在于 1931
共同 1930
法律 1930
结束 1927
& 1919
首先 1910
资源 1906
地位 1903
美联储 1894
价值 1892
2 1887
家庭 1887
如 1886
至少 1874
就业 1873
及其 1872
传统 1870
气候变化 1866
两个 1853
维持 1844
投资者 1843
即 1842
公民 1840
整个 1837
相对 1836
全世界 1833
危险 1832
之后 1828
数据 1821
应对 1820
显然 1819
取得 1817
一场 1815
压力 1813
将会 1810
自 1800
通胀 1798
那 1798
推动 1791
大规模 1789
破坏 1786
非 1784
上述 1783
发现 1772
运动 1759
基础设施 1755
现实 1755
活动 1754
军事 1746
制定 1746
私人 1742
直接 1739
参与 1738
委员会 1737
尤其 1727
人类 1724
想 1716
正 1712
规则 1707
新兴 1705
报告 1702
事件 1699
上升 1693
令人 1691
指出 1689
3 1687
经济学家 1685
5 1684
公众 1683
2008 1681
央行 1680
贷款 1679
发展中国家 1673
形成 1673
避免 1663
试图 1661
消费 1659
乌克兰 1658
巴基斯坦 1654
平衡 1650
埃及 1649
所谓 1649
与此同时 1644
时代 1642
选民 1640
才能 1637
或许 1635
会议 1634
不再 1633
错误 1630
一项 1626
状况 1623
穆斯林 1623
创新 1621
根据 1618
健康 1614
之前 1612
阿拉伯 1610
责任 1606
依然 1604
贫困 1599
中东 1595
之一 1592
独立 1592
信息 1591
欧洲央行 1590
政权 1586
劳动力 1584
债券 1583
金融危机 1583
基本 1582
城市 1576
扩大 1575
失败 1570
文化 1570
性 1568
担心 1568
事实 1553
官员 1553
唯一 1551
繁荣 1549
机制 1547
陷入 1546
相关 1545
部分 1544
个人 1542
规模 1530
普京 1528
相信 1523
平等 1520
日 1520
进入 1519
条件 1518
后果 1514
爆发 1514
实际 1513
今年 1512
竞争 1512
认识 1509
内部 1505
解释 1505
全球化 1504
代表 1501
引发 1501
证明 1498
预算 1497
强大 1490
生产 1489
进步 1486
意大利 1483
理由 1471
每年 1465
去年 1461
明确 1455
承认 1454
重大 1453
更好 1452
税收 1451
达成 1449
较 1445
核心 1444
起来 1444
十年 1441
愿意 1439
日益 1439
理解 1437
然而 1432
缺乏 1427
削减 1426
融资 1426
难民 1425
更为 1422
预测 1422
朝鲜 1417
只能 1414
视为 1414
领袖 1412
mdash 1408
革命 1407
吗 1401
讨论 1401
复苏 1396
标准 1396
阻止 1396
IMF 1395
正如 1392
000 1390
应当 1388
一位 1387
干预 1387
根本 1380
10 1379
儿童 1378
暴力 1377
针对 1376
结构 1375
基金 1374
总理 1373
巴勒斯坦 1370
手段 1363
拒绝 1362
加入 1351
用于 1350
而言 1349
不管 1348
进程 1347
医疗 1344
经历 1344
调整 1344
受 1341
阿富汗 1338
女性 1333
允许 1331
广泛 1331
主权 1328
曾 1327
产品 1322
条约 1321
容易 1319
赤字 1319
面对 1319
宣布 1314
一切 1313
起 1312
权利 1311
财富 1311
时期 1310
反应 1305
宗教 1305
往往 1304
当时 1303
实际上 1301
巴西 1300
很大 1299
有关 1298
韩国 1298
呢 1296
准备 1294
正确 1293
媒体 1292
范围 1289
十分 1286
货币政策 1286
并非 1284
数量 1284
损失 1278
过度 1277
衰退 1276
且 1275
正是 1275
看到 1272
反映 1267
目的 1266
相当 1264
迅速 1263
反 1260
原则 1258
足够 1256
失去 1253
发达国家 1246
数字 1246
促进 1243
成员 1243
4 1242
气候 1239
通常 1239
趋势 1238
外交 1236
期间 1230
预期 1227
赢得 1224
这场 1224
大多数 1215
必要 1214
仅仅 1212
感到 1210
更大 1209
代价 1207
工人 1207
外国 1206
主义 1200
意义 1197
6 1195
好处 1195
治理 1195
积极 1191
该国 1187
保证 1185
实力 1184
是因为 1184
显示 1182
潜在 1182
基于 1178
形式 1176
联系 1174
确实 1168
紧缩 1164
军队 1163
经常 1162
崩溃 1159
布什 1159
宪法 1151
一部分 1149
大幅 1147
角色 1147
行业 1145
曾经 1144
依赖 1143
极端 1143
储蓄 1138
决策 1135
腐败 1135
近 1135
支付 1134
排放 1132
加强 1131
鼓励 1131
不可 1130
7 1129
商品 1128
完成 1128
引起 1128
开放 1127
短期 1127
网络 1126
为什么 1125
疾病 1124
主席 1122
效果 1122
科学 1121
政党 1120
因 1117
有所 1117
承担 1114
评估 1113
9 1112
西班牙 1108
处于 1107
共和党 1103
建设 1102
寻求 1101
立场 1098
决策者 1096
建议 1096
肯定 1096
约 1095
间 1095
交易 1093
有助于 1093
看 1090
令 1089
再次 1089
态度 1087
确定 1082
即便 1081
转移 1080
事情 1079
复杂 1077
影响力 1077
汇率 1072
找到 1071
毕竟 1071
多数 1069
工具 1069
2010 1068
有些 1068
简单 1068
只要 1067
苏联 1067
" 1060
框架 1060
难以 1058
几个 1057
遏制 1056
工资 1055
成立 1054
每 1053
小 1052
本身 1052
11 1050
例子 1047
任务 1045
一@@ 1041
想要 1040
理论 1039
12 1037
优势 1036
防止 1036
一致 1035
妇女 1033
之外 1030
大约 1030
伦敦 1029
退出 1028
/ 1026
墨西哥 1026
追求 1026
明显 1023
强调 1022
化 1021
袭击 1020
生产率 1019
恶化 1017
最新 1017
消费者 1017
道德 1017
除了 1017
公开 1014
恢复 1013
购买 1012
一起 1011
东西 1011
办法 1010
30 1009
其实 1007
开发 1007
大@@ 1005
商业 1004
一定 1003
使得 1003
削弱 1002
统治 1002
同意 1000
表示 1000
亿 999
当局 997
打击 993
快速 992
崛起 991
转变 990
纽约 989
可能性 988
经验 988
举行 986
动荡 985
放弃 985
钱 983
俄国 982
核武器 979
死亡 977
调查 977
强化 976
负责 976
国际货币基金组织 974
不@@ 973
困难 972
处理 971
证据 971
治疗 970
经济学 966
失业 965
民粹主义 965
坚持 963
遭到 963
逐渐 962
执行 961
不到 954
有人 952
候选人 951
灾难 951
例如 948
满足 947
信心 946
农业 944
竞争力 943
全面 939
现代 939
中心 936
人权 936
转型 935
投票 934
统一 932
失业率 931
8 929
补贴 929
2009 927
人民币 927
此 927
不过 925
常常 925
策略 925
比例 924
金融市场 923
北约 919
公平 916
思想 916
所有人 916
2015 915
做法 914
合理 913
专家 912
几年 910
外部 909
议会 908
％ 907
至 906
效率 904
集中 904
前景 902
政客 902
制造 900
大学 900
执政 900
成 898
扩张 897
解决方案 897
以上 895
速度 894
协定 893
多年 893
既 893
巴黎 892
生命 891
民族 890
现有 890
各 889
情绪 888
充分 887
群体 885
收益 882
燃料 881
几十年 878
糟糕 878
一年 877
分裂 876
峰会 876
不幸 875
发自 875
平均 875
谁 874
宽松 873
对此 871
国会 869
加剧 865
外交政策 865
现象 864
集团 864
5% 863
福利 863
吸引 862
一系列 861
意识 860
担忧 857
即将 856
规定 856
贬值 855
总是 854
了解 853
恐怖主义 852
武器 851
永远 851
精英 849
迫使 848
万 846
不但 845
争论 845
冲击 845
有着 844
并未 843
不仅仅 841
区域 840
2012 839
势力 837
分析 836
分配 836
发达 835
状态 833
天然气 831
信任 829
利润 828
最高 828
知识 826
流动性 825
支持者 824
进展 824
之中 823
2011 822
出来 822
局面 822
后者 821
本国 821
为何 820
批评 818
提升 818
0 817
怀疑 817
泡沫 816
下跌 813
应 813
年轻人 812
名 811
道路 808
清楚 807
这方面 807
各种 804
障碍 804
左右 803
至关重要 801
取决于 800
不足 799
很快 799
秩序 799
增长率 797
显著 797
胜利 797
双方 794
核 794
共识 790
负担 790
斗争 786
邻国 786
&# 785
2013 785
多少 784
世界银行 779
盟友 778
一体化 776
否则 776
需 775
官方 774
组成 774
所以 769
本 769
学生 768
效应 768
精神 768
华盛顿 767
孩子 767
制裁 766
当选 766
依靠 763
技能 763
每个 763
停止 762
呼吁 762
波兰 762
值得 761
民族主义 761
无论 760
激励 760
这项 760
预计 760
储备 759
结构性 758
设计 757
还要 756
随后 756
一份 755
重要性 754
极大 753
欧洲人 752
90 751
土地 751
哈马斯 750
信用 748
太 748
式 748
空间 748
某种 747
方向 745
2014 744
党 744
15 743
没 743
大选 742
远远 742
50 741
中@@ 741
具体 741
联邦 741
直到 739
贡献 738
总 736
真实 736
事 735
三个 733
碳 731
竞选 731
达 730
从未 729
2007 726
相比 725
身份 723
黎巴嫩 723
变革 722
一旦 721
回报 721
要么 720
最为 719
正式 718
类 718
当今 717
投入 716
在内 715
实行 715
寻找 715
两国 714
符合 714
消除 713
国民 712
这次 712
除非 712
重组 710
方针 709
自然 709
起到 709
160 705
旨在 705
称为 704
采用 702
接近 701
其它 699
无 699
萧条 699
岁 698
痛苦 697
分歧 696
批准 696
推进 696
摆脱 696
不得不 695
彻底 695
互联网 693
埃 692
看来 692
警告 692
人士 690
取代 690
被迫 690
派 689
最佳 688
遭受 688
食品 688
工业 687
沙特 687
变成 686
法 685
真的 685
良好 685
转向 685
人员 684
教训 684
体制 682
构成 680
禁止 680
质疑 680
社区 679
持有 678
伤害 677
未能 677
取消 676
地球 676
阻碍 676
仅 675
债权人 675
利比亚 675
事务 673
单一 673
比较 671
团结 669
领土 669
发表 668
增强 666
强烈 664
有限 664
水 663
最好 661
的确 661
那里 661
体现 660
停滞 660
进口 660
得以 659
指责 659
普遍 659
民主党 659
破产 659
一半 658
有利于 658
未 658
概念 658
想象 657
连 657
大国 656
学校 656
层面 656
资本主义 656
外 655
联合 654
有时 653
说法 653
年前 649
发挥 648
相当于 648
低于 647
左翼 647
然后 646
答案 646
供给 645
差异 644
当地 644
流动 644
生物 644
混乱 643
伊斯兰教 641
协调 641
家 641
据 641
另外 639
走 639
万亿美元 637
担任 637
立法 637
付出 634
盈余 634
中央银行 633
政治家 632
讲 631
告诉 629
明白 629
脆弱 629
2% 628
提振 628
通货膨胀 628
阶段 627
药物 625
重建 624
众多 623
不愿 622
以前 622
缺少 622
二氧化碳 621
一条 620
程序 620
税 620
路 620
2000 619
合法性 619
意愿 619
房地产 619
富裕 616
攻击 616
显而易见 616
反对派 615
信贷 613
可靠 613
对抗 613
阿根廷 613
放缓 612
远 612
二战 611
克林顿 610
升值 610
变暖 609
定义 607
总体 607
角度 607
边境 607
假设 606
学习 606
开支 606
背景 605
辩论 605
之@@ 604
基因 604
穷人 604
州 603
重点 603
怎样 602
产业 601
种族 601
伙伴 600
不确定性 599
致力于 599
属于 598
差距 598
倾向 597
指标 597
量化 596
忽视 595
签署 594
70 592
斯 592
这里 592
回到 588
宣称 588
金融机构 588
地缘 587
法案 587
估计 586
点 586
安排 585
) 584
内容 583
很难 583
波动 582
团体 580
快 580
管制 580
两年 579
多@@ 579
少数 579
成就 578
疫苗 577
缺陷 577
2005 575
作出 575
加速 575
工程 575
越 575
违约 575
逊尼派 575
80 574
很少 574
自我 573
贫穷 573
严格 572
全部 572
100 571
普通 571
潜力 571
走向 570
其次 569
( 568
具备 568
衡量 568
这么 568
价值观 567
多边 567
拯救 566
沙特阿拉伯 566
加沙 564
争议 563
冷战 563
妥协 563
毫无疑问 563
信号 562
替代 562
给予 562
缓慢 562
年轻 561
两 560
什叶派 560
对话 560
岗位 560
激进 560
展开 559
构建 558
背后 558
方 557
对手 554
站 554
－ 554
不要 553
充满 553
由此 552
遭遇 552
少 551
发动 550
大型 550
巴勒斯坦人 550
账户 550
感觉 549
克服 548
长 548
占据 547
发布 547
局势 547
意识形态 547
爱尔兰 547
正常 546
损害 545
时刻 545
杠杆 545
习近平 544
描述 544
特征 544
产出 543
保险 543
扮演 543
按照 543
缅甸 543
适应 543
60 542
理念 542
分子 541
说明 541
乐观 540
宏观经济 540
尝试 540
看起来 540
10% 539
新闻 539
此前 539
汽车 539
生存 539
花 539
右翼 538
究竟 538
25 537
主义者 537
德 537
人@@ 536
制造业 536
恐惧 535
访问 535
思维 534
能否 534
鉴于 534
加上 533
困境 533
掌握 532
深刻 532
党派 531
思考 531
报道 530
中产阶级 529
共产主义 529
到来 529
国外 529
捍卫 529
庞大 527
抵制 527
供应 525
年间 525
五年 524
前所未有 524
质量 524
便 523
喜欢 523
日程 523
早期 523
理想 523
第二 523
内战 522
用来 522
表达 522
2001 520
足以 520
科学家 519
主张 518
之上 518
其他人 518
启动 518
委内瑞拉 518
实体 518
巩固 518
推翻 518
传播 517
促使 517
她们 517
安倍 517
拉 517
上涨 516
入侵 516
约束 516
安 514
出于 513
愤怒 513
操纵 513
故事 513
包含 512
紧张 512
两大 510
引入 510
1% 507
a 507
集体 507
2006 506
患者 505
人数 504
农民 504
奇怪 504
巨额 504
监督 504
著名 504
抑制 503
欧盟委员会 503
化石 502
指数 502
回归 501
尽管如此 501
研发 501
南非 500
默克尔 500
动力 499
成果 499
条款 498
油价 498
经济危机 498
不满 497
任期 497
借贷 497
主导 496
目前为止 496
第一个 495
大陆 494
率 494
采取行动 493
两种 492
推行 491
税率 491
阿萨德 491
于是 490
受益 490
测试 490
财政政策 490
公投 489
武装 488
合法 487
温和 487
of 486
不可避免 486
农村 486
尊重 486
不平等性 484
小@@ 484
整体 484
一名 483
与其 483
基地 483
死 482
香港 482
全国 481
无疑 481
森林 481
计算 481
高达 481
… 479
大大 479
负债表 479
矛盾 478
抗议 477
犹太人 477
资格 477
高度 477
举措 476
涉及 476
参加 475
3% 474
区 474
特殊 474
形势 473
澳大利亚 473
第一次 473
诸多 473
型 472
维护 472
人物 471
荷兰 471
一般 470
位于 470
公正 470
早已 470
却是 469
现代化 469
刚刚 468
绿色 468
跨 468
过于 468
释放 468
s 467
医生 467
声称 467
无@@ 467
自由化 467
行长 467
手中 466
身上 466
占领 465
边界 465
克 463
之所以 462
受害者 462
尔多 462
一家 461
吸引力 461
尚未 461
看法 461
以此 460
想法 460
首次 460
卫生 459
尔 459
适用 459
同 458
第三 458
观察 458
不够 457
以后 457
培训 457
比率 457
流入 457
独裁 457
结论 457
记录 457
美国政府 456
义务 454
渴望 454
减税 453
跟 453
中国政府 452
可行 452
期 452
超越 452
产量 451
发行 451
官僚 451
股市 451
命运 450
回应 450
S@@ 449
记者 449
难 449
2016 448
500 446
员工 446
幸运 446
言论 446
净 445
40 444
升级 444
来源 444
负债 444
消失 443
货币联盟 443
量 442
之下 441
承受 441
理性 440
周期 439
大西洋 439
帝国 439
打破 439
2004 438
通缩 438
道 438
权 437
镇压 437
21 436
上@@ 436
此次 436
公约 435
有利 435
来看 435
极为 435
模型 435
消灭 435
相互 435
零 435
拉丁美洲 434
活力 434
激烈 434
紧密 433
股票 433
艾滋病 433
以下 431
任命 431
强劲 431
期望 431
持 430
最初 430
议程 430
流 429
一步 428
某种程度 428
组合 428
20% 427
另一方面 427
孤立 427
明智 427
本人 427
欢迎 427
北京 426
处 426
应用 426
疲软 426
费用 426
倍 425
毫无 425
力 424
意见 424
摧毁 424
突然 424
诚然 424
驱动 424
伟大 423
离开 421
一下 420
有@@ 420
第一 420
透明 420
平台 419
说服 419
人群 418
司法 418
恐怖分子 418
只会 416
召开 416
宣传 416
粮食 416
放在 415
气体 415
决心 414
平民 414
排除 413
牺牲 413
以往 412
协助 411
法治 411
现金 411
终于 410
绝对 409
东盟 408
惩罚 408
带 406
艰难 406
获益 406
阿@@ 406
个体 405
各方 405
各自 405
塔利班 405
度 405
数百万 405
第二个 405
负 405
标志 404
保障 403
整合 403
注意力 403
谴责 403
金融体系 403
4% 402
迹象 402
7% 401
均 401
绝不 400
语言 400
预防 400
2003 399
为此 399
现状 399
必然 398
富有 397
瑞典 397
纳税人 397
美 397
部长 397
非法 397
升高 396
相同 396
论坛 396
逻辑 396
男性 395
短缺 395
退休 395
顾问 395
麻烦 395
不足以 394
二十世纪 394
信誉 394
名义 394
敌人 394
格鲁吉亚 394
还会 394
高于 394
加拿大 393
失衡 393
灾难性 393
一国 392
享受 392
以便 392
参与者 392
忽略 392
恐慌 392
称 392
违反 392
两@@ 391
中期 391
主流 391
保留 391
全球性 391
演讲 391
特 391
绝大多数 391
脱离 391
观念 391
高效 391
廉价 390
特定 390
选票 390
三@@ 389
监管者 389
股东 389
出售 388
支撑 388
日渐 388
首相 388
旧 387
靠 387
额外 387
马@@ 387
s@@ 386
海外 386
经过 386
B@@ 385
任 385
拉@@ 385
比方说 385
纳入 385
保护主义 384
阵营 384
下去 383
不少 383
减轻 383
子 383
扭曲 383
温室 383
and 382
万人 382
伴随 382
渠道 382
条 381
相似 381
运作 381
遵守 381
200 380
劳动 380
指控 380
缓解 380
谨慎 380
面前 380
D@@ 379
哪些 379
实验 379
对待 379
拉美 379
一套 378
可怕 378
换句话说 378
犯罪 378
住 377
性质 377
朋友 377
科技 377
自由主义 377
部队 377
50% 376
人均 376
动物 375
地@@ 375
注意 375
资助 375
L@@ 374
常规 374
极 374
获胜 374
45 373
或是 373
月份 373
某个 373
’ 372
国债 372
居民 372
市场经济 372
强 372
根源 372
逐步 372
无力 371
法庭 371
称之为 371
19 370
两者 370
动机 370
回答 370
情形 370
重塑 370
预算赤字 370
也门 369
困扰 369
要素 369
1990 368
P@@ 368
o 368
住房 368
判断 368
导弹 368
认定 368
• 367
丧失 367
多么 367
当中 367
疟疾 367
终结 367
近期 367
M@@ 366
尼日利亚 366
工业化 366
例外 365
奥 364
形象 364
人道主义 363
克里姆林宫 363
优先 362
减速 362
本质 362
法院 362
职位 362
位 361
做好 361
全新 361
其@@ 361
服务业 361
自@@ 361
规划 361
做到 360
前任 360
打 360
明年 360
设备 360
高@@ 360
一天 359
区别 359
古巴 359
每天 359
那种 359
台湾 358
工会 358
发起 357
软 357
学者 356
抵消 356
第 356
至今 356
性别 355
这位 355
C@@ 354
¾ 354
声明 354
新加坡 354
智利 354
经营 354
8% 353
客户 353
巴沙尔 353
哥伦比亚 352
放松 352
种 352
脱欧 352
G 351
世界各地 351
多样性 351
海洋 351
紧迫 351
过渡 351
不用说 350
F@@ 349
反过来 349
武力 349
TPP 348
前提 348
原本 348
指导 348
授权 348
6% 347
二十年 347
像是 347
功能 347
病毒 347
印尼 346
拿出 346
立刻 346
不必 345
中东地区 345
再生能源 345
恐怖 345
t@@ 344
害怕 344
正义 344
比重 344
N@@ 343
下滑 343
专注 343
业务 343
动作 343
不利 342
准确 342
双边 342
否认 342
富人 342
显得 342
互相 341
完美 341
强硬 341
积累 341
b@@ 340
可@@ 340
合作伙伴 340
坚定 340
对@@ 340
越南 340
R@@ 339
低估 339
泰国 339
留下 339
致命 339
听 338
此后 338
兑现 337
只不过 337
后来 337
太平洋 337
接触 337
那个 337
争取 336
伙伴关系 336
所在 336
饱受 336
电力 335
落后 335
融合 335
过剩 335
阶层 335
H@@ 334
产能 334
决议 334
急需 334
污染 334
距离 334
途径 334
从事 333
偿还 333
有力 333
中有 332
一段时间 331
加以 331
反而 331
契约 331
布鲁塞尔 331
觉得 331
初 330
深度 330
贸易协定 330
er 329
三年 329
存款 329
干涉 329
引导 329
三分之一 328
人才 328
以@@ 328
凯恩斯 328
头 328
比@@ 328
约翰 328
财政部长 328
便是 327
军方 327
提议 327
昂贵 327
更是 327
约旦 327
2@@ 326
30% 326
包容 326
小时 326
开展 326
感 326
沦为 326
注入 326
自由贸易 326
解体 326
赋予 326
p@@ 325
失望 325
审判 325
对外 325
最低 325
生产力 325
设立 325
T@@ 324
中间 324
以外 324
内塔尼亚胡 324
外围 324
除 324
事业 323
助长 323
战后 323
接着 323
领导层 323
on 322
东亚 322
制定者 322
恰恰 322
18 321
世俗 321
副 321
复兴 321
担保 321
改进 321
示威 321
突尼斯 321
警察 321
跨国 321
不太可能 320
心理 320
成熟 320
持久 320
早 320
统计 320
运行 320
一方面 319
作 319
大多 319
两次 318
浪费 318
清洁 318
病人 318
群众 318
m@@ 317
企业家 317
审查 317
尼 317
极端主义 317
流行 317
灵活 317
看上去 317
运用 317
进 317
卡@@ 316
团队 316
总量 316
获取 316
补偿 316
评论 316
转化 316
长期以来 316
关税 315
剑桥 315
包容性 315
根本性 315
讽刺 315
信仰 314
僵局 314
共享 314
南部 314
悲剧 314
按 314
运转 314
部署 314
黄金 314
40% 313
加 313
垄断 313
所说 313
破坏性 313
结合 313
而@@ 313
出@@ 312
深远 312
简言之 312
经合组织 312
葡萄牙 312
分别 311
恐怖袭击 311
边缘 311
何种 310
保守 310
兴趣 310
分享 310
年来 310
抛弃 310
本地 310
机器 309
犹太 309
纷纷 309
！ 309
al 308
从来 308
低收入 308
发出 308
文明 308
法官 308
突破 308
考验 308
c@@ 307
外汇储备 307
提到 307
肯尼亚 307
诊断 307
2002 306
2030 306
份额 306
匈牙利 306
更具 306
职业 306
财政赤字 306
全 305
出台 305
抓住 305
抵押 305
新@@ 305
毫不 305
清晰 305
经济衰退 305
K@@ 304
专制 304
和解 304
唐纳德 304
安@@ 304
暂时 304
金 304
A@@ 303
冒险 303
利 303
暴露 303
线 303
融入 303
逆转 303
严峻 302
倒 302
办公室 302
可持续性 302
多个 302
好消息 302
癌症 302
药品 302
马 302
加大 301
心@@ 301
看似 301
真相 301
G@@ 300
万@@ 300
严厉 300
合适 300
将军 300
强制 300
操作 300
某 300
煤炭 300
苏格兰 300
今后 299
位置 299
修改 299
延长 299
怎么 299
菲律宾 299
高昂 299
东欧 298
动员 298
商品价格 298
声音 298
席位 298
消息 298
留在 298
统治者 298
不久前 297
以至于 297
公共部门 297
年度 297
此类 297
金砖 297
an 296
乔治 296
忧虑 296
斯@@ 296
权威 296
自然资源 296
高级 296
下@@ 295
俄 295
卡 295
强势 295
总需求 295
战斗 295
排放量 295
文章 295
百分点 295
d@@ 294
公布 294
天 294
流向 294
罪行 294
17 293
~ 293
感染 293
银行家 293
错 293
2020 292
军事行动 292
大宗 292
推迟 292
无论是 292
评级 292
长时间 292
予以 291
反@@ 291
大屠杀 291
推出 291
首席 291
兄弟 290
剥夺 290
各个 290
哪个 290
扩散 290
柏林 290
游说 290
苏丹 290
讲话 290
14 289
i 289
印象 289
哪里 289
在政治上 289
太阳能 289
自从 289
the 288
丰富 288
制约 288
受欢迎 288
基金会 288
愿景 288
给出 288
问 288
得不到 287
花费 287
他人 286
宏观 286
机遇 286
次 286
纠正 286
医院 285
巴@@ 285
核计划 285
步骤 285
现任 285
论 285
设施 285
证券 285
这笔 285
利息 284
处在 284
当年 284
报纸 284
主宰 283
前进 283
自动 283
解决问题 283
青年 283
合同 282
小组 282
恰当 282
梦想 282
监控 282
纳 282
中央 281
依赖于 281
关闭 281
养老金 281
披露 281
救助 281
焦点 281
相应 281
科索沃 281
议员 281
举动 280
国@@ 280
真主党 280
充足 279
情景 279
找 279
来讲 279
案例 279
研究所 279
销售 279
上个月 278
压制 278
大众 278
教授 278
期待 278
若 278
覆盖 278
专业 277
可谓 277
四个 277
急剧 277
残酷 277
绝非 277
雇主 277
介入 276
会@@ 276
循环 276
批评者 276
水@@ 276
认可 276
业 275
为例 275
立即 275
衰落 275
透明度 275
25% 274
圣战 274
掉 274
确认 274
等待 274
紧急 274
吸收 273
响应 273
扭转 273
监狱 273
系统性 273
走上 273
13 272
一件 272
倒闭 272
北部 272
掌权 272
施加 272
榜样 272
母亲 272
煽动 272
独裁者 272
瑞士 272
非@@ 272
e 271
下来 271
中共 271
注定 271
生产总值 271
穆巴拉克 271
西@@ 271
训练 271
传染病 270
决定性 270
市 270
数十年 270
美国国会 270
西 270
随之 270
60% 269
严肃 269
国务卿 269
将来 269
看作 269
试验 269
1980 268
300 268
G20 268
低利率 268
单位 268
卡梅伦 268
外@@ 268
女孩 268
安理会 268
导向 268
履行 268
德@@ 268
智慧 268
签订 268
认真 268
选项 268
金融部门 268
两位 267
亚 267
估算 267
对象 267
欧洲议会 267
可信 266
士兵 266
定价 266
展示 266
强国 266
提醒 266
W@@ 265
f@@ 265
基本上 265
家族 265
就业机会 265
弱点 265
l@@ 264
不论 264
布莱尔 264
类型 264
莫斯科 264
蔓延 264
表面 264
18@@ 263
信念 263
典型 263
反对者 263
口号 263
库尔德人 263
房价 263
时@@ 263
毒品 263
罗 263
而已 263
难题 263
for 262
国有企业 262
外界 262
快速增长 262
手 262
盟国 262
街头 262
16 261
加快 261
物种 261
联合国安理会 261
首要 261
一代 260
天@@ 260
巴 260
政变 260
饥饿 260
减排 259
打@@ 259
抗生素 259
无论如何 259
歧视 259
超出 259
陷阱 259
g@@ 258
亲 258
开启 258
愿望 258
机器人 258
马上 258
一大 257
从中 257
修正 257
关心 257
四年 257
大概 257
学 257
工厂 257
朝 257
深入 257
物质 257
用户 257
退欧 257
野心 257
阿巴斯 257
nbsp 256
使命 256
哥本哈根 256
如@@ 256
生 256
白宫 256
证实 256
E@@ 255
é 255
军 255
加@@ 255
大胆 255
防御 255
侵犯 254
发 254
国防 254
在线 254
已有 254
深化 254
游戏 254
非政府 254
仇恨 253
千年 253
容忍 253
热情 253
这@@ 253
那时 253
防务 253
1997 252
h@@ 252
促成 252
保守派 252
偏好 252
偿付 252
号 252
好像 252
实践 252
细胞 252
这会 252
体 251
写 251
新政府 251
石油价格 251
经 251
薪酬 251
马来西亚 251
万美元 250
丹麦 250
低迷 250
共产党 250
南 250
反弹 250
反恐 250
德国人 250
成@@ 250
敦促 250
早就 250
漫长 250
老 250
萨达姆 250
行 250
规范 250
设定 250
克@@ 249
填补 249
多样化 249
工党 249
推广 249
稳定性 249
绝望 249
起诉 249
重@@ 249
一边 248
先进 248
姆 248
时机 248
末 248
秘密 248
霸权 248
马克 248
废除 247
换取 247
极其 247
过@@ 247
遇到 247
重视 247
不了 246
分 246
制 246
国王 246
对立 246
屠杀 246
惊人 246
拜 246
掩盖 246
沮丧 246
角度看 246
80% 245
催生 245
按揭 245
挽救 245
敏感 245
最有 245
电影 245
进而 245
限度 245
互动 244
低下 244
地带 244
夫 244
阻挠 244
1989 243
i@@ 243
一再 243
之际 243
暴跌 243
组成部分 243
缩小 243
道理 243
1999 242
n@@ 242
乃至 242
回 242
审慎 242
就要 242
幅度 242
情报 242
意外 242
成长 242
补充 242
9% 241
四@@ 241
坏 241
完善 241
年龄 241
律师 241
滥用 241
社交 241
缓和 241
龙 241
不久 240
为@@ 240
同事 240
四分之一 240
幸福 240
病 240
穷国 240
记忆 240
均衡 239
战胜 239
源 239
盈利 239
话 239
领导力 239
丑闻 238
塞浦路斯 238
物价 238
理应 238
看待 238
罗@@ 238
裁决 238
让步 238
跨境 238
适合 238
上限 237
交换 237
企图 237
共和国 237
内@@ 237
分@@ 237
发@@ 237
否决 237
纳粹 237
缺口 237
莫迪 237
财务 237
迄今为止 237
区分 236
发明 236
完整 236
尽可能 236
数 236
近年来 236
两倍 235
中等 235
临时 235
劳动者 235
十@@ 235
参议员 235
和@@ 235
总额 235
斯大林 235
法@@ 235
相 235
突出 235
落实 235
解决办法 235
鲁 235
70% 234
es 234
y@@ 234
伊@@ 234
依旧 234
借口 234
兄弟会 234
博拉 234
卡扎菲 234
居住 234
议题 234
任何人 233
前@@ 233
塞尔维亚 233
妨碍 233
希拉里 233
提名 233
新兴国家 233
材料 233
气 233
第三个 233
纠纷 233
自愿 233
营养 233
领导者 233
专利 232
分散 232
年底 232
庇护 232
建筑 232
总统大选 232
有望 232
法国人 232
电脑 232
in 231
入 231
公@@ 231
多元化 231
建造 231
授予 231
提案 231
支持率 231
理事会 231
非常规 231
人为 230
孟加拉国 230
排名 230
源自 230
电视 230
网站 230
美军 230
至于 230
en@@ 229
三十年 229
保罗 229
利@@ 229
当@@ 229
投资银行 229
撤军 229
本月 229
活跃 229
社会保障 229
穆尔西 229
行政 229
预见 229
2017 228
一篇 228
工作岗位 228
拖累 228
水资源 228
膨胀 228
食物 228
交通 227
伊 227
反抗 227
罗马 227
英格兰银行 227
长@@ 227
首都 227
借助 226
内阁 226
医学 226
危害 226
参议院 226
彼此 226
有用 226
法塔赫 226
流离失所 226
社会主义 226
罪 226
连任 226
e@@ 225
不如 225
开 225
特@@ 225
看看 225
英国人 225
飙升 225
否定 224
固定 224
大家 224
投机 224
自由市场 224
艰巨 224
课程 224
里根 224
争夺 223
发放 223
开@@ 223
引擎 223
意图 223
查韦斯 223
狂热 223
秘书长 223
适当 223
阵线 223
项 223
凯恩斯主义 222
前者 222
姿态 222
抵抗 222
日@@ 222
暗示 222
演变 222
绝大部分 222
解放 222
超级 222
间接 222
页岩 222
果断 221
海@@ 221
级 221
ing 220
一道 220
作物 220
依据 220
因而 220
地震 220
祖国 220
索马里 220
负面 220
金钱 220
频繁 220
in@@ 219
三分之二 219
制药 219
大脑 219
部 219
国际法 218
地中海 218
地说 218
征税 218
感受 218
慷慨 218
森 218
深层次 218
私有化 218
习惯 217
基督教 217
婴儿 217
小国 217
近几年来 217
ar@@ 216
事故 216
取得成功 216
局 216
狭隘 216
界 216
阿拉伯人 216
1@@ 215
东京 215
以南 215
同@@ 215
壁垒 215
好@@ 215
忘记 215
朗德 215
沉重 215
特点 215
自由民主 215
迈向 215
这类 215
de 214
争端 214
但@@ 214
内贾德 214
动用 214
宣言 214
延续 214
悲观 214
所赐 214
手@@ 214
生态系统 214
颠覆 214
y 213
全民 213
出生 213
到底 213
务实 213
听到 213
更高 213
省 213
诱惑 213
难度 213
几周 212
密切 212
拿 212
指 212
收益率 212
收缩 212
核能 212
灵活性 212
er@@ 211
主题 211
书 211
交流 211
亿人 211
从前 211
先 211
堪称 211
时任 211
有害 211
未必 211
机 211
知识产权 211
老@@ 211
能量 211
面 211
1998 210
免费 210
公共卫生 210
剧烈 210
培养 210
当务之急 210
得出 210
挪威 210
沟通 210
眼下 210
萨尔 210
观察家 210
诞生 210
90% 209
O@@ 209
先例 209
动摇 209
大会 209
弥补 209
日子 209
检查 209
米 209
英镑 209
车 209
400 208
分离 208
切实 208
哈尼 208
外国人 208
尊严 208
巨头 208
心 208
托 208
收集 208
新一轮 208
日元 208
联邦政府 208
股权 208
迎来 208
这份 208
15% 207
世贸组织 207
之春 207
多种 207
巴拉克 207
希特勒 207
强有力 207
案件 207
独特 207
穆沙拉夫 207
细节 207
论文 207
轻易 207
队 207
史 206
哪怕 206
寿命 206
抨击 206
抵御 206
海啸 206
激发 206
西欧 206
通胀率 206
马德里 206
三大 205
出资 205
受@@ 205
得@@ 205
正常化 205
永久 205
董事会 205
雇员 205
也就是说 204
前往 204
后@@ 204
吧 204
哪 204
围绕 204
额 204
上台 203
专门 203
作者 203
充斥 203
创建 203
奥地利 203
征收 203
抱怨 203
普及 203
独立性 203
继任者 203
耶路撒冷 203
en 202
t 202
下台 202
人均收入 202
偏见 202
北朝鲜 202
奥@@ 202
定居点 202
平均水平 202
当今世界 202
父亲 202
认同 202
诸如 202
走出 202
风暴 202
借款人 201
北方 201
场 201
尚 201
语 201
贷款人 201
驻 201
2050 200
动态 200
员 200
平价 200
年初 200
弱势 200
惊讶 200
战 200
抱 200
探讨 200
竞争对手 200
等等 200
聪明 200
谈论 200
路径 200
身体 200
高质量 200
些 199
享有 199
供应链 199
劳工 199
单方面 199
尼@@ 199
有权 199
民调 199
移动 199
美@@ 199
著作 199
识别 199
鼓吹 199
件 198
全@@ 198
半@@ 198
左派 198
恰恰相反 198
截然不同 198
收到 198
最大化 198
父母 198
第一步 198
第二次 198
重振 198
1979 197
信 197
剩下 197
华尔街 197
坚决 197
始于 197
平心而论 197
强迫 197
所@@ 197
新德里 197
树立 197
软件 197
高企 197
u@@ 196
反复 196
多元 196
对付 196
有趣 196
浪潮 196
瘫痪 196
言论自由 196
谷歌 196
会谈 195
无视 195
来到 195
消极 195
犯下 195
申请 195
萨@@ 195
议定书 195
身为 195
转而 195
追随者 195
银行业 195
阶级 195
35 194
卡塔尔 194
对比 194
德国总理 194
有点 194
根深蒂固 194
梅 194
漏洞 194
疗法 194
破裂 194
连续 194
通往 194
飞机 194
一方 193
五@@ 193
击败 193
南欧 193
南海 193
原教旨主义 193
名字 193
实质 193
富国 193
尔@@ 193
岛 193
年增长率 193
极度 193
棘手 193
模糊 193
焦虑 193
特权 193
随 193
150 192
东部 192
二十一 192
你们 192
制衡 192
发射 192
布@@ 192
接下来 192
撒哈拉 192
药 192
言 192
诉讼 192
1991 191
J@@ 191
一支 191
不想 191
众议院 191
便利 191
免受 191
安倍晋三 191
幻想 191
待 191
扩展 191
文件 191
早些时候 191
是从 191
纯粹 191
见 191
邀请 191
配置 191
古@@ 190
干扰 190
教师 190
正@@ 190
毁灭 190
眼中 190
罗姆尼 190
起义 190
足球 190
退休金 190
魅力 190
24 189
不利于 189
伦理 189
修订 189
写道 189
减弱 189
几@@ 189
学会 189
定 189
年@@ 189
攀升 189
效仿 189
流@@ 189
相比之下 189
过时 189
一代人 188
商业银行 188
商界 188
学术 188
收紧 188
萎缩 188
进化 188
遥远 188
门 188
A 187
o@@ 187
上海 187
东南亚 187
为首 187
五个 187
仔细 187
受过 187
对策 187
必要性 187
物 187
综合 187
自信 187
话题 187
首脑 187
高管 187
ed 186
k@@ 186
何时 186
出版 186
历史性 186
塔 186
建设性 186
收购 186
普@@ 186
波@@ 186
两党 185
中央政府 185
之势 185
人会 185
俱乐部 185
储蓄率 185
反思 185
扼杀 185
摩洛哥 185
政坛 185
法规 185
电子 185
计算机 185
遵循 185
The 184
a@@ 184
一片 184
从根本上 184
叛乱 184
库尔德 184
据说 184
有益 184
杀害 184
核不扩散 184
毛泽东 184
游行 184
生@@ 184
硬 184
缺失 184
设置 184
赞成 184
金融业 184
问责 184
1970 183
ad@@ 183
买 183
亚@@ 183
保守党 183
全民公决 183
共和党人 183
减免 183
出口国 183
加深 183
无数 183
本来 183
极有 183
罗伯特 183
解读 183
采购 183
领先 183
风@@ 183
飓风 183
什么样 182
哈@@ 182
外交官 182
差别 182
愚蠢 182
排斥 182
更多地 182
烟草 182
详细 182
阿尔及利亚 182
27 181
V@@ 181
v@@ 181
充当 181
变@@ 181
古老 181
周边 181
地理 181
城市化 181
夏天 181
如同 181
折磨 181
撒切尔 181
改造 181
格 181
用@@ 181
萎靡 181
行事 181
选战 181
高速 181
京都 180
再度 180
勇气 180
商人 180
就算 180
崩盘 180
布什总统 180
引用 180
救援 180
票 180
超级大国 180
非正式 180
预言 180
传递 179
修复 179
协会 179
埃塞俄比亚 179
尼克松 179
常态 179
待遇 179
指望 179
暴行 179
波斯尼亚 179
海军 179
白人 179
社会福利 179
自由派 179
DNA 178
an@@ 178
不顾 178
伯克利 178
倡议 178
大幅度 178
敌意 178
曼 178
潮 178
种植 178
组建 178
部落 178
一段 177
哈梅内伊 177
差 177
建国 177
所有权 177
揭示 177
涌入 177
目光 177
达成协议 177
远离 177
迪 177
限于 177
震惊 177
颇 177
3@@ 176
I@@ 176
作@@ 176
兴起 176
器 176
宣扬 176
所作所为 176
支柱 176
无人机 176
竭尽全力 176
考察 176
1995 175
创业 175
判决 175
发电 175
强@@ 175
文 175
未@@ 175
案 175
死刑 175
熟悉 175
职责 175
词 175
赢家 175
转@@ 175
迈出 175
逮捕 175
颇为 175
22 174
不应 174
令人震惊 174
借款 174
别人 174
压迫 174
各地 174
好事 174
委员 174
小布什 174
想起 174
掌控 174
控制权 174
本@@ 174
来@@ 174
欧洲各国 174
死亡率 174
清算 174
离 174
缩减 174
变 173
境内 173
失灵 173
实质性 173
尽 173
强力 173
归咎于 173
提前 173
无能 173
明证 173
激增 173
症状 173
知识分子 173
艺术 173
重申 173
附近 173
随之而来 173
600 172
久 172
产物 172
从@@ 172
份子 172
储量 172
周期性 172
国际贸易 172
奥运会 172
干旱 172
根本无法 172
版 172
贸易赤字 172
逃离 172
邓小平 172
金正恩 172
一部 171
吃 171
各大 171
最具 171
杀 171
每@@ 171
象征 171
财产 171
at@@ 170
倒台 170
力度 170
基@@ 170
并非如此 170
必将 170
持续增长 170
教皇 170
福祉 170
等国 170
紧张局势 170
置于 170
驱逐 170
一座 169
侵蚀 169
充分就业 169
千@@ 169
卢旺达 169
名@@ 169
含义 169
国有 169
太过 169
新型 169
新增 169
极端分子 169
研究者 169
运输 169
采取措施 169
亦然 168
名单 168
很长 168
房屋 168
比如说 168
没能 168
爆炸 168
生效 168
认知 168
购买力 168
辩护 168
铁路 168
高出 168
Facebook 167
不可或缺 167
低成本 167
关联 167
军事力量 167
到达 167
同盟 167
布雷顿 167
必需 167
打造 167
最@@ 167
林 167
路线 167
1992 166
el 166
伯南克 166
便宜 166
免疫 166
关键问题 166
半 166
印度人 166
多大 166
对方 166
小型 166
常见 166
激起 166
科 166
营养不良 166
较为 166
达@@ 166
雄心勃勃 166
r@@ 165
令人担忧 165
反对党 165
天气 165
期限 165
架构 165
相@@ 165
罗斯福 165
触发 165
边缘化 165
迫切需要 165
遗产 165
邪恶 165
k 164
不变 164
之内 164
买入 164
事物 164
人力资本 164
优秀 164
全体 164
回合 164
开采 164
生态 164
私营部门 164
阿 164
高风险 164
齐 164
1945 163
amp 163
to 163
产权 163
修建 163
兼 163
决不能 163
出人意料 163
商 163
基本面 163
成分 163
杀戮 163
温度 163
炸弹 163
结核病 163
继承 163
裔 163
解除 163
连接 163
迫害 163
一词 162
前途 162
厌恶 162
子女 162
座 162
当作 162
打算 162
有史以来 162
费 162
跨国公司 162
选出 162
重 162
重启 162
零售 162
W 161
n 161
冒 161
北欧 161
双边关系 161
同情 161
增税 161
头@@ 161
对冲 161
很小 161
更新 161
犯 161
罕见 161
老龄化 161
股价 161
脆弱性 161
苦难 161
采纳 161
公债 160
别无选择 160
周围 160
局限于 160
报复 160
泛 160
消耗 160
税收收入 160
贫困人口 160
ar 159
停滞不前 159
几天 159
分化 159
创立 159
增长速度 159
大力 159
太@@ 159
定期 159
山@@ 159
必不可少 159
指引 159
挣扎 159
极右翼 159
格林斯潘 159
电视台 159
示威者 159
管理者 159
虐待 159
行使 159
风格 159
1994 158
re@@ 158
加州 158
势头 158
南@@ 158
历史学家 158
学院 158
态势 158
效益 158
模仿 158
比尔 158
比赛 158
民主化 158
民间 158
气@@ 158
玻利维亚 158
第四 158
精确 158
辞职 158
遗传 158
雷曼 158
or@@ 157
一面 157
东 157
二@@ 157
在此期间 157
宪章 157
当代 157
忠诚 157
成绩 157
打开 157
提交 157
相结合 157
自动化 157
计价 157
长远 157
el@@ 156
一路 156
三倍 156
分布 156
埃@@ 156
奇迹 156
宝贵 156
干 156
广告 156
总体而言 156
成千上万 156
挂钩 156
提及 156
日内瓦 156
河 156
测量 156
瓦@@ 156
皮@@ 156
短暂 156
种种 156
累积 156
请 156
起@@ 156
难道 156
雇用 156
1000 155
一句 155
在短期内 155
女 155
并不一定 155
应付 155
影子 155
所得税 155
探索 155
柬埔寨 155
皮 155
种子 155
英国首相 155
萨科齐 155
邦 155
Paul 154
不仅如此 154
不错 154
东@@ 154
令人信服 154
会晤 154
住宅 154
儿子 154
入@@ 154
凸显 154
化@@ 154
医疗保险 154
实在 154
开来 154
当下 154
性@@ 154
族裔 154
无辜 154
既然 154
更强 154
本土 154
治下 154
爱 154
瓦 154
盖茨 154
维@@ 154
耐药性 154
莫过于 154
边际 154
近乎 154
通信 154
除此之外 154
+ 153
万亿 153
优惠 153
出色 153
卷入 153
希腊政府 153
形容 153
最高法院 153
正好 153
着手 153
管道 153
里斯本 153
顽固 153
z@@ 152
一批 152
不负责任 152
传染 152
友好 152
品 152
实验室 152
工作者 152
布 152
手机 152
投 152
明@@ 152
权衡 152
生产商 152
被@@ 152
诺贝尔奖 152
货币贬值 152
高等教育 152
d 151
令人瞩目 151
八@@ 151
卡尔 151
后续 151
大于 151
大肆 151
季度 151
工程师 151
接种 151
推高 151
更糟 151
有意 151
永久性 151
秘鲁 151
网 151
行列 151
连@@ 151
配额 151
里@@ 151
S 150
一倍 150
不太 150
代替 150
体验 150
值 150
克里米亚 150
叛军 150
复杂性 150
宏大 150
报 150
放大 150
普林斯顿 150
正面 150
此举 150
死@@ 150
民意调查 150
甚 150
登 150
破灭 150
空@@ 150
竞争性 150
经济繁荣 150
芬兰 150
莫@@ 150
财政部 150
轻松 150
重复 150
隔离 150
al@@ 149
li@@ 149
​ 149
事态 149
供 149
公私 149
六@@ 149
及时 149
变为 149
合 149
塔@@ 149
失@@ 149
失误 149
如果说 149
引人注目 149
弗里德曼 149
恩 149
意味 149
无关 149
油 149
源于 149
着眼于 149
纳@@ 149
自杀 149
血@@ 149
高层 149
低@@ 148
低效 148
冻结 148
北非 148
哲学 148
城 148
归根结底 148
情感 148
慈善 148
指向 148
普 148
满意 148
穆罕默德 148
金@@ 148
23 147
CEO 147
D 147
SDR 147
侵略 147
出手 147
因@@ 147
地下 147
拖延 147
收回 147
施压 147
牌 147
真 147
绑架 147
贝卢斯科尼 147
ag@@ 146
w@@ 146
不安 146
中小企业 146
临近 146
价 146
元素 146
免于 146
凝聚力 146
前沿 146
南亚 146
压倒性 146
双重 146
各州 146
呼声 146
大使 146
总结 146
恐怕 146
来源于 146
注重 146
海平面 146
短 146
种族灭绝 146
评价 146
运营 146
世 145
中国人民银行 145
举办 145
人选 145
保险公司 145
债务人 145
兰 145
军@@ 145
多哈 145
异常 145
斯里兰卡 145
更长 145
没什么 145
浓缩 145
电网 145
私有 145
结盟 145
西藏 145
记住 145
设想 145
越@@ 145
转换 145
野蛮 145
# 144
一小部分 144
众所周知 144
先@@ 144
减缓 144
副作用 144
单@@ 144
同一 144
基 144
声 144
大气 144
子孙后代 144
局限 144
杂志 144
概率 144
步伐 144
火 144
算 144
股票市场 144
行@@ 144
谎言 144
过分 144
随时 144
28 143
中学 143
博弈 143
双@@ 143
口@@ 143
少数派 143
弹性 143
成百上千 143
日常 143
更@@ 143
疯狂 143
端 143
英雄 143
范畴 143
该党 143
达沃斯 143
预示 143
C 142
is 142
主@@ 142
主导地位 142
二 142
亲@@ 142
作战 142
分担 142
名为 142
塑造 142
恐怖组织 142
手里 142
旅行 142
星期 142
最多 142
根除 142
比利时 142
气温 142
联合政府 142
衍生品 142
长达 142
it@@ 141
一张 141
九十年代 141
公共政策 141
关键性 141
国防部长 141
布朗 141
庆祝 141
有序 141
清洗 141
百@@ 141
轰炸 141
迫切 141
阴影 141
as@@ 140
不用 140
地图 140
奏效 140
家@@ 140
家园 140
市长 140
帝国主义 140
恶劣 140
房子 140
支配 140
是不是 140
燃烧 140
等于 140
罗马尼亚 140
身处 140
降到 140
高科技 140
一群 139
之争 139
今日 139
借钱 139
制止 139
勒庞 139
北美 139
受损 139
在经济上 139
多次 139
工业革命 139
席卷 139
无效 139
格@@ 139
欺骗 139
此时 139
活 139
海湾 139
现行 139
胜出 139
草案 139
风能 139
800 138
不乏 138
价格上涨 138
克鲁格曼 138
公路 138
切断 138
医疗保健 138
南方 138
可是 138
土壤 138
基石 138
学@@ 138
总部 138
提 138
提@@ 138
杀死 138
港口 138
猜测 138
由@@ 138
禁令 138
科@@ 138
论点 138
误解 138
金融服务 138
丧生 137
入盟 137
十九世纪 137
半个世纪 137
单独 137
塑料 137
增进 137
应有 137
意 137
撤出 137
无知 137
港 137
满 137
舆论 137
落 137
观察者 137
谋杀 137
隐含 137
隐藏 137
雇佣 137
2018 136
丘吉尔 136
中止 136
主持 136
保守主义 136
储存 136
共同利益 136
内在 136
出席 136
化学武器 136
医保 136
反腐 136
发挥作用 136
叙事 136
哈佛大学 136
对峙 136
德拉吉 136
抗 136
撤离 136
敌对 136
朝鲜半岛 136
涵盖 136
溢价 136
空气污染 136
美国公司 136
自治 136
虚假 136
讨价还价 136
通讯 136
l 135
作家 135
共同体 135
准 135
列为 135
勇敢 135
受益者 135
基督徒 135
宗派 135
平@@ 135
总裁 135
恢复力 135
族 135
流失 135
用途 135
经典 135
辛格 135
过多 135
26 134
65 134
ac@@ 134
ch@@ 134
一贯 134
上周 134
之道 134
国民收入 134
年内 134
广场 134
悬崖 134
放任 134
故意 134
数年 134
无需 134
民族主义者 134
治国 134
精力 134
英国政府 134
说服力 134
高估 134
高涨 134
中亚 133
事关 133
侧 133
倒退 133
叫 133
周年 133
在@@ 133
坎布里奇 133
塞@@ 133
声誉 133
大得多 133
大程度 133
天主教 133
奉行 133
奖励 133
平息 133
广大 133
想到 133
更能 133
有所不同 133
民选 133
氛围 133
沙龙 133
注册 133
派遣 133
流程 133
火@@ 133
白@@ 133
空气 133
联合国大会 133
自主 133
艾滋病毒 133
花钱 133
荒谬 133
警方 133
负面影响 133
雷@@ 133
饥荒 133
两岸 132
制造商 132
力@@ 132
口 132
多久 132
尽快 132
意思 132
日本银行 132
本应 132
机场 132
极限 132
核电站 132
此@@ 132
洪水 132
海 132
环保 132
理@@ 132
真空 132
肯尼迪 132
贝@@ 132
路@@ 132
1993 131
B 131
不止 131
世行 131
债券市场 131
公共服务 131
再也 131
刑事 131
动 131
台 131
太多 131
审视 131
宽容 131
展现 131
总@@ 131
成年人 131
潮流 131
王国 131
电话 131
经理 131
补助 131
通货紧缩 131
颇具 131
高得 131
黑暗 131
Y@@ 130
as 130
ation 130
em@@ 130
es@@ 130
ti@@ 130
举 130
僵化 130
凭借 130
动@@ 130
卷土重来 130
增速 130
多地 130
寡头 130
希@@ 130
延伸 130
开罗 130
更快 130
束缚 130
稳步 130
竞赛 130
血腥 130
贪婪 130
身 130
近来 130
1960 129
am@@ 129
上帝 129
不已 129
体@@ 129
六年 129
剩余 129
半岛 129
呈现 129
囚犯 129
地点 129
外交部长 129
家人 129
尖锐 129
山 129
恶性循环 129
指定 129
本世纪 129
桑德斯 129
津巴布韦 129
短短 129
社会党 129
科奇 129
跨越 129
远比 129
Party 128
两人 128
交@@ 128
以巴 128
信息技术 128
各@@ 128
同等 128
婚姻 128
巴勒斯坦国 128
微妙 128
挑衅 128
接 128
接收 128
推 128
揭露 128
果真如此 128
生产者 128
目睹 128
稳健 128
竭力 128
糖尿病 128
美好 128
阻力 128
难@@ 128
is@@ 127
ol@@ 127
on@@ 127
不像 127
光@@ 127
兹 127
境地 127
归因于 127
或者说 127
指令 127
推向 127
曝光 127
毕业生 127
汲取 127
清除 127
温和派 127
确立 127
维 127
缓冲 127
耗尽 127
耗费 127
视而不见 127
趋同 127
面向 127
1996 126
不得 126
协商 126
基因组 126
扩张性 126
数十亿美元 126
文@@ 126
暂停 126
最快 126
朝着 126
深@@ 126
源泉 126
病例 126
简而言之 126
股本 126
误导 126
起草 126
轨道 126
迁徙 126
追溯到 126
选 126
那@@ 126
4@@ 125
F 125
一轮 125
交给 125
借 125
创造性 125
奇 125
我@@ 125
搞 125
明 125
标签 125
深陷 125
自豪 125
起点 125
身@@ 125
这部分 125
通@@ 125
首@@ 125
骚乱 125
1967 124
la 124
一新 124
上演 124
不让 124
令人不安 124
体面 124
债权国 124
准则 124
压低 124
大城市 124
工作人员 124
开端 124
报酬 124
整整 124
海上 124
混合 124
热 124
米@@ 124
维也纳 124
而后 124
能源价格 124
要@@ 124
财政状况 124
赞同 124
越发 124
较大 124
逃避 124
顶峰 124
马里 124
700 123
John 123
M 123
ri@@ 123
中欧 123
产 123
人力 123
债务国 123
军官 123
单纯 123
原@@ 123
哈萨克斯坦 123
回避 123
境况 123
它会 123
广义 123
房产 123
投行 123
拒绝接受 123
放@@ 123
有时候 123
演化 123
留给 123
纪念 123
职务 123
范式 123
评论家 123
该@@ 123
选区 123
采访 123
降 123
不力 122
低碳 122
假定 122
化学 122
博@@ 122
同性恋 122
命令 122
多重 122
封闭 122
带有 122
干@@ 122
强加 122
战@@ 122
据估计 122
掀起 122
提款权 122
效力 122
杀伤性 122
核试验 122
独一无二 122
班 122
生涯 122
真是 122
致使 122
花@@ 122
苏@@ 122
赌注 122
输家 122
运动员 122
迪@@ 122
铀 122
6@@ 121
一幕 121
不受 121
两名 121
亦 121
伊朗核 121
信奉 121
公共财政 121
关押 121
再@@ 121
升息 121
原油 121
号召 121
回报率 121
大麻 121
夸大 121
始终 121
战场 121
数学 121
无从 121
权益 121
梅@@ 121
欧 121
波多黎各 121
海地 121
竞选活动 121
落入 121
议会选举 121
诚实 121
贸易谈判 121
赚 121
软弱 121
远@@ 121
雄心 121
黑@@ 121
5@@ 120
le 120
不断扩大 120
事@@ 120
事实证明 120
代@@ 120
代理 120
初衷 120
哲学家 120
图 120
复@@ 120
复制 120
头上 120
小学 120
尼泊尔 120
已@@ 120
平静 120
必要条件 120
执法 120
春天 120
殖民地 120
照顾 120
艾@@ 120
节约 120
许可 120
诉求 120
豁免 120
防卫 120
1930 119
7@@ 119
Robert 119
id@@ 119
ro@@ 119
代 119
作品 119
克制 119
关键作用 119
和谐 119
坚挺 119
奠定 119
女@@ 119
安抚 119
容克 119
尤为 119
微不足道 119
所有者 119
推@@ 119
推移 119
有待 119
沙@@ 119
热@@ 119
肥胖 119
萨 119
过高 119
远远不够 119
造就 119
马车 119
: 118
Global 118
一揽子 118
不当 118
人人 118
以致 118
伊拉克人 118
做些 118
关键因素 118
到期 118
变迁 118
团 118
圣@@ 118
大门 118
天然 118
失控 118
妻子 118
存量 118
就此 118
工 118
张 118
接管 118
教派 118
更为重要 118
村庄 118
波 118
生计 118
直面 118
神经 118
经受 118
胡锦涛 118
英@@ 118
被捕 118
设法 118
诺 118
迈进 118
迎接 118
金融监管 118
面积 118
Z@@ 117
偏离 117
创新性 117
压倒 117
国内外 117
在外 117
坏消息 117
巨型 117
年均 117
心态 117
想想 117
找出 117
收@@ 117
无比 117
智能 117
欧洲理事会 117
沉默 117
王朝 117
稳固 117
立法者 117
羞辱 117
般的 117
论证 117
边 117
送 117
邻居 117
阿拉法特 117
鲜明 117
et 116
三 116
临床 116
于@@ 116
会面 116
估值 116
保@@ 116
克里 116
关 116
内需 116
勒 116
受困 116
外债 116
安全网 116
帕@@ 116
技术创新 116
日本政府 116
权@@ 116
每次 116
生物学 116
界限 116
简直 116
红利 116
耐心 116
重创 116
阿里 116
雷 116
st@@ 115
世界贸易组织 115
互换 115
其所 115
初级 115
动乱 115
半数 115
卫星 115
合@@ 115
外汇 115
安全性 115
捐赠 115
收获 115
有毒 115
本周 115
极少 115
派系 115
牛 115
症 115
约旦河西岸 115
纪律 115
般 115
获得者 115
视 115
近几年 115
适得其反 115
-- 114
250 114
E 114
世界卫生组织 114
主管 114
以为 114
党@@ 114
凸显出 114
即便如此 114
可不是 114
可用 114
叶利钦 114
大卫 114
奇@@ 114
威慑 114
归功于 114
无关紧要 114
显现 114
步 114
毫无意义 114
法则 114
片 114
环境保护 114
病@@ 114
短视 114
种族主义 114
空 114
舞台 114
苹果 114
葛兰 114
转 114
通 114
道歉 114
金额 114
顶层 114
预料 114
首尔 114
SDG 113
世界杯 113
产@@ 113
农场 113
加纳 113
协作 113
危及 113
原来 113
吉@@ 113
同一个 113
回@@ 113
奖 113
宇宙 113
小心 113
小规模 113
往 113
德国政府 113
惠及 113
意志 113
慕尼黑 113
换 113
接纳 113
撰写 113
放 113
杰夫 113
毁灭性 113
股 113
英语 113
营造 113
西部 113
解雇 113
重重 113
长久 113
阴谋 113
1973 112
Development 112
u 112
不难理解 112
主 112
公里 112
创造力 112
别的 112
卖 112
命 112
咨询 112
器官 112
夺走 112
定@@ 112
弱 112
总数 112
悖论 112
愈演愈烈 112
所得 112
拙劣 112
招募 112
描绘 112
更少 112
月初 112
有效性 112
本次 112
清@@ 112
版本 112
稀缺 112
约束力 112
结局 112
老年人 112
臭名昭著 112
观 112
读 112
转基因 112
重演 112
顶尖 112
National 111
ur@@ 111
一块 111
三驾 111
为期 111
代理人 111
侯赛因 111
创伤 111
剂 111
加泰罗尼亚 111
包围 111
取@@ 111
国大党 111
将近 111
少数民族 111
希拉克 111
幻觉 111
战士 111
抬头 111
救 111
既得利益 111
最坏 111
最小化 111
检验 111
直觉 111
聚集 111
论调 111
麦肯锡 111
P 110
T 110
j@@ 110
‘ 110
上任 110
不大可能 110
丝毫 110
亚太地区 110
停火 110
列 110
合成 110
基准 110
学科 110
尽@@ 110
巴格达 110
师 110
惊奇 110
抵达 110
持有人 110
数@@ 110
数额 110
无不 110
根 110
派别 110
点@@ 110
疫情 110
确信 110
确切 110
社团 110
种类 110
站不住脚 110
警惕 110
追踪 110
Sh@@ 109
不必要 109
公共品 109
吞并 109
墙 109
子@@ 109
定位 109
对称 109
巴塞尔 109
忍受 109
急切 109
总人口 109
植物 109
溢出 109
白俄罗斯 109
看成 109
硅谷 109
社会民主党 109
科维奇 109
组 109
缴纳 109
职能 109
色 109
英格兰 109
陷于 109
QE 108
U@@ 108
ers 108
un@@ 108
一个月 108
一届 108
一笔 108
三国 108
上面 108
世人 108
传@@ 108
充满活力 108
军力 108
利益集团 108
匹配 108
印度尼西亚 108
后代 108
就业率 108
强制性 108
放眼 108
最低工资 108
民兵 108
活动家 108
竞争者 108
经济制裁 108
能源安全 108
解散 108
记得 108
进来 108
金正日 108
ia 107
il@@ 107
r 107
不亚于 107
世界秩序 107
亿@@ 107
伊朗人 107
傲慢 107
充分利用 107
光 107
具 107
军事实力 107
分割 107
划定 107
制@@ 107
向前 107
大为 107
夫人 107
密集 107
已故 107
广 107
应@@ 107
成效 107
战术 107
打交道 107
方便 107
检测 107
正当 107
汇款 107
海岸 107
特色 107
理所当然 107
直升机 107
神话 107
筹集 107
自民党 107
见@@ 107
金本位 107
隐私 107
鲜有 107
12% 106
International 106
℃ 106
一任 106
不堪 106
中美 106
伯@@ 106
供应商 106
制作 106
原有 106
可观 106
哈 106
坚信 106
大相径庭 106
实@@ 106
市民 106
弗兰克 106
戈登 106
执政党 106
执行官 106
推动力 106
旅游 106
替代品 106
欧@@ 106
正统 106
球 106
监测 106
第一@@ 106
纽黑文 106
能@@ 106
诺@@ 106
St@@ 105
th@@ 105
一带 105
中国共产党 105
主动 105
主权国家 105
借此 105
共 105
冷静 105
切@@ 105
可信度 105
回来 105
声@@ 105
多人 105
大致 105
头脑 105
孟买 105
富 105
希 105
弥合 105
微小 105
或@@ 105
技巧 105
拉美国家 105
撤销 105
日本首相 105
梦 105
殖民 105
源头 105
相提并论 105
眼前 105
立@@ 105
等到 105
纲领 105
能为 105
药方 105
莫 105
近@@ 105
零利率 105
鲁@@ 105
35% 104
or 104
一如 104
七年 104
与否 104
买单 104
份 104
停@@ 104
光明 104
八年 104
兰@@ 104
减@@ 104
劣势 104
合法化 104
向@@ 104
场所 104
大军 104
女儿 104
层 104
年里 104
引@@ 104
强硬派 104
把持 104
摩尔多瓦 104
教@@ 104
新任 104
方济各 104
格局 104
没@@ 104
特区 104
独@@ 104
生产性 104
电 104
管 104
细菌 104
背叛 104
船 104
莱@@ 104
贝 104
超 104
阻挡 104
靠拢 104
鲁莽 104
1950 103
eg@@ 103
修正案 103
光是 103
减记 103
化解 103
外交关系 103
外来 103
急于 103
总和 103
情 103
戴高乐 103
挑起 103
捕捞 103
新一代 103
明星 103
比起 103
清理 103
精@@ 103
经费 103
罪犯 103
署 103
轻@@ 103
违背 103
门@@ 103
黑人 103
75 102
us@@ 102
七@@ 102
不好 102
专业人士 102
中国@@ 102
五大 102
他信 102
传达 102
其余 102
合约 102
国际化 102
图@@ 102
夸张 102
宝座 102
底 102
得益于 102
抗@@ 102
指挥 102
排@@ 102
本币 102
林@@ 102
民用 102
洛@@ 102
看不到 102
真理 102
脚 102
被忽视 102
西方人 102
规避 102
货物 102
路线图 102
车臣 102
遭 102
避税 102
预防性 102
东道国 101
亚努 101
人工智能 101
会计 101
低水平 101
体育 101
何处 101
先决条件 101
初期 101
匮乏 101
反常 101
发生变化 101
受伤 101
吸烟 101
告终 101
国际@@ 101
大批 101
居 101
州长 101
巴尔干 101
拓展 101
捷克 101
政治体制 101
政治化 101
教会 101
数字化 101
昔日 101
极权 101
款 101
正因如此 101
温家宝 101
灾害 101
生产国 101
男人 101
监禁 101
看@@ 101
私营 101
空袭 101
简化 101
算不上 101
缩短 101
股份 101
说到底 101
转折点 101
非洲大陆 101
非理性 101
革命性 101
颁布 101
29 100
Ch@@ 100
ab@@ 100
ic@@ 100
os 100
ul@@ 100
下令 100
不敢 100
之处 100
乌干达 100
事项 100
亚美尼亚 100
偶尔 100
储户 100
六个 100
南斯拉夫 100
印度政府 100
呈 100
安南 100
密@@ 100
尴尬 100
得主 100
战略性 100
挑选 100
救济 100
时所 100
有机 100
有没有 100
杜@@ 100
照片 100
现今 100
现实主义 100
界定 100
略有 100
疑虑 100
策划 100
老牌 100
色彩 100
若干 100
调和 100
赫 100
队伍 100
European 99
不同于 99
不容 99
东方 99
共存 99
出去 99
创纪录 99
包 99
原始 99
国家主权 99
外流 99
实实在在 99
家庭收入 99
届 99
普遍认为 99
暴动 99
极高 99
查@@ 99
满@@ 99
美国财政部 99
艰苦 99
蓝图 99
赶超 99
重回 99
铁@@ 99
阿卜杜拉 99
隐性 99
17@@ 98
2025 98
5000 98
ed@@ 98
ou@@ 98
ra@@ 98
三种 98
不良贷款 98
中间派 98
之多 98
付出代价 98
传染性 98
分析家 98
分析师 98
原材料 98
反驳 98
可见 98
各类 98
吉 98
品牌 98
回顾 98
块 98
外长 98
微软 98
拨款 98
据此 98
改@@ 98
无限 98
既有 98
更深 98
更进一步 98
月底 98
欺诈 98
比喻 98
民意 98
河流 98
治愈 98
渐进 98
绝 98
肆虐 98
表 98
词汇 98
贿赂 98
返回 98
进@@ 98
进攻 98
配合 98
雅典 98
高级官员 98
高额 98
一小撮 97
一战 97
一股 97
下一代 97
不论是 97
义 97
他@@ 97
伙伴国 97
偏向 97
兑 97
城镇 97
士 97
大小 97
官 97
居高不下 97
带@@ 97
平稳 97
排 97
搜索 97
搜集 97
检察官 97
汽油 97
法德 97
清醒 97
照 97
物流 97
瓦解 97
级别 97
罪名 97
费@@ 97
还@@ 97
这座 97
通货膨胀率 97
通道 97
遗憾 97
金融中心 97
非洲人 97
高兴 97
I 96
ap@@ 96
ent 96
不公 96
不如说是 96
么 96
债 96
做@@ 96
公认 96
娜 96
存活 96
引出 96
归 96
慢 96
打败 96
抗药性 96
改革方案 96
星球 96
智力 96
暂时性 96
次级 96
欧洲中央银行 96
物理 96
登上 96
看护 96
真@@ 96
科尔 96
纪录 96
编辑 96
致死 96
芝加哥 96
萨默斯 96
蒂 96
詹姆斯 96
赛@@ 96
轮 96
退化 96
阐述 96
马歇尔 96
R 95
ak@@ 95
et@@ 95
不良 95
主席国 95
主意 95
乌@@ 95
准备金 95
初@@ 95
单 95
厂 95
发展趋势 95
周@@ 95
地区性 95
女人 95
富@@ 95
岛屿 95
市场份额 95
徘徊 95
思想家 95
意在 95
托@@ 95
无意 95
死去 95
清单 95
益处 95
研究成果 95
神@@ 95
第二轮 95
等同于 95
签证 95
美国@@ 95
良机 95
表态 95
见证 95
输出 95
近几个月 95
金融资产 95
门槛 95
阅读 95
高水平 95
120 94
75% 94
gt 94
os@@ 94
不复存在 94
中低收入 94
举例 94
仅限于 94
兼并 94
减小 94
可疑 94
圣地 94
大大增加 94
学派 94
开明 94
提起 94
政界 94
教 94
教条 94
明天 94
有过 94
桥梁 94
民 94
激怒 94
物理学 94
胜任 94
视角 94
询问 94
诺贝尔经济学奖 94
货币基金 94
路上 94
饮食 94
13% 93
1982 93
为主 93
九@@ 93
伯格 93
保卫 93
八十年代 93
十分困难 93
合并 93
告知 93
多德 93
奥斯陆 93
带给 93
常任理事 93
手术 93
扎 93
扮演着 93
投票权 93
摩擦 93
旧@@ 93
深深 93
热衷于 93
知名 93
福岛 93
背道而驰 93
西岸 93
证 93
超@@ 93
跟踪 93
这部 93
那次 93
链 93
1981 92
ad 92
h 92
不起 92
伤 92
健康状况 92
先前 92
共有 92
关键在于 92
千万 92
即@@ 92
只@@ 92
合理性 92
场合 92
备受 92
宣告 92
室 92
巨量 92
布雷 92
微弱 92
忙于 92
慢慢 92
报导 92
无人 92
无条件 92
无非 92
期@@ 92
此人 92
深受 92
独裁统治 92
第三次 92
索 92
红@@ 92
维和 92
说@@ 92
这条 92
三次 91
与其说是 91
世卫 91
丝绸之路 91
五分之一 91
例 91
债权 91
假 91
决裂 91
别 91
各项 91
四 91
国际金融 91
圈 91
在我看来 91
多名 91
娱乐 91
安置 91
审核 91
带领 91
幕后 91
征服 91
指@@ 91
收入水平 91
极权主义 91
构想 91
油@@ 91
淘汰 91
甘地 91
赞扬 91
轨迹 91
这套 91
酝酿 91
霍乱 91
顶级 91
顿 91
高技能 91
黑 91
0@@ 90
lt 90
m 90
om@@ 90
一度 90
不知 90
中位 90
事先 90
六个月 90
冲动 90
刚 90
创始人 90
升温 90
右派 90
同行 90
名言 90
哈佛 90
善@@ 90
回忆 90
国际原子能机构 90
培育 90
大臣 90
局部 90
展望 90
已然 90
希腊人 90
所处 90
挫折 90
极具 90
核电 90
武装冲突 90
沃 90
直@@ 90
神 90
秋天 90
科威特 90
终极 90
终止 90
绝非易事 90
继续下去 90
脱 90
言@@ 90
说出 90
麦凯恩 90
HIV 89
at 89
im@@ 89
it 89
一周 89
上学 89
不该 89
专@@ 89
丰厚 89
为止 89
乐于 89
仅次于 89
伤亡 89
位居 89
假@@ 89
儿 89
党内 89
十多年 89
反应堆 89
取 89
否决权 89
吸取 89
四十年 89
回购 89
固然 89
垮台 89
大笔 89
孟加拉 89
当成 89
总共 89
感兴趣 89
戏剧性 89
报@@ 89
捐助 89
据称 89
援引 89
敌 89
新生 89
新药 89
日益严重 89
最早 89
极低 89
根基 89
求@@ 89
然 89
犹豫 89
理 89
电@@ 89
税收制度 89
第二次世界大战 89
老板 89
聚焦 89
脊髓灰质炎 89
脱@@ 89
贫困线 89
非国家 89
驱使 89
11% 88
个别 88
以内 88
会令 88
何@@ 88
停留 88
军政府 88
分崩离析 88
列@@ 88
博客 88
卡斯特罗 88
去世 88
司机 88
各种各样 88
吨 88
在历史上 88
外国投资 88
奖金 88
威@@ 88
孤立主义 88
安全部队 88
密集型 88
帮 88
年末 88
库@@ 88
异见 88
弗拉基米尔 88
徒 88
掠夺 88
改革派 88
新鲜 88
方@@ 88
施罗德 88
无动于衷 88
无处不在 88
曼德拉 88
村 88
欧洲委员会 88
残忍 88
段 88
流出 88
流血 88
深 88
潘基文 88
甘@@ 88
疑问 88
百万 88
福音 88
空中 88
穿越 88
范例 88
萨科奇 88
董事 88
象征性 88
贸易顺差 88
越是 88
长久以来 88
集体行动 88
音乐 88
鱼 88
Institute 87
Mar@@ 87
NCD 87
O 87
不足为奇 87
买@@ 87
仪式 87
任由 87
会为 87
伦 87
公然 87
共同点 87
兵@@ 87
军事政变 87
分支 87
到处 87
包@@ 87
厄瓜多尔 87
可言 87
在世界上 87
增量 87
定向 87
富豪 87
小说 87
年份 87
度过 87
建成 87
开战 87
异@@ 87
接@@ 87
新西兰 87
普拉斯 87
最小 87
最强 87
本能 87
机@@ 87
极化 87
次要 87
步入 87
残暴 87
洞见 87
浮现 87
独裁政权 87
生育 87
生育率 87
目 87
相关性 87
神圣 87
翻番 87
节 87
认真对待 87
说辞 87
读者 87
调@@ 87
贸易壁垒 87
跌 87
迁移 87
迈克尔 87
这点 87
防@@ 87
随机 87
风 87
IT 86
上来 86
不善 86
世@@ 86
世界观 86
中立 86
俄@@ 86
信@@ 86
修@@ 86
冷漠 86
剥削 86
各不相同 86
名声 86
土@@ 86
地面 86
大有 86
工@@ 86
情报局 86
惊@@ 86
想@@ 86
感情 86
携带 86
数十万 86
施@@ 86
晚 86
服从 86
核武 86
梅德韦 86
沿岸 86
法定 86
渺茫 86
演变成 86
现 86
眼 86
第五 86
英里 86
要点 86
退 86
顾虑 86
100% 85
Al@@ 85
ali@@ 85
az@@ 85
一回 85
伊斯坦布尔 85
勉强 85
北@@ 85
北欧国家 85
卢@@ 85
印 85
印@@ 85
反美 85
发育 85
发言权 85
四大 85
增大 85
大幅提高 85
失调 85
奋斗 85
实 85
家长 85
封锁 85
库 85
建筑业 85
德里 85
恐吓 85
您 85
戈尔巴乔夫 85
最优 85
枯竭 85
标题 85
植根于 85
欧亚 85
欧美 85
殆尽 85
没错 85
泛滥 85
测算 85
特性 85
相符 85
禁运 85
穷 85
精神病 85
系 85
约瑟夫 85
自然灾害 85
苦@@ 85
获得成功 85
裁定 85
触及 85
言辞 85
讲述 85
请求 85
谋求 85
达尔富尔 85
迫在眉睫 85
难民营 85
雪上加霜 85
高官 85
au@@ 84
ec@@ 84
一百万 84
上去 84
不啻 84
互@@ 84
亚马逊 84
从来不 84
保住 84
健全 84
农产品 84
别国 84
单边 84
国有化 84
大体上 84
威 84
守@@ 84
尽力 84
峰值 84
年时 84
引领 84
弹道导弹 84
很@@ 84
快乐 84
戈尔 84
抑郁症 84
抛 84
拉加 84
拉动 84
教科书 84
星 84
服用 84
未知 84
此事 84
猛烈 84
目的地 84
破@@ 84
种族隔离 84
管理层 84
米兰 84
胡@@ 84
蔑视 84
虚拟 84
观众 84
说话 84
谈话 84
资料 84
赚取 84
走@@ 84
这家 84
顶 84
高盛 84
45% 83
下行 83
亨利 83
倒塌 83
偿债 83
充其量 83
关注点 83
反馈 83
可行性 83
同僚 83
善意 83
囤积 83
坐在 83
处境 83
大部 83
宾 83
局限性 83
差不多 83
托马斯 83
换言之 83
时常 83
朴槿惠 83
柏林墙 83
标志性 83
核子 83
洛 83
消费税 83
照@@ 83
理智 83
生长 83
相近 83
省份 83
纳税 83
群 83
自称 83
节目 83
英 83
获利 83
议案 83
设在 83
赫@@ 83
轻 83
首位 83
鸿沟 83
鼓舞 83
1986 82
Twitter 82
一夜之间 82
一组 82
不及 82
中断 82
今年夏天 82
伦齐 82
典范 82
军人 82
名叫 82
含量 82
听@@ 82
呈现出 82
噩梦 82
四倍 82
多于 82
将@@ 82
尤 82
尼亚 82
延缓 82
建制 82
微@@ 82
持续性 82
接入 82
推特 82
旅游业 82
日益增长 82
有利可图 82
木@@ 82
未经 82
核国家 82
欠 82
欧佩克 82
法西斯主义 82
泰勒 82
球员 82
男女 82
筛查 82
箭 82
绝不会 82
罗姆人 82
肉 82
肺结核 82
蓬勃发展 82
蔓延到 82
装置 82
记@@ 82
贾 82
远高于 82
降至 82
韩 82
骄傲 82
1971 81
8@@ 81
世纪末 81
中叶 81
买卖 81
乱 81
亏损 81
仅为 81
俄国人 81
信徒 81
克格勃 81
公务员 81
内政 81
冲@@ 81
出任 81
出口商 81
利益冲突 81
到@@ 81
原 81
原则上 81
反击 81
发现自己 81
可怜 81
启发 81
土耳其人 81
增值税 81
层次 81
常@@ 81
幽灵 81
延迟 81
建@@ 81
影片 81
德黑兰 81
抉择 81
护理 81
拉登 81
换@@ 81
摆在 81
摩根 81
政体 81
敢于 81
条@@ 81
治@@ 81
眼光 81
硬着陆 81
笔者 81
篮子 81
约翰逊 81
结婚 81
绕过 81
维系 81
罹患 81
谈 81
迎合 81
长期存在 81
随处可见 81
预想 81
高速公路 81
David 80
ter 80
一只 80
一生 80
万个 80
两难 80
严重性 80
之地 80
之手 80
之路 80
乘数 80
乳腺癌 80
以色列政府 80
优质 80
侵害 80
全力 80
再融资 80
写入 80
冰川 80
分类 80
加利福尼亚 80
加利福尼亚州 80
包装 80
卖@@ 80
反之 80
取而代之 80
图景 80
好得多 80
对应 80
尊敬 80
就@@ 80
居@@ 80
屈服 80
巧妙 80
底层 80
彰显 80
战役 80
把握 80
挤兑 80
政 80
断 80
斯特 80
无序 80
沿着 80
点燃 80
疏远 80
第一位 80
糖 80
索@@ 80
纪念日 80
结成 80
罚款 80
美国银行 80
美洲 80
考量 80
薄弱 80
赞助 80
身边 80
运@@ 80
那场 80
钞票 80
降低利率 80
面@@ 80
顺利 80
领@@ 80
马丁 80
20@@ 79
350 79
36 79
and@@ 79
man 79
一致性 79
丈夫 79
上风 79
举@@ 79
书@@ 79
优点 79
伪善 79
八个 79
冷@@ 79
划分 79
列强 79
加重 79
区域性 79
华沙 79
名列 79
坐@@ 79
塞夫 79
复杂化 79
大坝 79
将要 79
小儿麻痹症 79
币 79
市场准入 79
恩@@ 79
愉快 79
扎@@ 79
新政 79
日常生活 79
普尔 79
机械 79
核设施 79
澄清 79
燃煤 79
砍伐 79
纽约时报 79
经@@ 79
缩水 79
罪恶 79
耻辱 79
节奏 79
苦苦 79
菲 79
蛋白质 79
表演 79
装 79
解决之道 79
计 79
诊所 79
过早 79
迪拜 79
钢铁 79
高峰 79
17% 78
1914 78
32 78
? 78
um@@ 78
一是 78
不惜一切 78
不难 78
世界大战 78
两项 78
主体 78
共和 78
几百年 78
制度性 78
功@@ 78
助 78
劳@@ 78
区间 78
卢拉 78
原料 78
参与率 78
参选 78
合格 78
同胞 78
国会议员 78
太大而 78
岌岌可危 78
库存 78
废墟 78
引向 78
恶性 78
患 78
情@@ 78
拿到 78
摄氏度 78
断@@ 78
斯诺 78
替换 78
沙 78
波动性 78
泰@@ 78
游@@ 78
福@@ 78
第二@@ 78
等@@ 78
统计数据 78
藏 78
诽谤 78
车@@ 78
这句 78
这样一来 78
选@@ 78
重返 78
银行贷款 78
随@@ 78
额度 78
鹰派 78
鼓动 78
31 77
34 77
g 77
son 77
ó 77
不去 77
不合理 77
临时性 77
亲密 77
令人鼓舞 77
任职 77
光靠 77
共@@ 77
初始 77
势 77
卡特 77
卫队 77
印度洋 77
和平谈判 77
困惑 77
国籍 77
垃圾 77
多万 77
太空 77
好转 77
学位 77
宗教信仰 77
官僚机构 77
定居 77
客 77
宪法法院 77
就任 77
市场化 77
强奸 77
心脏病 77
打消 77
拉低 77
携手 77
攫取 77
改革者 77
数十亿 77
数千 77
是否是 77
景象 77
有所增加 77
朝@@ 77
某@@ 77
波士顿 77
波斯湾 77
活@@ 77
登@@ 77
盯住 77
离@@ 77
立 77
荣誉 77
蒙蒂 77
蚊子 77
视@@ 77
许诺 77
辅之以 77
近一半 77
退@@ 77
造@@ 77
金氏 77
铭记 77
防范 77
集会 77
18% 76
ay@@ 76
ex@@ 76
两极分化 76
书籍 76
买家 76
什 76
伊朗政府 76
会上 76
会以 76
体重 76
余额 76
倾斜 76
其一 76
凌驾于 76
医疗卫生 76
十亿 76
华@@ 76
危险性 76
原理 76
命名 76
困 76
基辛格 76
德尔 76
总会 76
截至 76
摇摆 76
整@@ 76
暴露出 76
杰@@ 76
枢纽 76
枪 76
毁掉 76
混淆 76
灌溉 76
然@@ 76
特拉维夫 76
环 76
略 76
离岸 76
粒子 76
罗格 76
美日 76
脂肪 76
茨 76
蒙@@ 76
血 76
被动 76
解放军 76
资本外逃 76
过往 76
部族 76
重心 76
院 76
顾客 76
15@@ 75
16% 75
AKP 75
George 75
TTIP 75
op@@ 75
x 75
― 75
不惜 75
不满情绪 75
东海 75
两位数 75
严重威胁 75
中美洲 75
五 75
人体 75
他会 75
伎俩 75
信条 75
全国性 75
养老 75
冰岛 75
几位 75
出发 75
分为 75
利差 75
前夕 75
动议 75
区区 75
压抑 75
同步 75
向下 75
君主 75
品质 75
回国 75
围@@ 75
国企 75
地被 75
基点 75
夫妇 75
字 75
宁愿 75
定律 75
客观 75
宽带 75
带到 75
平 75
开创 75
弗@@ 75
彼得 75
悲惨 75
情愿 75
慢性 75
抑或 75
掣肘 75
来临 75
注资 75
流行病 75
滋生 75
滑向 75
班@@ 75
略微 75
白 75
盛行 75
私@@ 75
移交 75
算@@ 75
终身 75
观看 75
论据 75
调 75
赤裸裸 75
起初 75
这件 75
这使 75
重现 75
针对性 75
隐瞒 75
霍 75
飞@@ 75
首脑会议 75
900 74
James 74
Re@@ 74
b 74
ir@@ 74
si@@ 74
一连串 74
两场 74
众@@ 74
保密 74
值得注意 74
刑事法庭 74
利亚 74
前瞻性 74
华 74
单个 74
变动 74
叫做 74
后面 74
向来 74
吸纳 74
坚实 74
失业者 74
好比 74
实现目标 74
实用主义 74
属 74
布勒 74
帕 74
待@@ 74
想象力 74
感谢 74
批判 74
推测 74
搁置 74
收取 74
改良 74
时才 74
杰出 74
板 74
民@@ 74
民主政体 74
没完没了 74
波及 74
海域 74
渔业 74
激情 74
玉米 74
理查德 74
画 74
看着 74
看见 74
管辖 74
累计 74
维尔 74
翻 74
耶伦 74
职 74
致@@ 74
艾哈迈迪 74
节省 74
营商 74
装@@ 74
西非 74
见到 74
赢 74
透露 74
遍布 74
遗忘 74
锁定 74
齐@@ 74
齐心协力 74
ine 73
ob@@ 73
一次性 73
下属 73
不快 73
不禁 73
人民党 73
任@@ 73
保加利亚 73
借鉴 73
克斯 73
农@@ 73
几次 73
出身 73
剧变 73
北 73
卓越 73
压 73
可悲 73
回事 73
固定汇率 73
土 73
小额 73
已知 73
巴林 73
急@@ 73
截止 73
戴维 73
摇摇欲坠 73
放心 73
教堂 73
新书 73
日趋 73
普遍存在 73
树 73
核反应堆 73
核扩散 73
洗@@ 73
流通 73
火箭 73
灭绝 73
用作 73
相似之处 73
短@@ 73
若@@ 73
行径 73
被控 73
覆辙 73
视频 73
论断 73
论者 73
调节 73
质 73
赌博 73
跟进 73
践踏 73
辛@@ 73
进口国 73
退休年龄 73
道@@ 73
青少年 73
预先 73
马斯特里赫特 73
验证 73
骗局 73
高利率 73
黑客 73
24% 72
p 72
ut@@ 72
上半年 72
不佳 72
两者之间 72
中介 72
乌克兰人 72
交易所 72
侨民 72
侮辱 72
偶然 72
偷@@ 72
兑换 72
公共利益 72
北美自由贸易协定 72
印度教 72
双边贸易 72
国际事务 72
坐视 72
坚守 72
堕落 72
处决 72
处置 72
外包 72
多达 72
大不相同 72
委托 72
学家 72
平常 72
意大利人 72
戴 72
打着 72
抗击 72
振兴 72
捕获 72
架 72
段时间 72
氏 72
法兰克福 72
法西斯 72
渗透 72
温@@ 72
牛津 72
现成 72
男孩 72
界线 72
盖 72
相去甚远 72
看出 72
磋商 72
禁忌 72
科研 72
紧@@ 72
紧迫性 72
缺点 72
自上而下 72
自卫 72
薄熙来 72
血液 72
解 72
货币化 72
赛 72
较@@ 72
远见 72
追@@ 72
重获 72
闹剧 72
霸主 72
预见到 72
1968 71
37 71
MDG 71
OMT 71
ev@@ 71
丢掉 71
乐@@ 71
余地 71
倒@@ 71
倡导 71
先是 71
入狱 71
兵 71
其后 71
加工 71
南北 71
南美 71
卢比 71
发言人 71
和谈 71
四分之三 71
在此之前 71
大面积 71
店 71
建 71
总而言之 71
恶@@ 71
惯例 71
承担责任 71
投@@ 71
擅长 71
放宽 71
教义 71
教学 71
教徒 71
普通人 71
暗@@ 71
服 71
杀手 71
李@@ 71
样子 71
欲 71
浮动 71
潜能 71
爱国主义 71
现场 71
留@@ 71
直至 71
科学研究 71
穷@@ 71
筹资 71
绝@@ 71
耗资 71
薪水 71
虚弱 71
转为 71
进行谈判 71
逃@@ 71
逃脱 71
避开 71
重中之重 71
金属 71
长期投资 71
间谍 71
风险管理 71
麦@@ 71
1929 70
39 70
Th@@ 70
World 70
ate 70
一人 70
互联 70
低工资 70
供@@ 70
决@@ 70
加息 70
助推 70
勒@@ 70
古 70
史无前例 70
听众 70
国界 70
基金组织 70
塞族 70
外资 70
天堂 70
夺取 70
审议 70
小企业 70
并不需要 70
微乎其微 70
总收入 70
成年 70
拖入 70
持有者 70
挤出 70
挫败 70
政治危机 70
政见 70
新近 70
新高 70
杀@@ 70
核弹 70
格林 70
沉@@ 70
油气 70
波罗的海 70
消退 70
游客 70
热烈 70
用以 70
用水 70
盘 70
禁@@ 70
纯属 70
联网 70
肿瘤 70
脸 70
节能 70
落@@ 70
装备 70
角 70
误导性 70
越过 70
身后 70
轻而易举 70
辐射 70
酒 70
重蹈 70
集@@ 70
霍@@ 70
靠近 70
频率 70
驻扎 70
[ 69
] 69
con@@ 69
不切实际 69
专业化 69
两家 69
事后 69
人性 69
价值链 69
信用卡 69
偿还债务 69
催化剂 69
先发制人 69
党员 69
关乎 69
劳动密集型 69
单边主义 69
原先 69
发酵 69
变量 69
另一方 69
含有 69
四分五裂 69
四国 69
团结起来 69
国度 69
堕胎 69
存 69
学到 69
完 69
实证 69
巧合 69
并@@ 69
并不比 69
广播 69
弱势群体 69
强度 69
微 69
忠实 69
性行为 69
我国 69
或多或少 69
房 69
批评家 69
投向 69
推理 69
提倡 69
攻势 69
无所作为 69
时至今日 69
明智地 69
易@@ 69
普世 69
更迭 69
机关 69
松 69
枪支 69
某种意义 69
核@@ 69
横@@ 69
欠缺 69
治 69
波兰人 69
游击队 69
特质 69
电动汽车 69
相互依存 69
短期内 69
社会@@ 69
等级 69
自相矛盾 69
解@@ 69
谈到 69
跻身 69
输送 69
运气 69
这才 69
迟迟 69
附加 69
高中 69
鱼类 69
默许 69
16@@ 68
Economic 68
In@@ 68
J 68
ha@@ 68
us 68
一番 68
上将 68
下调 68
不无道理 68
与日俱增 68
中将 68
临床试验 68
仅靠 68
倘若 68
免遭 68
八国集团 68
公信力 68
关门 68
军事冲突 68
农作物 68
出路 68
初步 68
劳动生产率 68
取缔 68
变异 68
听说 68
回升 68
回收 68
地为 68
塞 68
增@@ 68
大谈 68
天生 68
夫@@ 68
始作俑者 68
宪政 68
富兰克林 68
年会 68
强权 68
得出结论 68
德拉 68
总能 68
所属 68
收支平衡 68
数据库 68
无助于 68
无情 68
无法控制 68
曼@@ 68
本国货币 68
权势 68
极少数 68
死灰复燃 68
每月 68
毕业 68
毛 68
气氛 68
求 68
沿海 68
泄漏 68
涌现 68
牵涉到 68
特使 68
生殖 68
眼里 68
碎片 68
章 68
第二种 68
罗纳德 68
良多 68
药@@ 68
规律 68
视作 68
课税 68
财长 68
贴 68
赫鲁晓夫 68
轻微 68
过来 68
重新分配 68
银行行长 68
1933 67
22% 67
NAFTA 67
NPT 67
一类 67
丁 67
之久 67
九个 67
乱@@ 67
争@@ 67
人道 67
亿万富翁 67
仿效 67
伊始 67
低廉 67
先锋 67
全职 67
公民自由 67
养@@ 67
利基 67
南中国海 67
印度人民党 67
受制于 67
商@@ 67
国家@@ 67
坐 67
基辅 67
壮大 67
对准 67
平庸 67
总之 67
恐怖活动 67
投机者 67
抵挡 67
指挥官 67
捍卫者 67
捐款 67
捕捉 67
故@@ 67
数目 67
无异于 67
日期 67
智库 67
末日 67
李克强 67
查 67
添加 67
男子 67
盖@@ 67
硬@@ 67
礼物 67
移动电话 67
算是 67
素 67
紧 67
纾 67
老人 67
职业生涯 67
肺炎 67
航空 67
虔诚 67
行动计划 67
袖手旁观 67
觉醒 67
资 67
远程 67
逃税 67
道德风险 67
配@@ 67
阿联酋 67
降临 67
除外 67
随意 67
饮用水 67
鸦片 67
1962 66
1988 66
Act 66
An@@ 66
H 66
ah@@ 66
万名 66
业绩 66
个性 66
中所 66
义@@ 66
乱象 66
公园 66
写照 66
初选 66
卢森堡 66
卸任 66
叙利亚人 66
同理 66
后期 66
告@@ 66
唯有 66
商业模式 66
地产 66
地向 66
坦克 66
塞拉利昂 66
多得多 66
威尔逊 66
官僚主义 66
寄希望于 66
小泉 66
少@@ 66
屈服于 66
崇拜 66
市政 66
忘 66
扶贫 66
招@@ 66
政治经济 66
施加压力 66
早@@ 66
暴涨 66
替 66
桥 66
每当 66
清真寺 66
灵魂 66
煤 66
现存 66
监视 66
神秘 66
税制 66
税基 66
笔 66
简称 66
网@@ 66
胜 66
行动者 66
败@@ 66
赶上 66
起着 66
超国家 66
轮值 66
集 66
青@@ 66
非洲地区 66
高油价 66
1987 65
38 65
42 65
K 65
ig@@ 65
tion 65
上市 65
不动产 65
乌拉圭 65
人口数量 65
代表性 65
仿佛 65
伤@@ 65
伦@@ 65
似的 65
利比里亚 65
升 65
参考 65
发电厂 65
哈里发 65
外汇市场 65
大体 65
字@@ 65
实时 65
巨@@ 65
布拉格 65
弱化 65
弹 65
心理学 65
心目 65
愈加 65
戈@@ 65
手下 65
接替 65
支@@ 65
政府部门 65
数以百万计 65
斯洛伐克 65
权限 65
法制 65
海滩 65
淹没 65
电池 65
痛 65
眼看 65
破坏力 65
第一次世界大战 65
经济@@ 65
结@@ 65
网络空间 65
自满 65
自由贸易区 65
自私 65
苏 65
萎靡不振 65
贯彻 65
贸易战 65
赞美 65
走私 65
超额 65
输 65
送到 65
适应性 65
重新考虑 65
野生动物 65
金融工具 65
阈值 65
陷入困境 65
革新 65
预料到 65
1975 64
Michael 64
ow@@ 64
一时 64
不道德 64
两周 64
中部 64
丹 64
习惯于 64
二世 64
人能 64
仇外 64
付 64
代表团 64
优化 64
修补 64
关切 64
冒@@ 64
几率 64
分钟 64
压@@ 64
友 64
反犹主义 64
发动战争 64
听取 64
呆 64
周 64
商业利益 64
嘲笑 64
四处 64
夏@@ 64
大战 64
太阳 64
实例 64
巨资 64
常 64
度@@ 64
当初 64
形 64
微观 64
恰好 64
悬而未决 64
悲哀 64
懂 64
挥霍 64
提供援助 64
撒钱 64
斯堪的纳维亚 64
新生儿 64
无限期 64
服装 64
期权 64
杀虫剂 64
权重 64
束手无策 64
核武库 64
每周 64
泄露 64
消亡 64
游戏规则 64
演说 64
瓦哈比 64
石@@ 64
福克斯 64
第一种 64
籍 64
精心 64
罪魁祸首 64
联合行动 64
街道 64
角落 64
讲@@ 64
词@@ 64
谬误 64
贾@@ 64
起源 64
蹂躏 64
达尔文 64
迷失 64
追随 64
附带 64
驱动力 64
齐聚 64
10@@ 63
1948 63
85% 63
Bar@@ 63
FDI 63
GCC 63
IPCC 63
il 63
三位 63
不可逆转 63
与会者 63
之初 63
之大 63
乌托邦 63
使@@ 63
倡导者 63
停顿 63
克尔 63
免除 63
刻意 63
力图 63
十 63
千 63
南欧国家 63
占多数 63
可比 63
善于 63
团结一致 63
固有 63
圣战者 63
坦桑尼亚 63
基本权利 63
够 63
大声 63
天才 63
失 63
宣战 63
宣誓 63
局长 63
心中 63
必定 63
息 63
情报机构 63
意@@ 63
抗拒 63
抗议者 63
抵押品 63
拿破仑 63
掩饰 63
政局 63
旧金山 63
时间表 63
最能 63
术语 63
极@@ 63
残疾 63
民主选举 63
沃@@ 63
沙文主义 63
没人 63
油田 63
法国政府 63
流亡 63
消极影响 63
物理学家 63
玩 63
环@@ 63
百 63
空白 63
竟然 63
管理局 63
类别 63
系列 63
继 63
网上 63
罢了 63
胚胎 63
自力更生 63
自发 63
艺术家 63
营销 63
观察员 63
证券化 63
课 63
负有 63
资不抵债 63
资本家 63
迟早 63
错过 63
阳光 63
难以置信 63
靖国神社 63
非金融 63
1985 62
Ar@@ 62
ah 62
ty 62
下半年 62
下面 62
不可思议 62
两国之间 62
主任 62
乃是 62
亚当 62
亿吨 62
令人振奋 62
众 62
会见 62
侵入 62
克罗地亚 62
兴建 62
军事化 62
刚刚开始 62
别@@ 62
力求 62
劳力 62
医药 62
十倍 62
哪@@ 62
坏事 62
坦 62
大获全胜 62
天赋 62
头巾 62
女童 62
季 62
就职 62
巴罗 62
弊端 62
弱小 62
弹劾 62
必@@ 62
怎么办 62
怨恨 62
总的来说 62
息息相关 62
患有 62
憎恨 62
战火 62
扬 62
按@@ 62
推断 62
放贷 62
新世界 62
无济于事 62
日后 62
次贷 62
欲望 62
武装力量 62
毒 62
水域 62
激励机制 62
激活 62
激进主义 62
激进分子 62
物@@ 62
王@@ 62
现已 62
矛头 62
积极参与 62
税负 62
童工 62
第三方 62
管@@ 62
统计数字 62
罢工 62
脚步 62
警@@ 62
话语权 62
象 62
貌似 62
负@@ 62
货 62
资深 62
赚钱 62
赞赏 62
走势 62
轮@@ 62
运送 62
通向 62
速 62
长期性 62
阿塞拜疆 62
飞 62
食 62
高位 62
高尚 62
1947 61
1978 61
33 61
Le 61
Sch@@ 61
c 61
ey 61
一所 61
不出 61
严@@ 61
中东国家 61
亚洲地区 61
人口老龄化 61
仍@@ 61
低位 61
余@@ 61
保存 61
共担 61
冒犯 61
军备 61
农 61
减贫 61
击@@ 61
十足 61
升@@ 61
发言 61
召集 61
可笑 61
吞噬 61
咖啡 61
备@@ 61
外币 61
奥斯曼帝国 61
屈从 61
已久 61
幸福感 61
开辟 61
感@@ 61
托尼 61
技术性 61
抽@@ 61
拉脱维亚 61
拥挤 61
捐助国 61
斯蒂格 61
族群 61
昂山 61
暴政 61
更广 61
替罪羊 61
朗 61
查尔斯 61
沃伦 61
沃尔玛 61
男@@ 61
种@@ 61
积压 61
细分 61
编@@ 61
罗斯 61
翻@@ 61
能源供应 61
能源需求 61
腐蚀 61
自主权 61
衣 61
被判 61
裁军 61
警示 61
赋权 61
跑 61
输入 61
近于零 61
近邻 61
避难 61
钓鱼岛 61
钱@@ 61
险 61
顾及 61
马克思 61
黯淡 61
14% 60
1972 60
3000 60
Council 60
Mon@@ 60
ati@@ 60
le@@ 60
od@@ 60
qu@@ 60
re 60
ub@@ 60
一本 60
上诉 60
中旬 60
久@@ 60
五十年 60
产业政策 60
从不 60
低点 60
元 60
克什米尔 60
兴奋 60
助益 60
势力范围 60
北极 60
命@@ 60
品种 60
商店 60
国务院 60
国土 60
基斯 60
墨西哥城 60
多项 60
失踪 60
头条 60
奈@@ 60
好莱坞 60
安装 60
布托 60
序列 60
戈 60
招致 60
推销 60
收 60
新闻媒体 60
易 60
暗杀 60
曙光 60
杀人 60
标 60
树木 60
校园 60
款项 60
残@@ 60
殖民主义 60
每桶 60
物品 60
猪 60
盎格鲁 60
穿 60
线索 60
经济效益 60
美德 60
群岛 60
联手 60
莱因哈特 60
螺旋 60
讨好 60
购物 60
运 60
远非 60
迷@@ 60
适度 60
重商主义 60
阿拉维 60
隐@@ 60
雅@@ 60
集权 60
28% 59
Car@@ 59
IC@@ 59
II 59
Le@@ 59
ant@@ 59
io 59
ov@@ 59
一员 59
三中全会 59
东正教 59
中世纪 59
争相 59
亲信 59
优@@ 59
低效率 59
侨汇 59
假装 59
假说 59
僵尸 59
出访 59
列入 59
别处 59
十个 59
原子弹 59
吹嘘 59
善 59
备忘录 59
天真 59
太高 59
失效 59
嫌 59
官@@ 59
实际工资 59
家里 59
尽量 59
层出不穷 59
年收入 59
应急 59
引进 59
德斯 59
怀疑派 59
投票率 59
抛出 59
拜@@ 59
推荐 59
收支 59
文学 59
斯密 59
暗中 59
步@@ 59
毒@@ 59
比特 59
毛@@ 59
民主党人 59
牺牲品 59
电厂 59
百分比 59
私人企业 59
私人资本 59
称@@ 59
税法 59
粮食安全 59
终将 59
美丽 59
老布什 59
肉@@ 59
肯 59
自有 59
航班 59
藏@@ 59
虫 59
蚊帐 59
融化 59
视野 59
评判 59
财阀 59
辉煌 59
述 59
造 59
采取任何 59
金融公司 59
钻石 59
预@@ 59
领取 59
鲍威尔 59
默认 59
55 58
Ben 58
Martin 58
f 58
ry 58
se 58
一手 58
一波 58
不丹 58
不至于 58
个@@ 58
中东欧 58
交易成本 58
人质 58
以使 58
作风 58
借用 58
其二 58
内外 58
军事基地 58
切 58
制度化 58
剂量 58
剔除 58
占有 58
历史记录 58
压缩 58
后尘 58
困难重重 58
国际收支 58
坚@@ 58
埃克森 58
城@@ 58
堂 58
复仇 58
安慰 58
审计 58
小于 58
小心翼翼 58
崭新 58
市值 58
带动 58
强行 58
归结为 58
怪异 58
意料 58
成人 58
所在地 58
所能 58
投给 58
捷克共和国 58
提取 58
撤回 58
散 58
新闻自由 58
智能手机 58
曲线 58
更替 58
朔伊 58
本书 58
橙色 58
比作 58
消费品 58
深思熟虑 58
热门 58
独自 58
生产成本 58
生意 58
由来已久 58
申根 58
眼@@ 58
祖先 58
科夫斯基 58
突变 58
突破性 58
算盘 58
精明 58
缔造 58
脱钩 58
船只 58
良性 58
西奈半岛 58
认@@ 58
诱人 58
调停 58
谱 58
越大 58
输掉 58
这片 58
采@@ 58
针锋相对 58
顺从 58
顺序 58
食@@ 58
首个 58
马克思主义 58
驳斥 58
驻军 58
高价 58
黄@@ 58
默多克 58
130 57
180 57
9@@ 57
Bl@@ 57
Joseph 57
Thomas 57
all 57
iv@@ 57
í 57
下注 57
不振 57
不遗余力 57
世俗主义 57
中国崛起 57
中起 57
些许 57
代际 57
令@@ 57
以免 57
佩雷斯 57
使用者 57
例证 57
偏执 57
免税 57
入主 57
关@@ 57
凝聚 57
几 57
分水岭 57
刘晓波 57
券 57
十九 57
博物馆 57
另有 57
吃@@ 57
大使馆 57
大手笔 57
大片 57
天主教徒 57
夺去 57
套利 57
存@@ 57
实用 57
巨人 57
干细胞 57
弹@@ 57
往常 57
忧心忡忡 57
户 57
投机性 57
拖 57
拘留 57
拼命 57
搞@@ 57
撤退 57
政治学家 57
救@@ 57
散@@ 57
无一例外 57
时会 57
星@@ 57
晚些时候 57
最长 57
板球 57
某人 57
格拉斯 57
毋庸置疑 57
水源 57
沙漠 57
流感 57
温 57
滞后 57
炮制 57
热带 57
牢记 57
独有 57
田 57
相互依赖 57
破 57
社会保险 57
种姓 57
稳 57
第三种 57
第二天 57
舞弊 57
裂痕 57
裨益 57
见解 57
试想 57
诚信 57
诺贝尔和平奖 57
谈判者 57
足 57
辩解 57
迟缓 57
追加 57
遗传学 57
酒店 57
里面 57
银行资本 57
铺平 57
阿布 57
零售商 57
顺差 57
领地 57
AMR 56
Climate 56
Commission 56
ISIS 56
am 56
ot@@ 56
que 56
东北亚 56
两天 56
乱局 56
仍能 56
价@@ 56
位列 56
保持稳定 56
修 56
共同努力 56
列出 56
劫持 56
卓著 56
博科 56
回落 56
圣地亚哥 56
奢侈品 56
少量 56
思路 56
悲伤 56
情报部门 56
承@@ 56
探@@ 56
收买 56
斗@@ 56
断言 56
斯坦福 56
斯基 56
旷日持久 56
暴乱 56
更为严重 56
松散 56
枚 56
桑@@ 56
毁 56
沃尔福 56
没收 56
流域 56
涌向 56
灌输 56
物价指数 56
球队 56
电信 56
痛@@ 56
私下 56
穆@@ 56
符号 56
第四个 56
篇 56
纵容 56
结构调整 56
结算 56
维度 56
网络安全 56
美元汇率 56
肮脏 56
胜过 56
自然而然 56
致 56
航空公司 56
艾伦 56
苏维埃 56
草@@ 56
草根 56
莫拉莱 56
警钟 56
让位 56
调低 56
象征意义 56
赔偿 56
边@@ 56
退休者 56
遇刺 56
道义 56
销毁 56
问及 56
阿勒颇 56
限定 56
餐 56
马里奥 56
1974 55
1984 55
6000 55
Al 55
ESM 55
ell@@ 55
ent@@ 55
ir 55
ot 55
ra 55
一丝 55
一同 55
一根 55
上扬 55
不算 55
世界舞台 55
两国关系 55
之战 55
乌 55
仍旧 55
令人吃惊 55
保持沉默 55
信托 55
全方位 55
共鸣 55
关键点 55
再次发生 55
写@@ 55
加紧 55
反响 55
受访者 55
合力 55
名誉 55
含 55
品@@ 55
哥斯达黎加 55
固定资产 55
国际清算银行 55
大事 55
大厦 55
大大降低 55
大革命 55
大马士革 55
头寸 55
夺回 55
姆@@ 55
子公司 55
孱弱 55
对照 55
差额 55
带头 55
席 55
底@@ 55
惨败 55
战线 55
截然 55
挤压 55
捷克斯洛伐克 55
提供者 55
撒 55
支点 55
施 55
旗帜 55
旱灾 55
暴力事件 55
样本 55
格里 55
次@@ 55
歌 55
正规 55
氦 55
水面 55
汉密尔顿 55
沉迷于 55
法令 55
活着 55
流氓 55
消费量 55
清 55
漂亮 55
牛肉 55
牧师 55
犹太教 55
狂@@ 55
玛 55
瓶颈 55
略@@ 55
目@@ 55
盲目 55
眼睛 55
碰撞 55
离婚 55
科学界 55
移 55
税收政策 55
第@@ 55
管理@@ 55
篇文章 55
红线 55
纽约市 55
联@@ 55
脱节 55
英国@@ 55
萨卡 55
认清 55
谋@@ 55
贝鲁特 55
贵族 55
赴 55
较少 55
较弱 55
这两项 55
远超 55
选择性 55
里程碑 55
野生 55
闻名 55
限额 55
难免 55
非暴力 55
韧性 55
风潮 55
高端 55
GDP@@ 54
Partnership 54
z 54
与其说 54
丧命 54
为时过早 54
之旅 54
之源 54
乡村 54
云 54
佩@@ 54
依@@ 54
促 54
借@@ 54
倾听 54
光是在 54
关塔那摩 54
军备竞赛 54
前首相 54
助手 54
午餐 54
卡尔德隆 54
印刷 54
各自为政 54
同期 54
坦@@ 54
域 54
增 54
多边贸易 54
大权 54
太大 54
寨 54
尤@@ 54
州政府 54
广受 54
异 54
形@@ 54
德国联邦 54
急剧下降 54
总体经济 54
慢性病 54
战时 54
手握 54
执政者 54
担当 54
招聘 54
政@@ 54
数亿 54
更换 54
有意识 54
望 54
末期 54
李明博 54
柯@@ 54
殴打 54
流动资金 54
状 54
球迷 54
理论家 54
略高于 54
着@@ 54
福 54
福特 54
筹码 54
素季 54
经济区 54
维克 54
美国联邦 54
老化 54
考@@ 54
而来 54
肆意 54
自大 54
至@@ 54
蒂@@ 54
行不通 54
表决 54
诗人 54
读@@ 54
财政收入 54
资源配置 54
赖以 54
选手 54
酒精 54
野@@ 54
金融家 54
错觉 54
长大 54
附加值 54
降息 54
须知 54
首 54
魔鬼 54
鲜明对比 54
44 53
AI 53
ECB 53
En@@ 53
oc@@ 53
res@@ 53
一致同意 53
三十 53
不稳定性 53
两国政府 53
中性 53
丽 53
乌里韦 53
二十@@ 53
交通@@ 53
人工 53
以致于 53
仲裁 53
传说 53
住房价格 53
侵略性 53
偏远 53
入学率 53
兹@@ 53
冠军 53
冰@@ 53
减支 53
几种 53
前线 53
加之 53
加盟 53
加税 53
化肥 53
博 53
卫生设施 53
危地马拉 53
即可 53
参@@ 53
受害 53
士@@ 53
声望 53
多家 53
多数派 53
套@@ 53
好战 53
如下 53
守 53
家中 53
尔斯 53
尚@@ 53
尽头 53
崇高 53
工资水平 53
巴以 53
巴解组织 53
市盈率 53
度假 53
开出 53
强健 53
很强 53
得势 53
扣除 53
摆 53
效忠 53
施行 53
有所改善 53
有罪 53
构成威胁 53
果实 53
桑托斯 53
桶 53
派出 53
浓缩铀 53
深渊 53
温床 53
演进 53
烟 53
牛@@ 53
狗 53
独立党 53
癌 53
相互作用 53
碳税 53
程 53
税务 53
空缺 53
第三@@ 53
米歇尔 53
粗暴 53
素质 53
经济模型 53
自由民主党 53
致富 53
节制 53
若非 53
蛋 53
要是 53
记 53
诺言 53
败 53
贩毒 53
贸易逆差 53
躲避 53
这能 53
送@@ 53
逍遥法外 53
通知 53
遗@@ 53
重任 53
陈述 53
降@@ 53
雨 53
青睐 53
预警 53
鱼@@ 53
鸟 53
麦克 53
4000 52
48 52
95% 52
Health 52
af@@ 52
ts 52
x@@ 52
一大半 52
一层 52
七个 52
不如说 52
不明智 52
不管怎样 52
不远 52
与@@ 52
与此相反 52
个州 52
中日 52
主办 52
主角 52
举债 52
乐 52
争辩 52
交战 52
人则 52
低价 52
体内 52
保健 52
候选 52
偏@@ 52
充裕 52
公共开支 52
养 52
养活 52
内尔 52
凯@@ 52
分量 52
创设 52
前后 52
勾结 52
单枪匹马 52
卖出 52
卡特尔 52
卢布 52
去@@ 52
另类 52
同比 52
名人 52
含@@ 52
味 52
基因工程 52
处罚 52
大自然 52
孕育 52
安全感 52
安定 52
害 52
将令 52
小得多 52
市场@@ 52
常用 52
常识 52
年龄段 52
庄稼 52
彼此之间 52
很难说 52
心理学家 52
快@@ 52
怀疑论者 52
思@@ 52
慈善机构 52
所用 52
所知 52
扶持 52
抗衡 52
拖@@ 52
挖掘 52
是非 52
核裁军 52
比索 52
永恒 52
沃尔克 52
爱@@ 52
爱因斯坦 52
牢固 52
猖獗 52
班农 52
瓦尔 52
生动 52
症候 52
登记 52
真实世界 52
算计 52
米尔顿 52
精神疾病 52
纸@@ 52
继任 52
维和部队 52
缺位 52
聚会 52
背上 52
脱贫 52
莎 52
虚伪 52
表@@ 52
裁员 52
订立 52
讨厌 52
诉诸 52
贫困率 52
资金来源 52
轴心 52
过渡期 52
远景 52
逼近 52
银@@ 52
降级 52
首任 52
驾驶 52
骇人听闻 52
鼓吹者 52
1944 51
54 51
FARC 51
Pro@@ 51
Uber 51
ach@@ 51
eb@@ 51
end@@ 51
ud@@ 51
一百年 51
一辆 51
严重后果 51
个性化 51
中是 51
之苦 51
乐观主义 51
亚历山大 51
交 51
亲自 51
人来 51
什@@ 51
令人满意 51
佛@@ 51
假新闻 51
免不了 51
公开市场 51
凭 51
出口导向型 51
分解 51
切尼 51
划@@ 51
创新者 51
勘探 51
匆忙 51
占@@ 51
反感 51
回家 51
圣经 51
在实践中 51
外部性 51
多样 51
宏伟 51
定论 51
尼加拉瓜 51
康@@ 51
归@@ 51
归属 51
当权者 51
总有一天 51
恶意 51
惨遭 51
手脚 51
投资率 51
抽象 51
拉宾 51
拍卖 51
持续时间 51
挑战性 51
挥之不去 51
摒弃 51
摧残 51
救命 51
新来者 51
更难 51
最低水平 51
有何 51
有赖于 51
有鉴于此 51
术 51
极力 51
构造 51
某一 51
核威胁 51
正义党 51
水泥 51
汇@@ 51
特里谢 51
率先 51
玛@@ 51
环节 51
现@@ 51
球@@ 51
甚@@ 51
盘@@ 51
相邻 51
真诚 51
积@@ 51
累进 51
纯 51
细@@ 51
而战 51
而生 51
耐@@ 51
肥 51
英美 51
茶党 51
菌 51
蒙受 51
论@@ 51
诅咒 51
该项 51
诸@@ 51
调动 51
账 51
赞誉 51
越来越少 51
达尔 51
退回 51
递交 51
通用 51
金融时报 51
金融风险 51
闪@@ 51
阿卜杜勒 51
阿尔 51
阿尔巴尼亚 51
随心所欲 51
难以为继 51
非传统 51
非但 51
须 51
19@@ 50
21% 50
85 50
Center 50
Con@@ 50
Ma@@ 50
WTO 50
av@@ 50
aw@@ 50
ay 50
if@@ 50
ity 50
og@@ 50
一书中 50
七 50
上下 50
上空 50
不出所料 50
不可@@ 50
不适 50
业@@ 50
东欧国家 50
丢失 50
严苛 50
主人 50
也好 50
二次 50
五月 50
人中 50
仍会 50
从那以后 50
令人@@ 50
令其 50
伯 50
位@@ 50
俄罗斯政府 50
倾@@ 50
免@@ 50
全人类 50
八 50
公告 50
农地 50
出租车 50
分权 50
创出 50
劝说 50
可控 50
唱@@ 50
困局 50
国际足联 50
大跌 50
失利 50
好好 50
如出一辙 50
威茨 50
季莫申科 50
安全部门 50
封@@ 50
左倾 50
幸存者 50
废物 50
开设 50
强人 50
怀孕 50
急迫 50
总值 50
意料之外 50
抓 50
排挤 50
推论 50
摆@@ 50
政治势力 50
文化大革命 50
斯坦 50
曼谷 50
松@@ 50
果真 50
概括 50
武装部队 50
毫无@@ 50
求助 50
汉 50
浓度 50
物资 50
犹豫不决 50
王 50
生理 50
相连 50
看不见 50
石 50
矿 50
矿业 50
种群 50
窗口 50
第一批 50
第四次 50
签署国 50
类比 50
紧急状态 50
纠结 50
经济秩序 50
缔造者 50
缺 50
美中 50
肆无忌惮 50
茶 50
菲尔 50
萨尔瓦多 50
蒙受损失 50
规格 50
警报 50
语@@ 50
谢@@ 50
赶下台 50
起源于 50
转折 50
迅猛 50
逆差 50
难以想象 50
雪@@ 50
页 50
领导权 50
食品安全 50
饭店 50
首要任务 50
马杜罗 50
龙@@ 50
1949 49
49 49
65% 49
8000 49
Jean 49
L 49
Summers 49
ak 49
est 49
ill@@ 49
á 49
一臂之力 49
一致意见 49
三月 49
下一场 49
不同寻常 49
不堪重负 49
世界市场 49
严酷 49
云@@ 49
任意 49
保有 49
做过 49
全都 49
公平竞争 49
内罗毕 49
出国 49
出生率 49
击 49
创下 49
制订 49
剧 49
助@@ 49
势@@ 49
匿名 49
双 49
合情合理 49
向上 49
哈维尔 49
喜@@ 49
圣诞节 49
坐等 49
基本@@ 49
增加值 49
多余 49
大增 49
大米 49
大通 49
失业问题 49
契合 49
奢侈 49
威廉 49
学费 49
定罪 49
密切相关 49
尼日尔 49
届时 49
岛国 49
工人阶级 49
巨 49
延@@ 49
引来 49
忠于 49
态 49
悲剧性 49
想方设法 49
感知 49
手册 49
拉姆斯菲尔德 49
拟议 49
拥抱 49
撒谎 49
撞 49
数万亿美元 49
旗号 49
无权 49
旧有 49
最差 49
最穷 49
有损于 49
村民 49
样 49
民营企业 49
沙皇 49
泰米尔 49
淡化 49
灾 49
研制 49
私营企业 49
算法 49
终@@ 49
经济损失 49
背@@ 49
胜@@ 49
腹泻 49
舒适 49
获 49
营 49
落到 49
虚@@ 49
衍生 49
许下 49
贬低 49
迁往 49
这样的话 49
远大于 49
连通性 49
避风港 49
金融交易 49
银行业务 49
阿尔@@ 49
陆军 49
非正规 49
题 49
高薪 49
鲨鱼 49
1500 48
2500 48
43 48
Ab@@ 48
Ad@@ 48
CDS 48
Financial 48
Fund 48
ind@@ 48
ist@@ 48
ne 48
pro@@ 48
tr@@ 48
– 48
一向 48
一幅 48
一门 48
三名 48
三项 48
专业知识 48
世界级 48
业已 48
严重破坏 48
中来 48
丽@@ 48
了@@ 48
事宜 48
五国 48
他国 48
伸出 48
保护措施 48
公式 48
公民权 48
关系密切 48
内涵 48
刀 48
分娩 48
分离主义 48
刚果 48
利率政策 48
协同 48
南极 48
厌倦 48
及@@ 48
古代 48
史@@ 48
向往 48
听证 48
和平共处 48
因果关系 48
土耳其政府 48
地域 48
处@@ 48
复国主义 48
夭折 48
屈辱 48
广@@ 48
底线 48
弄 48
引爆 48
往@@ 48
徒劳 48
扎伊 48
批判性 48
抗争 48
护士 48
拉大 48
拖欠 48
摩@@ 48
新一届 48
方方面面 48
无误 48
既定 48
暴力行为 48
更是如此 48
最先 48
本该 48
李光耀 48
极易 48
枪击 48
根本原因 48
欧安组织 48
欧派 48
正逢 48
每位 48
洛杉矶 48
流量 48
浮出 48
游 48
灯 48
热爱 48
爱国 48
瑞 48
用词 48
留 48
科夫 48
穆勒 48
空洞 48
笑 48
简@@ 48
箱 48
米洛舍维奇 48
纸币 48
给定 48
绩效 48
维奇 48
美国共和党 48
美国市场 48
肉类 48
自由党 48
萨利赫 48
萨达特 48
薄 48
诉 48
负责人 48
跟上 48
输@@ 48
迷惑 48
追逐 48
铁幕 48
除@@ 48
雅克 48
集合 48
顺 48
馆 48
马萨诸塞州 48
23% 47
46 47
IF@@ 47
ash@@ 47
ce 47
ch 47
ence 47
ili@@ 47
ni@@ 47
一对 47
一席之地 47
上要 47
上调 47
下个月 47
不容忽视 47
不行 47
专长 47
世界@@ 47
严重不足 47
事例 47
五倍 47
人心 47
人手 47
什维利 47
伴侣 47
低得 47
佛教 47
元@@ 47
兜售 47
公决 47
兴盛 47
几项 47
凯利 47
切尔诺贝利 47
刊登 47
化身 47
厄运 47
反对票 47
发动机 47
周边国家 47
哈耶克 47
商业@@ 47
国防部 47
堡垒 47
墨西哥人 47
外交部 47
大到 47
大都 47
大错特错 47
奥斯本 47
如若 47
安全@@ 47
室内 47
容 47
对华 47
寻租 47
少于 47
幕 47
归还 47
心脏 47
怀旧 47
急速 47
想一想 47
意欲 47
扎尔 47
技术@@ 47
抑郁 47
护照 47
拥护 47
捐助者 47
提炼 47
整顿 47
斗 47
料 47
新疆 47
新闻报道 47
显@@ 47
暴@@ 47
暴君 47
未可知 47
权宜之计 47
来得 47
核聚变 47
欧尔 47
母国 47
民主改革 47
汉@@ 47
派@@ 47
浮动汇率 47
消@@ 47
深感 47
渔民 47
漠不关心 47
热点 47
牢牢 47
牵涉 47
狭窄 47
用尽 47
盛@@ 47
短时间 47
石油市场 47
社 47
社会化 47
端倪 47
第三世界 47
细致 47
网络@@ 47
罗兴亚人 47
翻一番 47
脑@@ 47
莫桑比克 47
菲@@ 47
著称 47
表象 47
解放出来 47
设 47
费舍尔 47
走到 47
跌幅 47
跳@@ 47
过大 47
这块 47
进口品 47
遵从 47
邻邦 47
银行存款 47
错失 47
陈旧 47
震荡 47
青年人 47
高回报 47
高级别 47
鼓舞人心 47
1931 46
26% 46
NGO 46
New 46
ant 46
ci@@ 46
ie 46
ov 46
per@@ 46
一口气 46
一点点 46
一百@@ 46
一间 46
一颗 46
上市公司 46
不住 46
与会 46
之情 46
乍一看 46
乡@@ 46
二是 46
五岁 46
亚洲各国 46
交接 46
产油国 46
亲属 46
人力资源 46
从未有过 46
供应量 46
便@@ 46
保险@@ 46
先生 46
公斤 46
公立学校 46
六方会谈 46
关键时刻 46
兴@@ 46
决意 46
到位 46
剧@@ 46
医 46
十字路口 46
卡尼 46
卡钦斯基 46
原谅 46
参拜 46
反腐败 46
发病率 46
可取 46
可靠性 46
史上 46
同情心 46
呼吸 46
响 46
嗤之以鼻 46
国旗 46
国际制裁 46
地步 46
场景 46
坚定不移 46
基什 46
夏 46
大头 46
奴役 46
奴隶 46
定性 46
尼斯 46
差@@ 46
巴希尔 46
年轻一代 46
并存 46
广袤 46
张@@ 46
彻底改变 46
志愿者 46
怒火 46
恶 46
惨@@ 46
惨重 46
惩罚性 46
护 46
护@@ 46
挽回 46
推崇 46
支 46
支援 46
收拾 46
收费 46
斡旋 46
旁 46
杂@@ 46
权力斗争 46
根@@ 46
格斯 46
格格不入 46
每人 46
没人会 46
涨幅 46
淡水 46
深厚 46
潮@@ 46
热量 46
爱沙尼亚 46
珍视 46
生机勃勃 46
电子邮件 46
疼痛 46
瘟疫 46
知@@ 46
研究院 46
碳氢化合物 46
章程 46
繁荣期 46
纳米比亚 46
纳粹德国 46
纵观 46
绿党 46
罪魁 46
美孚 46
美金 46
老师 46
耶 46
胜利者 46
自我实现 46
节节 46
草 46
表述 46
试@@ 46
谈判桌 46
贷 46
赦免 46
车辆 46
过热 46
过量 46
这比 46
连贯 46
针 46
阳性 46
阿布哈兹 46
雅 46
韦@@ 46
预知 46
餐厅 46
110 45
140 45
1969 45
3D 45
67 45
Bernanke 45
Br@@ 45
CCS 45
Gu@@ 45
Har@@ 45
Policy 45
Security 45
V 45
all@@ 45
ang@@ 45
ard 45
ge 45
ya 45
三角洲 45
之比 45
了不起 45
互不 45
交出 45
交易税 45
亿美金 45
从此 45
代孕 45
伊拉克政府 45
佐 45
依 45
克维尔 45
六月 45
内陆 45
决非 45
出资者 45
分成 45
列举 45
初创 45
前提条件 45
割裂 45
加权 45
十八 45
厅 45
历@@ 45
反叛 45
取悦 45
合作者 45
听证会 45
告 45
周末 45
嘴 45
囚禁 45
土著 45
墨西哥湾 45
夏季 45
外衣 45
多尔 45
大亨 45
大局 45
大有裨益 45
太久 45
失败者 45
奥尔默特 45
尤为重要 45
尼古拉 45
岁月 45
市@@ 45
广阔 45
弃 45
微生物 45
德克萨斯州 45
忙 45
忧心 45
打印 45
执@@ 45
执掌 45
扰乱 45
抬高 45
拉里 45
指明 45
挑战者 45
接壤 45
措辞 45
政治学 45
数月 45
无可避免 45
无用 45
日本央行 45
早先 45
构筑 45
标@@ 45
梵蒂冈 45
棒 45
毫不犹豫 45
河@@ 45
测 45
涅 45
涨 45
深深地 45
湾 45
火车 45
牵头 45
电子@@ 45
画面 45
皇帝 45
着重于 45
立法机构 45
笼罩 45
简单化 45
约合 45
经济收益 45
绝不能 45
继承人 45
维基 45
美国式 45
联合会 45
肥料 45
背负 45
能以 45
自负 45
色情 45
诱使 45
谅解 45
谈@@ 45
货@@ 45
购 45
贯穿 45
辅助 45
近十年 45
这一@@ 45
钻井 45
铁 45
铲除 45
错配 45
闲置 45
阿里巴巴 45
限 45
霍梅尼 45
颜色 45
飞行 45
骚扰 45
高压 45
高点 45
高调 45
1977 44
2019 44
33% 44
59 44
64 44
G7 44
U 44
ic 44
ina 44
ly 44
一月 44
三方 44
上个世纪 44
不可否认 44
不景气 44
中央@@ 44
中美关系 44
之力 44
亲眼目睹 44
人造 44
付钱 44
体育@@ 44
修正主义 44
停火协议 44
先知 44
入学 44
军国主义 44
冬天 44
减 44
几百万 44
出面 44
分散化 44
列宁 44
判定 44
前面 44
力气 44
十国集团 44
单身 44
卫生工作者 44
印证 44
去除 44
受众 44
古怪 44
叫停 44
在技术上 44
地理位置 44
基准利率 44
塞内加尔 44
墨尔本 44
处方 44
威尔 44
孤独 44
宗 44
宽@@ 44
密特朗 44
寻常 44
少之又少 44
少数几个 44
尼古拉斯 44
干脆 44
年化 44
引力 44
当地人 44
征@@ 44
得益 44
心里 44
怀 44
愿 44
战略目标 44
战败 44
所作 44
投降 44
拉动型 44
控 44
收场 44
收成 44
敌视 44
救世主 44
敢 44
数据@@ 44
无国界 44
无能为力 44
既然如此 44
月@@ 44
月度 44
有效率 44
朗@@ 44
极为重要 44
果 44
枪@@ 44
档案 44
楼 44
欣赏 44
正确性 44
毁坏 44
民意测验 44
民族@@ 44
民营 44
永@@ 44
泥潭 44
海水 44
消化 44
热浪 44
煽动性 44
父 44
环保主义者 44
现实情况 44
瓦鲁法 44
甚微 44
生于 44
看重 44
矿产 44
硬币 44
碰到 44
祖@@ 44
神奇 44
神经@@ 44
积极性 44
称得上 44
稳@@ 44
空前 44
第一轮 44
第三条 44
纪念碑 44
纳米技术 44
经济援助 44
经验丰富 44
绝佳 44
置 44
美国参议院 44
背负着 44
能比 44
自利 44
自杀式 44
苛刻 44
苹果公司 44
莱 44
蓝@@ 44
蛋糕 44
西雅图 44
诸国 44
调解 44
谢里夫 44
财政危机 44
资质 44
跟随 44
远见卓识 44
逊 44
逝世 44
邮件 44
重叠 44
错综复杂 44
防 44
阴@@ 44
阿亚图 44
零@@ 44
非凡 44
非营利 44
韦 44
驯服 44
2100 43
41 43
47 43
51 43
7000 43
99 43
III 43
Mark 43
Pen 43
Res@@ 43
eh@@ 43
erg@@ 43
est@@ 43
ow 43
一书 43
一切都是 43
一厢情愿 43
上层 43
下游 43
不合时宜 43
争吵 43
亮 43
付款 43
令人遗憾 43
以期 43
价格@@ 43
传输 43
但愿 43
住所 43
余下 43
信息@@ 43
借入 43
先驱 43
六十年 43
共同之处 43
兼职 43
内心 43
军费 43
冰盖 43
创造条件 43
制造者 43
刺杀 43
办 43
务 43
十五年 43
协调一致 43
单靠 43
印巴 43
双管齐下 43
叛乱分子 43
口头 43
古兰经 43
各式各样 43
合乎 43
名称 43
商业化 43
垂@@ 43
埋 43
士气 43
大学生 43
如是说 43
媒介 43
家庭成员 43
对立面 43
小农 43
就让 43
尸体 43
带入 43
幼稚 43
引渡 43
忽略不计 43
惠@@ 43
戴@@ 43
手上 43
打下 43
扫清 43
承包商 43
投资人 43
拆@@ 43
拥 43
放到 43
数百年 43
无可 43
是@@ 43
显露 43
普什图 43
普遍性 43
曾几何时 43
最受 43
木材 43
杜绝 43
民主运动 43
水电 43
池 43
泛美 43
注射 43
派对 43
温暖 43
生产能力 43
疲劳 43
皇家 43
相一致 43
相容 43
确@@ 43
确定性 43
私募 43
稍@@ 43
立陶宛 43
童 43
管治 43
紧急情况 43
组@@ 43
综合性 43
网络攻击 43
置@@ 43
置之不理 43
美国最高法院 43
耐药 43
耶@@ 43
联储 43
联邦调查局 43
自由@@ 43
至上 43
街 43
谷 43
质@@ 43
贵@@ 43
赶 43
超低 43
趋于 43
辖区 43
过后 43
这有 43
进口商品 43
迫不及待 43
选定 43
采伐 43
量@@ 43
问鼎 43
陈@@ 43
隔@@ 43
音@@ 43
领衔 43
餐馆 43
香@@ 43
马尔@@ 43
高潮 43
27% 42
38% 42
Alan 42
American 42
CDU 42
El@@ 42
Group 42
IBM 42
Mor@@ 42
N 42
Su@@ 42
United 42
ass@@ 42
ment 42
ph@@ 42
pl@@ 42
ru@@ 42
und@@ 42
ve 42
一个多 42
一季度 42
一边倒 42
三者 42
不停 42
东扩 42
中印 42
为时尚早 42
之声 42
之类 42
习 42
亚太 42
交易员 42
人口@@ 42
仓 42
仗 42
付费 42
任何一方 42
传导 42
伪@@ 42
佛罗里达州 42
俘虏 42
保 42
假以时日 42
偏袒 42
克里斯 42
兴奋剂 42
冗长 42
出发点 42
创@@ 42
劳动@@ 42
半个 42
华盛顿邮报 42
叶@@ 42
向着 42
回复 42
固执 42
国家元首 42
国民党 42
国民议会 42
国际法庭 42
图书馆 42
圈@@ 42
堡 42
奇怪的是 42
奈 42
奉@@ 42
威权 42
学历 42
学界 42
完整性 42
定居者 42
对外贸易 42
导师 42
尤科斯 42
展现出 42
巴拿马 42
年期 42
开发新 42
开销 42
异议 42
引诱 42
德斯坦 42
性格 42
悠久 42
情境 42
我会 42
所在国 42
抓住机会 42
拜登 42
挺 42
损伤 42
据@@ 42
敏感性 42
教导 42
数千名 42
文本 42
文盲 42
无休止 42
无家可归 42
暗淡 42
朝向 42
期刊 42
标准化 42
梦@@ 42
模棱两可 42
正确方向 42
正试图 42
民间团体 42
波斯 42
波特 42
混@@ 42
演员 42
潜艇 42
灭亡 42
炮 42
犯有 42
现时代 42
生活@@ 42
百分之@@ 42
相关者 42
相匹配 42
相悖 42
看好 42
着实 42
矿物 42
礼 42
离任 42
私利 42
科学@@ 42
移@@ 42
移植 42
精诚合作 42
纽约州 42
经济总量 42
结果显示 42
美国会 42
美国股市 42
老年 42
股票价格 42
脚@@ 42
自卫队 42
至此 42
色@@ 42
艺术品 42
英法 42
荒@@ 42
观@@ 42
计@@ 42
诚意 42
谷物 42
赤贫 42
走进 42
起步 42
辍学 42
辩 42
还款 42
这要 42
钟 42
阐明 42
防治 42
陌生人 42
降雨 42
难以实现 42
震@@ 42
面值 42
顶端 42
领土完整 42
颓势 42
食用 42
马哈茂德 42
马拉 42
驾驭 42
高加索 42
麦加 42
默@@ 42
1940 41
1956 41
44% 41
Cl@@ 41
Initiative 41
Larry 41
Richard 41
US 41
ana 41
ani 41
ik@@ 41
im 41
ion 41
uc@@ 41
一副 41
七十年代 41
不懈 41
东欧地区 41
两类 41
之行 41
乏力 41
争斗 41
今年年底 41
伊斯兰共和国 41
侵占 41
信任度 41
偏爱 41
做会 41
储藏 41
充@@ 41
充满希望 41
兆 41
克里姆林 41
六 41
共同市场 41
冲绳 41
几代人 41
刚@@ 41
劳 41
医疗法 41
卡梅隆 41
卫生@@ 41
县 41
双赢 41
双重标准 41
另一边 41
可卡因 41
名副其实 41
哥 41
啊 41
喷@@ 41
圣保罗 41
坎@@ 41
坏账 41
坚称 41
增幅 41
多位 41
多极世界 41
奋力 41
契机 41
套 41
女权主义 41
安哥拉 41
定制 41
实物 41
家乡 41
容@@ 41
容纳 41
密切合作 41
小孩 41
层级 41
展@@ 41
巡@@ 41
巴塞罗那 41
巴菲特 41
平均收入 41
幻灭 41
应得 41
开创性 41
开放市场 41
微型 41
忏悔 41
志@@ 41
怀有 41
思 41
惨痛 41
惯性 41
意想不到 41
战事 41
战前 41
才华 41
打压 41
指南 41
推波助澜 41
收效甚微 41
政治局 41
文字 41
斯蒂格利茨 41
新年 41
无形 41
明晰 41
易于 41
曾@@ 41
有太多 41
本世纪末 41
柔性 41
核查 41
横行 41
欢呼 41
正像 41
此基础 41
此项 41
毒性 41
比不上 41
汇集 41
沙拉 41
洗钱 41
液压 41
火上浇油 41
炫耀 41
特纳 41
犯罪行为 41
独立国家 41
猫 41
率@@ 41
王室 41
现阶段 41
理想主义 41
痕迹 41
盟军 41
直观 41
看清 41
破产法 41
礼貌 41
科菲 41
筹集资金 41
管理人员 41
管理机构 41
粗@@ 41
纠缠 41
纳粹主义 41
统@@ 41
美分 41
聆听 41
胃口 41
臃肿 41
自给自足 41
若干年 41
荒唐 41
莱恩 41
血统 41
行为准则 41
西奈 41
议长 41
试图用 41
话@@ 41
该法 41
贩卖 41
贸易量 41
达卡 41
迄今 41
这令 41
附@@ 41
陈光诚 41
险@@ 41
难怪 41
面包 41
面目 41
韩@@ 41
麻省理工学院 41
1900 40
30@@ 40
95 40
De@@ 40
Friedman 40
Marine 40
dis@@ 40
ker 40
ure 40
ü 40
一台 40
一把 40
一整套 40
一无所知 40
上游 40
不均 40
东德 40
个人@@ 40
为数 40
之谜 40
乘客 40
人民银行 40
伊尔 40
佩 40
儒家 40
公顷 40
共同化 40
具体@@ 40
刀@@ 40
创办 40
别提 40
到访 40
前辈 40
务@@ 40
助理 40
劫@@ 40
劳动法 40
勾@@ 40
半年 40
南奥塞梯 40
卡尔德 40
卡路里 40
友谊 40
反动 40
发展@@ 40
发电量 40
受控 40
受灾 40
古典 40
各级 40
告别 40
咄咄逼人 40
哈塔米 40
因特网 40
国与国 40
增多 40
外人 40
多极化 40
夜 40
天空 40
太少 40
夫斯基 40
奖@@ 40
婚@@ 40
学术界 40
它@@ 40
寄望 40
尤先科 40
尼赫鲁 40
尾 40
居然 40
岛上 40
市场竞争 40
平行 40
并用 40
庆幸 40
延续下去 40
弗朗索瓦 40
影像 40
征 40
怎么样 40
怒 40
患病 40
悲@@ 40
想必 40
所致 40
所起 40
把戏 40
抛售 40
拉姆 40
拉美地区 40
拒 40
挂 40
换成 40
插手 40
摩 40
改变现状 40
放开 40
政治犯 40
散布 40
文献 40
斗士 40
无可@@ 40
无风险 40
明确指出 40
本意 40
本文 40
条例 40
树@@ 40
校 40
森@@ 40
植入 40
次数 40
每一项 40
民主派 40
民主联盟 40
水果 40
汇聚 40
沿 40
洋@@ 40
流传 40
涉嫌 40
深层 40
深远影响 40
演习 40
烂摊子 40
煤电 40
熊 40
牛津大学 40
狂欢 40
王子 40
电台 40
监察 40
直截了当 40
直接参与 40
看一看 40
知晓 40
礼@@ 40
离谱 40
秀 40
窘境 40
立法机关 40
竞相 40
粉碎 40
纷争 40
纽@@ 40
维持现状 40
综合症 40
缩@@ 40
罪@@ 40
美欧 40
翻了一番 40
耳@@ 40
联 40
联军 40
联邦制 40
脱盟 40
脱颖而出 40
腰包 40
腿 40
节@@ 40
萌芽 40
被占领土 40
西伯利亚 40
西尔 40
警觉 40
计入 40
访 40
该州 40
误判 40
诱惑力 40
负担得起 40
财@@ 40
贫富差距 40
走强 40
越长 40
跳 40
载 40
还远 40
迟早会 40
迪克 40
退缩 40
逃 40
途 40
都@@ 40
重生 40
铜 40
阵痛 40
隔绝 40
零排放 40
面孔 40
面纱 40
面貌 40
音 40
领 40
领海 40
饲养 40
首选 40
马克里 40
骨 40
鸽派 40
1932 39
55% 39
58 39
88 39
Bank 39
Donald 39
Front 39
Investment 39
Kh@@ 39
Q@@ 39
SPD 39
Union 39
ampnbsp 39
ell 39
id 39
les 39
ner 39
of@@ 39
ons 39
ue 39
ug@@ 39
一个@@ 39
一刀切 39
一枚 39
一线 39
下达 39
不明 39
不高 39
与众不同 39
东亚地区 39
东非 39
严密 39
中央集权 39
举步维艰 39
乌兹别克斯坦 39
乌斯 39
习俗 39
亚的斯亚贝巴 39
以邻为壑 39
仰仗 39
价格下降 39
伊斯兰堡 39
传媒 39
体会 39
供水 39
信誓旦旦 39
做生意 39
免疫系统 39
全球战略 39
公民权利 39
兰德 39
净@@ 39
出对 39
创 39
删除 39
别说 39
剧增 39
助力 39
医学院 39
升至 39
卢 39
卢卡申科 39
厘清 39
发作 39
发布会 39
发生冲突 39
叶 39
合作社 39
同化 39
听从 39
告诫 39
和平解决 39
哈特 39
国家主义 39
国际标准 39
国际舞台 39
在意 39
地区冲突 39
增加收入 39
大惊小怪 39
大行其道 39
好坏 39
媒体报道 39
季@@ 39
审讯 39
尔特 39
屋 39
工业国 39
巨变 39
巴尔 39
幼@@ 39
开办 39
得知 39
怀@@ 39
总书记 39
惧怕 39
憧憬 39
房贷 39
抚养 39
抛开 39
押 39
拥护者 39
拿@@ 39
撼动 39
收容 39
放下 39
政治经济学 39
数千亿美元 39
数百@@ 39
时尚 39
晚上 39
最低点 39
最少 39
有形 39
有所作为 39
有所提高 39
有钱 39
望@@ 39
机密 39
杯 39
某项 39
死胡同 39
母@@ 39
每日 39
污点 39
法郎 39
津贴 39
渐@@ 39
渡过 39
漠视 39
濒临 39
煽动者 39
牙@@ 39
特有 39
犯人 39
生物医学 39
用到 39
电报 39
真心 39
眼球 39
签字 39
累@@ 39
约@@ 39
线路 39
美国国务院 39
肥沃 39
自下而上 39
自然选择 39
自豪感 39
良@@ 39
艾森豪威尔 39
著 39
蒙羞 39
蔬菜 39
虚构 39
衡量标准 39
被告 39
要不是 39
见效 39
詹 39
许可证 39
设计师 39
评论员 39
财政纪律 39
走廊 39
身亡 39
过低 39
迈@@ 39
这篇 39
违法 39
连同 39
遥不可及 39
遴选 39
重新启动 39
金斯 39
金融@@ 39
销 39
错@@ 39
长足 39
陈词滥调 39
降幅 39
除去 39
集中营 39
零售业 39
非常简单 39
顾 39
颁发 39
首当其冲 39
麦 39
黎巴嫩真主党 39
黑色 39
43% 38
52 38
68 38
AAA 38
Ac@@ 38
Foundation 38
Frank 38
G8 38
art 38
ens@@ 38
los 38
um 38
un 38
v 38
ä 38
一大批 38
一大步 38
三重 38
不小 38
不感兴趣 38
不见 38
个人所得税 38
丰裕 38
丹佛 38
为生 38
之高 38
乔@@ 38
二十五年 38
五角大楼 38
人格 38
代议制 38
以求 38
伊丽莎白 38
你@@ 38
侵袭 38
信息时代 38
借债 38
健@@ 38
光荣 38
全面禁止 38
公职 38
其余部分 38
农业部门 38
冲销 38
几内亚 38
出局 38
分销 38
划算 38
副@@ 38
劳尔 38
十一月 38
十分之一 38
卡恩 38
卡车 38
即时 38
发声 38
发端 38
另一@@ 38
可预测性 38
吃惊 38
同性 38
周刊 38
哈里 38
商业活动 38
商讨 38
国家队 38
国际象棋 38
在位 38
城市居民 38
塔伊 38
增值 38
多亏 38
大大提高 38
大打折扣 38
大洲 38
太晚 38
存储 38
宁可 38
实际收入 38
客@@ 38
密度 38
富于 38
尾声 38
开发商 38
弗朗西斯 38
影@@ 38
怎样才能 38
怒@@ 38
恩斯 38
成因 38
战斗机 38
所受 38
执照 38
扫@@ 38
投入品 38
抹黑 38
指示 38
挺身而出 38
捆绑 38
排队 38
推到 38
政府首脑 38
政治权利 38
散播 38
数万 38
数不清 38
斯特恩 38
新奥尔良 38
新鲜事 38
旁@@ 38
更佳 38
服@@ 38
服务提供商 38
极端化 38
格尔 38
欲@@ 38
正轨 38
每隔 38
求助于 38
没法 38
流派 38
浓厚 38
涨@@ 38
烧@@ 38
父辈 38
狂 38
玷污 38
甩卖 38
留欧 38
病态 38
病症 38
皇室 38
相媲美 38
知情 38
碳@@ 38
票数 38
稀少 38
稍 38
穆兄会 38
空军 38
窃听 38
笑@@ 38
粮食产量 38
糖@@ 38
纯@@ 38
纳赛尔 38
结果表明 38
维持下去 38
肤浅 38
胜选 38
自治权 38
花旗集团 38
衣@@ 38
袭 38
解密 38
誓言 38
论述 38
象@@ 38
财力 38
责任感 38
购@@ 38
踏上 38
转变成 38
较之 38
辈 38
还给 38
进口关税 38
遍及 38
邻近 38
重拾 38
重蹈覆辙 38
重重的 38
金融界 38
问责制 38
难逃 38
集中精力 38
霍尔 38
露 38
非常低 38
靠@@ 38
预防措施 38
领先地位 38
骨@@ 38
麻疹 38
170 37
56 37
76 37
Ban@@ 37
CBO 37
Kenneth 37
Stability 37
comm@@ 37
for@@ 37
ib@@ 37
ing@@ 37
ti 37
tive 37
ur 37
一党 37
一地 37
一日 37
七十年 37
上次 37
下周 37
下议院 37
不安全感 37
不结盟运动 37
丑陋 37
东北部 37
中为 37
为所欲为 37
乐意 37
乙醇 37
九月 37
亚洲开发银行 37
交往 37
交谈 37
产品@@ 37
人口比例 37
亿英镑 37
仇视 37
今@@ 37
代名词 37
令人担心 37
伏@@ 37
传言 37
伯尼 37
俗@@ 37
兀鹫 37
六大 37
养殖 37
分红 37
列岛 37
办@@ 37
加尔 37
动武 37
劳伦斯 37
即刻 37
历史@@ 37
参照 37
参观 37
发誓 37
取得胜利 37
叛@@ 37
可耻 37
台@@ 37
后裔 37
后退 37
启示 37
喜爱 37
圣彼得堡 37
地想 37
均@@ 37
基尼系数 37
塔纳 37
外表 37
大火 37
太远 37
好几个 37
妖魔化 37
子弹 37
安保 37
安德鲁 37
宝@@ 37
害@@ 37
导 37
小镇 37
尖阁 37
尼察 37
局@@ 37
局外人 37
屋主 37
已成 37
幸免 37
床 37
当天 37
录像 37
恶魔 37
懂得 37
手法 37
承担风险 37
折@@ 37
抵触 37
拼@@ 37
描绘成 37
操控 37
改写 37
数十@@ 37
文官 37
斯托克 37
方兴未艾 37
无与伦比 37
无害 37
无法解释 37
时不时 37
显 37
普斯 37
暴徒 37
更何况 37
有余 37
朝鲜战争 37
果@@ 37
某位 37
查理 37
模拟 37
正是如此 37
歧视性 37
歪曲 37
毛里求斯 37
民主人士 37
民粹 37
水坝 37
汀 37
汽车@@ 37
沃尔夫 37
海洋法 37
濒危 37
灰@@ 37
灵@@ 37
版图 37
牲畜 37
理顺 37
生物@@ 37
疗效 37
百姓 37
相形见绌 37
相适应 37
科学技术 37
科特迪瓦 37
秘诀 37
稍微 37
突发 37
第一季度 37
第六 37
等候 37
策 37
签名 37
红色 37
纽带 37
组装 37
终 37
终点 37
老生常谈 37
职业培训 37
股@@ 37
舒@@ 37
苦 37
蒙 37
蒙蔽 37
行之有效 37
裁量 37
西班牙人 37
许@@ 37
诱导 37
谣言 37
象棋 37
贝尔斯 37
贫民窟 37
贸易额 37
资@@ 37
资金流 37
赶@@ 37
超市 37
路德 37
身着 37
载体 37
达赖喇嘛 37
逊尼 37
镜 37
防空 37
阿姆斯特丹 37
附属 37
需@@ 37
非盟 37
顿巴斯 37
飞地 37
饿死 37
鸡 37
鼓@@ 37
36% 36
450 36
62 36
AIG 36
AfD 36
Cor@@ 36
Krugman 36
Man@@ 36
ODA 36
ance 36
ee 36
ement 36
ern@@ 36
par@@ 36
ting 36
ton 36
{ 36
一则 36
一千@@ 36
一时期 36
万灵丹 36
下定决心 36
不起作用 36
丝@@ 36
两条 36
之策 36
乍 36
五分 36
优雅 36
传闻 36
伤口 36
作业 36
假期 36
像@@ 36
充分发挥 36
入境 36
八月 36
公海 36
军事援助 36
几近 36
出口商品 36
创意 36
利弊 36
前来 36
劲 36
势在必行 36
勾勒 36
北爱尔兰 36
医改 36
厚@@ 36
参与度 36
同类 36
后盾 36
吸@@ 36
响亮 36
唯恐 36
国家级 36
国际性 36
地要 36
坏@@ 36
增兵 36
墨@@ 36
多出 36
多极 36
大佬 36
大师 36
大本营 36
太低 36
失当 36
奖赏 36
奥运 36
始@@ 36
威力 36
存有 36
实际行动 36
宫颈癌 36
宾@@ 36
对外部 36
射 36
工作组 36
市场机制 36
布达佩斯 36
帮@@ 36
幅 36
干净 36
平均@@ 36
年纪 36
延期 36
开放性 36
开脱 36
式微 36
当政 36
形态 36
心理健康 36
忍@@ 36
怀着 36
恰逢 36
患上 36
想像 36
戏 36
扎克 36
找@@ 36
抱负 36
拆除 36
拉丁 36
捷径 36
摄入 36
改善生活 36
改观 36
敞口 36
斯坦福大学 36
旗下 36
显现出来 36
普罗 36
校长 36
梅纳德 36
棉花 36
横跨 36
歌@@ 36
正以 36
民事 36
民权 36
水准 36
永不 36
汗 36
渐行 36
灵感 36
熊市 36
熟知 36
特工 36
特里 36
猛@@ 36
现金流 36
班加西 36
生命危险 36
生根 36
电动车 36
疏离 36
病原体 36
相差 36
着力 36
硬件 36
禁 36
福利制度 36
笑话 36
等量齐观 36
筹@@ 36
米尔 36
精神@@ 36
糟 36
纸 36
经济周期 36
耶鲁大学 36
联合体 36
聘用 36
舍@@ 36
英尺 36
荣@@ 36
莱特 36
菲尔德 36
试点 36
诱发 36
诺基亚 36
跌@@ 36
路易斯 36
过滤 36
还债 36
适宜 36
逼 36
逼迫 36
遗留问题 36
鄙视 36
酷刑 36
金敬姬 36
金色 36
铺平道路 36
链条 36
销售额 36
闹 36
隐蔽 36
难以@@ 36
雅尔 36
露面 36
马琳 36
鸡@@ 36
黑帮 36
19% 35
1958 35
53 35
63 35
750 35
99% 35
Di@@ 35
FOMC 35
Gordon 35
Growth 35
HPV 35
Peter 35
anc@@ 35
ann@@ 35
com@@ 35
ef@@ 35
ez 35
j 35
ks 35
ma 35
一刻 35
一艘 35
三世 35
不屑一顾 35
不时 35
两起 35
个人电脑 35
中华人民共和国 35
中情局 35
之时 35
之死 35
乔 35
乘@@ 35
争执 35
二月 35
互信 35
互惠 35
五年计划 35
人有 35
亿多 35
付@@ 35
付诸实施 35
价格水平 35
伪 35
但会 35
低级 35
佩林 35
依照 35
偿付能力 35
先后 35
兴 35
其时 35
冰 35
减产 35
凯蒂 35
出自 35
分开 35
刻 35
区别对待 35
十年间 35
卫生保健 35
卵子 35
发送 35
受到限制 35
古希腊 35
否决票 35
味道 35
四月 35
国际刑警组织 35
地狱 35
塔吉克斯坦 35
境外 35
复原 35
太平洋地区 35
夺@@ 35
奔@@ 35
女生 35
委 35
威望 35
完@@ 35
定为 35
导演 35
小丑 35
尖端 35
尘埃落定 35
就职演说 35
岸 35
巨大损失 35
己 35
巴尔干地区 35
并不认为 35
并于 35
弄@@ 35
弄清楚 35
得分 35
必定会 35
恐怖份子 35
惊喜 35
想当然 35
慢@@ 35
戒@@ 35
战略家 35
执委会 35
扪心自问 35
折 35
抛@@ 35
抵扣 35
担@@ 35
拍@@ 35
拔@@ 35
挖@@ 35
损失惨重 35
政治@@ 35
政治局势 35
政界人士 35
教室 35
文职 35
新建 35
施以 35
无可否认 35
更有甚者 35
替代性 35
期待已久 35
本届 35
架@@ 35
案@@ 35
检讨 35
残余 35
毕@@ 35
毫无用处 35
氢 35
水利 35
江 35
没人能 35
沿海地区 35
泽 35
洛夫 35
洪森 35
海牙 35
海量 35
湿地 35
演@@ 35
烟@@ 35
燃起 35
特例 35
猛增 35
电站 35
病患 35
皆 35
研讨会 35
碳化 35
社会学家 35
祈祷 35
神学 35
神权 35
秉承 35
租金 35
穆特 35
空气质量 35
穿着 35
窥 35
第一任 35
第三国 35
第二年 35
类@@ 35
索罗斯 35
紧缺 35
紧随其后 35
红 35
绿色革命 35
罚 35
考试 35
耗时 35
自然环境 35
自然界 35
航 35
艘 35
艾 35
荷兰人 35
莱斯 35
萨赫勒 35
行为@@ 35
袭击者 35
要数 35
要说 35
议 35
试 35
话语 35
诠释 35
财务@@ 35
贸易@@ 35
赖斯 35
转化成 35
这段 35
这起 35
进化论 35
远不止 35
迹 35
适@@ 35
逐出 35
通吃 35
通行 35
造福 35
部件 35
重工业 35
量子 35
锻炼 35
镜头 35
长寿 35
防火墙 35
阵@@ 35
阿齐兹 35
陆地 35
雕像 35
非常复杂 35
面对面 35
风力 35
饲料 35
香烟 35
马尼拉 35
马拉维 35
黑手党 35
1957 34
31% 34
57 34
77 34
CPI 34
GNP 34
ICT 34
Milton 34
Pacific 34
ek 34
int@@ 34
oh@@ 34
ta 34
一处 34
一票 34
不光 34
不明朗 34
不谈 34
两百万 34
两院 34
临界点 34
亏@@ 34
交易者 34
人大 34
人生 34
住@@ 34
何在 34
使人 34
保护环境 34
保持警惕 34
债@@ 34
全额 34
公寓 34
共产 34
内幕 34
再次出现 34
写作 34
军阀 34
凯末尔 34
凶@@ 34
出卖 34
分工 34
刑 34
判@@ 34
判处 34
利马 34
包袱 34
单单 34
卡拉 34
卡特里娜 34
反日 34
反犹 34
发掘 34
句 34
右倾 34
各异 34
同侪 34
周年纪念 34
周永康 34
哀叹 34
哪种 34
唤醒 34
商务 34
团@@ 34
国在 34
国家银行 34
圈子 34
土崩瓦解 34
在家 34
在职 34
地址 34
堆 34
塔克 34
塞尔 34
增添 34
备 34
大力支持 34
天下 34
天性 34
失落 34
好奇心 34
如能 34
姗姗来迟 34
安格拉 34
导@@ 34
就范 34
尾@@ 34
巴尔干半岛 34
市中心 34
希尔 34
平方公里 34
幸存 34
庆贺 34
庇护所 34
库什 34
废止 34
庭 34
彻头彻尾 34
得过且过 34
心血管 34
必 34
思想@@ 34
息@@ 34
悄然 34
憎恶 34
战略伙伴 34
所言 34
扣 34
扩@@ 34
投票者 34
抹 34
拍摄 34
招 34
拿不出 34
接手 34
携带者 34
摇摆不定 34
料@@ 34
斯德哥尔摩 34
斯洛文尼亚 34
无奈 34
无望 34
无核化 34
无须 34
智 34
曾任 34
最高层 34
有朝一日 34
朝鲜人 34
木 34
朱@@ 34
杜 34
林肯 34
校@@ 34
样板 34
核技术 34
核能力 34
楼@@ 34
欢欣鼓舞 34
止 34
江@@ 34
流产 34
浪漫 34
海关 34
消费水平 34
渐远 34
满意度 34
滴@@ 34
火灾 34
热衷 34
煤@@ 34
熊彼特 34
牵制 34
环境影响 34
瑞@@ 34
由此可见 34
甲@@ 34
电子商务 34
相对来说 34
真能 34
神经元 34
禁飞区 34
税后 34
管辖权 34
米切尔 34
米勒 34
米哈伊尔 34
繁琐 34
纽伦堡 34
经验教训 34
缺@@ 34
老兵 34
考 34
胸@@ 34
自行 34
芯片 34
营@@ 34
葛 34
葬礼 34
融 34
西班牙政府 34
觉@@ 34
警 34
设@@ 34
证@@ 34
谋 34
账单 34
质问 34
贫困地区 34
贵 34
赎金 34
赞成票 34
起因 34
超凡 34
越久 34
越南战争 34
趋向 34
软性 34
载@@ 34
退步 34
遣返 34
遭@@ 34
遮@@ 34
郊区 34
酒@@ 34
里约热内卢 34
问题所在 34
阿富汗人 34
阿布扎比 34
陈水扁 34
陌生 34
院校 34
难免会 34
非洲开发银行 34
革命者 34
黄热病 34
默德 34
1953 33
1961 33
37% 33
41% 33
73 33
78 33
82 33
Bernie 33
Charles 33
Per@@ 33
Pl@@ 33
Sp@@ 33
Trade 33
com 33
ran@@ 33
ro 33
一例 33
一视同仁 33
上网 33
不妨 33
不成比例 33
不清 33
世界性 33
东亚国家 33
中所起 33
丹尼尔 33
之火 33
乌克兰政府 33
二十 33
二等 33
互相@@ 33
仅@@ 33
介绍 33
休@@ 33
众议员 33
伤及 33
低劣 33
低调 33
体制改革 33
使用暴力 33
保护@@ 33
保护区 33
保证金 33
修宪 33
俾斯麦 33
全年 33
公关 33
其为 33
再也不能 33
再生 33
军事手段 33
几家 33
出口量 33
分支机构 33
分裂主义 33
刑讯 33
利他主义 33
利库德集团 33
副产品 33
加勒比 33
加码 33
劳动收入 33
勇@@ 33
医@@ 33
单元 33
历届 33
反垄断 33
反差 33
反省 33
只得 33
号召力 33
吉尔吉斯斯坦 33
后悔 33
启蒙运动 33
吸取教训 33
哥@@ 33
哥伦比亚大学 33
喀布尔 33
囊括 33
园 33
图谋 33
地质 33
地面部队 33
埋@@ 33
壮观 33
夏威夷 33
外交事务 33
多种多样 33
大涨 33
天安门 33
妄想 33
孤@@ 33
安卡拉 33
安心 33
家常便饭 33
小麦 33
屏障 33
平均值 33
广岛 33
庇隆 33
康 33
建筑@@ 33
开会 33
弥漫 33
强制执行 33
归来 33
得逞 33
微笑 33
惟其 33
成败 33
扎根 33
打下基础 33
投诉 33
抱@@ 33
拉合尔 33
拉斯维加斯 33
拍 33
拥有者 33
捕鱼 33
排外 33
接班人 33
接过 33
控制@@ 33
改 33
放慢 33
故 33
效用 33
教士 33
教练 33
断层 33
施展 33
曼努埃尔 33
杜鲁门 33
杰 33
板上钉钉 33
极强 33
核威慑 33
核心作用 33
案子 33
桑迪 33
民心 33
沉重打击 33
洪灾 33
洲 33
深重 33
渐渐 33
渔船 33
源@@ 33
激@@ 33
激化 33
火箭弹 33
热潮 33
物体 33
牵@@ 33
率领 33
王储 33
琳 33
生机 33
用品 33
由前 33
由谁来 33
画@@ 33
癌细胞 33
百年 33
监管部门 33
直指 33
相辅相成 33
研究员 33
社会科学 33
祸 33
离职 33
科技进步 33
笔@@ 33
第三季度 33
第二季度 33
紧急状况 33
经常性 33
给@@ 33
绝对多数 33
翼 33
老挝 33
老路 33
肯尼斯 33
能效 33
腾 33
自然@@ 33
节日 33
英亩 33
荡 33
菲利普 33
菲德尔 33
蒂勒 33
蓄意 33
解答 33
警官 33
认同感 33
证券交易 33
评@@ 33
诋毁 33
该行 33
诸如此类 33
课以 33
课堂 33
谈不上 33
谋生 33
赛克斯 33
越高 33
足@@ 33
身陷 33
软@@ 33
辆 33
过少 33
进出口 33
连锁 33
迷恋 33
选举人 33
道义上 33
部长级 33
里克 33
金价 33
金融城 33
长度 33
问@@ 33
问问 33
随即 33
雄 33
集中化 33
震撼 33
露@@ 33
非关税壁垒 33
频@@ 33
黎明 33
黑市 33
1938 32
32% 32
47% 32
66 32
Bu@@ 32
Com@@ 32
EFSF 32
Goals 32
Mario 32
Project 32
Research 32
Sanders 32
age 32
au 32
enti@@ 32
ep@@ 32
ew@@ 32
oo@@ 32
ri 32
uk@@ 32
yn@@ 32
一千万 32
一去不返 32
一封 32
一级 32
三十多年 32
三角 32
上半叶 32
不可分割 32
不同之处 32
不得而知 32
不符 32
不诚实 32
专制主义 32
专属 32
世界人权宣言 32
东耶路撒冷 32
两地 32
两极 32
个人主义 32
个人消费 32
中亚国家 32
中方 32
之子 32
乳@@ 32
二级 32
交易@@ 32
休假 32
会员 32
位数 32
假象 32
光景 32
公民投票 32
兼@@ 32
兼顾 32
内向 32
农业@@ 32
决定权 32
出资人 32
分析表明 32
切实可行 32
创业精神 32
利夫 32
努@@ 32
医疗系统 32
十月 32
厌@@ 32
友善 32
双胞胎 32
反其道而行之 32
取胜 32
受助 32
受限 32
另一回事 32
台风 32
司法部 32
司空见惯 32
名词 32
启用 32
吹@@ 32
员@@ 32
唐@@ 32
喊 32
喘息 32
嘲讽 32
回想 32
国有银行 32
国营 32
圣诞 32
地铁 32
堪 32
复发 32
大额 32
天安门广场 32
女子 32
奶@@ 32
姊妹 32
学术@@ 32
学说 32
安娜 32
安然 32
宗教@@ 32
宗派主义 32
宫@@ 32
容许 32
宽泛 32
尊 32
小岛 32
少女 32
展 32
属性 32
巴切 32
巴勒斯坦民族权力机构 32
市场需求 32
帐 32
平等性 32
并购 32
广泛支持 32
开火 32
弗 32
归属感 32
心存 32
心知肚明 32
怀疑论 32
急性 32
恨 32
愤慨 32
戏剧 32
房间 32
所持 32
打出 32
托宾税 32
投资额 32
折合 32
拉斯 32
拱手 32
持平 32
持续上升 32
挑@@ 32
挤@@ 32
握有 32
摸@@ 32
撕毁 32
撕裂 32
操@@ 32
攻@@ 32
政治舞台 32
政策方针 32
教益 32
敬 32
敬仰 32
敲响 32
斯雷 32
新教 32
无政府 32
无聊 32
无足轻重 32
日益加剧 32
明朗 32
明目张胆 32
春季 32
普林斯顿大学 32
景 32
更改 32
有个 32
有失 32
有的是 32
某国 32
核燃料 32
格言 32
死后 32
汉森 32
汹涌 32
沉 32
波恩 32
洁净 32
活跃分子 32
派驻 32
液化 32
深思 32
演 32
潘@@ 32
热带雨林 32
爆炸性 32
版权 32
疑惑 32
皮科 32
监督者 32
直言不讳 32
看齐 32
知 32
石油资源 32
示威游行 32
祖父 32
禀赋 32
私下里 32
税@@ 32
税款 32
窃取 32
第三支 32
第十@@ 32
经济指标 32
维生素 32
缴税 32
羊 32
羞耻 32
职员 32
联赛 32
聚@@ 32
育儿 32
能令 32
能源技术 32
营养@@ 32
蒸发 32
薪 32
虽 32
蚕食 32
行为人 32
补救 32
规模较 32
规管 32
训练有素 32
讯息 32
许多年 32
证词 32
评分 32
识 32
诉@@ 32
诊 32
说道 32
诸 32
调控 32
谈及 32
谓 32
贝尔 32
贫富 32
贸易条件 32
赎回 32
赞助者 32
跟着 32
身影 32
软着陆 32
辨别 32
过快 32
追寻 32
逃往 32
选举法 32
途中 32
逼@@ 32
那位 32
那段 32
邮@@ 32
部@@ 32
重新@@ 32
金本位制 32
针灸 32
铁腕 32
销@@ 32
问责性 32
隔 32
难以获得 32
难民潮 32
震慑 32
革命@@ 32
顺@@ 32
顽疾 32
预兆 32
题为 32
饭碗 32
饮料 32
高加索地区 32
鲍@@ 32
1946 31
1964 31
1965 31
34% 31
39% 31
42% 31
48% 31
53% 31
62% 31
72 31
98 31
ACA 31
Agreement 31
Am@@ 31
BBC 31
Committee 31
Dodd 31
ECT 31
Ex@@ 31
Fran@@ 31
Gre@@ 31
He@@ 31
JCPOA 31
Justice 31
MGI 31
Me@@ 31
Mo@@ 31
Movement 31
P5 31
PiS 31
Social 31
X@@ 31
ations 31
co 31
em 31
gl@@ 31
ical 31
no 31
ol 31
ric@@ 31
ta@@ 31
ç 31
一如既往 31
一流 31
下限 31
不难想象 31
专政 31
东盟国家 31
东风 31
两代 31
中东问题 31
中风 31
习@@ 31
书面 31
人民@@ 31
人行 31
人身 31
今时 31
休闲 31
优于 31
伪装 31
佩戴 31
保费 31
倍感 31
债主 31
公共资源 31
公司债券 31
共产主义者 31
内部事务 31
再者 31
农场主 31
冲突地区 31
决不 31
准@@ 31
几十@@ 31
几千 31
凡@@ 31
凶手 31
出错 31
分界线 31
分配@@ 31
利润率 31
功 31
动植物 31
化合物 31
北大西洋 31
十二月 31
厉害 31
厚 31
原子 31
友好关系 31
反作用 31
反倒 31
发放贷款 31
受人 31
口风 31
可不 31
可惜 31
可见一斑 31
司法制度 31
司法独立 31
合规 31
同伴 31
同志 31
同道 31
启蒙 31
四名 31
回头 31
回流 31
困@@ 31
图斯 31
圆@@ 31
地是 31
埃及政府 31
埋葬 31
填@@ 31
多方面 31
大豆 31
太迟 31
好斗 31
孤儿 31
安理会常任理事国 31
宝 31
宣判 31
寄生虫 31
尼古丁 31
居尔 31
山区 31
左@@ 31
已达 31
布兰 31
布宜诺斯艾利斯 31
帐户 31
广为 31
库尔德斯坦 31
应运而生 31
廷 31
弱者 31
归于 31
很久以前 31
德意志银行 31
快要 31
念 31
急转直下 31
恩怨 31
悲观主义 31
我要 31
所要 31
投了 31
投票箱 31
折扣 31
抢 31
抢@@ 31
拉开 31
捐@@ 31
损坏 31
换来 31
据信 31
接收国 31
推定 31
放射性 31
教育@@ 31
数以千计 31
数周 31
方略 31
施密特 31
旅@@ 31
无核 31
无稽之谈 31
无穷 31
既@@ 31
昨天 31
曲 31
更近 31
曼彻斯特 31
未曾 31
杀人犯 31
横扫 31
正当性 31
步履蹒跚 31
武断 31
比其 31
气质 31
汇报 31
污染物 31
汤@@ 31
法语 31
浮@@ 31
海洋生物 31
海湾战争 31
涵义 31
渐进式 31
滥用权力 31
烙印 31
烧 31
狱中 31
猛 31
献@@ 31
玩@@ 31
现代人 31
甚于 31
用处 31
电能 31
留住 31
疑@@ 31
疲弱 31
登陆 31
的黎波里 31
监@@ 31
盗窃 31
直 31
相处 31
瞄准 31
碎 31
秘密警察 31
称呼 31
穆加贝 31
突显 31
竭尽所能 31
管用 31
米特 31
精神病学 31
索尔仁 31
紧紧 31
经济过热 31
绥靖 31
缔约国 31
罗德里克 31
美式 31
羡慕 31
老派 31
老鼠 31
考虑一下 31
耳 31
聚 31
胡斯尼 31
自尊 31
臭氧层 31
花掉 31
英文 31
菅直 31
萨拉 31
蒙特利尔 31
藐视 31
虎 31
融@@ 31
行将 31
裁判 31
要务 31
解脱 31
计划生育 31
该书 31
诸多方面 31
谁知 31
负增长 31
财年 31
贫困家庭 31
赫尔 31
跨@@ 31
较差 31
输给 31
辩@@ 31
这番话 31
进度 31
逃亡 31
递减 31
避孕 31
避难所 31
配备 31
里德 31
里程碑式 31
铺@@ 31
长于 31
闭@@ 31
间@@ 31
闻 31
阳@@ 31
阿以 31
阿基诺 31
阿拉伯地区 31
阿拉伯联盟 31
际 31
陈 31
集结 31
静@@ 31
非洲联盟 31
预定 31
高峰期 31
鲍里斯 31
1936 30
1939 30
1951 30
1963 30
29% 30
Change 30
Ed@@ 30
PPP 30
Report 30
Sa@@ 30
Sustainable 30
We@@ 30
cl@@ 30
ers@@ 30
ill 30
ist 30
sh@@ 30
sky 30
一举 30
一味 30
一大堆 30
一环 30
上校 30
上议院 30
不为人知 30
不定 30
不然 30
不相容 30
不言自明 30
两点 30
中长期 30
主观 30
之物 30
乔纳森 30
井 30
产值 30
人事 30
人人平等 30
今年年初 30
令人咋舌 30
佐@@ 30
佛罗里达 30
使用量 30
依存 30
保全 30
假如 30
儿@@ 30
克林顿政府 30
克莱@@ 30
克隆 30
公共@@ 30
兰特 30
其新 30
其父 30
兼容 30
兼而有之 30
内政部长 30
准入 30
准确性 30
几十亿美元 30
凡 30
出乎意料 30
出兵 30
出钱 30
分数 30
前期 30
前瞻 30
前身 30
功劳 30
加勒比海 30
努尔 30
勃@@ 30
勤@@ 30
勿庸置疑 30
化疗 30
区@@ 30
医学@@ 30
十大 30
南辕北辙 30
博士 30
卡门 30
危@@ 30
去向 30
双边协议 30
反向 30
受雇 30
口袋 30
只好 30
可再生 30
可达 30
君主制 30
哈尔 30
唤起 30
商榷 30
回忆录 30
圣 30
地用 30
地表 30
型@@ 30
基调 30
堆积 30
外部环境 30
多亿美元 30
多数票 30
夜@@ 30
大加 30
大英帝国 30
大街 30
大道 30
太小 30
失序 30
头发 30
奴隶制 30
妓女 30
孕妇 30
字眼 30
存货 30
定量 30
寒 30
居于 30
巴基斯坦政府 30
巴里 30
年长 30
并会 30
废 30
延后 30
异乎寻常 30
弥@@ 30
弹药 30
彼@@ 30
得当 30
志愿 30
怀抱 30
怕 30
性别歧视 30
总干事 30
总支出 30
恰@@ 30
恶果 30
恶行 30
情商 30
愈 30
战乱 30
房利美 30
打断 30
扣减 30
拉拢 30
拒之门外 30
持@@ 30
指派 30
捐献 30
换句话 30
据点 30
排序 30
探底 30
掩护 30
提早 30
握 30
摇@@ 30
撤资 30
效@@ 30
敏锐 30
数百名 30
断绝 30
新教徒 30
新闻@@ 30
旅 30
无尽 30
日本@@ 30
明日黄花 30
易事 30
春 30
有幸 30
有近 30
朱镕基 30
构架 30
柴油 30
检@@ 30
概@@ 30
母婴 30
永久化 30
沙里夫 30
沦落 30
洪都拉斯 30
流言 30
海底 30
海湾合作委员会 30
深知 30
港@@ 30
源源不断 30
漫@@ 30
灯塔 30
牌@@ 30
甜@@ 30
电视@@ 30
畏惧 30
病菌 30
瘤 30
着迷 30
研究@@ 30
研究生 30
碰巧 30
神圣不可 30
离不开 30
科米 30
秒 30
稀释 30
空调 30
筛选 30
粉丝 30
粉饰 30
素@@ 30
紧密联系 30
维奥 30
缠身 30
美伊 30
背离 30
脑 30
自救 30
自由放任 30
至高无上 30
致死率 30
良心 30
荣耀 30
获胜者 30
菜 30
虚幻 30
行政长官 30
补@@ 30
衰败 30
西亚 30
覆盖面 30
规 30
规@@ 30
解决不了 30
解冻 30
该市 30
诺贝尔 30
豁免权 30
象牙 30
豪@@ 30
跨国企业 30
踢 30
轻视 30
辛 30
进去 30
连锁反应 30
逐@@ 30
避@@ 30
配给 30
采集 30
重大进展 30
重负 30
降低成本 30
限@@ 30
难以预测 30
难堪 30
雷斯 30
非人 30
非盈利 30
顶@@ 30
首批 30
鬼 30
麦克@@ 30
' 29
190 29
63% 29
66% 29
97 29
Agency 29
Nor@@ 29
Par@@ 29
Ph@@ 29
REDD 29
Reinhart 29
SEC 29
Sal@@ 29
Tr@@ 29
Treaty 29
Volcker 29
ero 29
ess@@ 29
iPhone 29
ian 29
ies 29
ise 29
ke 29
ois 29
one 29
our@@ 29
te 29
up@@ 29
ut 29
一年一度 29
一无是处 29
七国集团 29
七月 29
万亿日元 29
上街 29
下届 29
下次 29
不曾 29
世代 29
世袭 29
东北 29
丢 29
中说 29
为人所知 29
乃 29
之梦 29
买下 29
买房 29
二十多年 29
二季度 29
交换条件 29
人文 29
仓促 29
代言人 29
休 29
众筹 29
会否 29
传奇 29
体育运动 29
余波 29
佩尔 29
信赖 29
借款者 29
傀儡 29
光彩 29
全力支持 29
六十年代 29
共事 29
具体情况 29
兹事体大 29
军火 29
冲浪 29
决 29
况 29
净值 29
减低 29
几百@@ 29
击落 29
刑@@ 29
创始 29
创新能力 29
创造者 29
利特 29
利用率 29
制服 29
刻不容缓 29
动向 29
千百万 29
南亚地区 29
卡德罗夫 29
卫@@ 29
历经 29
反型 29
反面 29
发泄 29
发病 29
发行量 29
另一端 29
史蒂芬 29
合谋 29
否 29
告急 29
喜马拉雅山 29
喝 29
回去 29
国际联盟 29
外交@@ 29
大受 29
大棒 29
大象 29
大都市 29
娅 29
完全正确 29
审 29
审理 29
家长式 29
宽 29
封 29
封存 29
尼琴 29
尽早 29
层@@ 29
屈@@ 29
展期 29
嵌入 29
工作@@ 29
巧 29
布拉@@ 29
师@@ 29
带回 29
带走 29
平板 29
序幕 29
底部 29
康德 29
延误 29
弊大于利 29
彩@@ 29
影 29
往来 29
很多年 29
怀念 29
急 29
悲观派 29
战机 29
所犯 29
所称 29
打赢 29
抹杀 29
拥@@ 29
掉@@ 29
掌管 29
接待 29
控制力 29
措手不及 29
播 29
攸关 29
政府军 29
政治性 29
效 29
数次 29
旅程 29
旅行者 29
无懈可击 29
时光 29
晚@@ 29
景气 29
暗示着 29
有悖于 29
服务@@ 29
期货市场 29
机会主义 29
李 29
极富 29
核弹头 29
母 29
比前 29
民主主义 29
民兵组织 29
水库 29
油井 29
泥@@ 29
注 29
消散 29
涉足 29
混为一谈 29
添@@ 29
渡@@ 29
滞胀 29
漫画 29
热钱 29
熟练 29
牙 29
牙齿 29
犯错 29
献金 29
玩世不恭 29
玩弄 29
留出 29
病情 29
的@@ 29
盆地 29
相互竞争 29
相对而言 29
相称 29
石化 29
矿@@ 29
破除 29
确诊 29
社会主义者 29
福尔 29
秘书 29
租 29
租赁 29
称作 29
笨拙 29
第一年 29
等价 29
粉@@ 29
繁殖 29
编制 29
缺席 29
罗姆 29
美妙 29
群@@ 29
联合国儿童基金会 29
肯@@ 29
肾脏 29
胁迫 29
背 29
脸@@ 29
自称为 29
舰队 29
良性循环 29
节俭 29
节点 29
蒙上 29
虎@@ 29
补 29
衰弱 29
袋 29
西德 29
西欧国家 29
触@@ 29
触目惊心 29
警醒 29
认证 29
议事日程 29
许 29
识字率 29
诗@@ 29
详尽 29
诺夫 29
谈判代表 29
财 29
货币主义 29
贷给 29
资本金 29
资源@@ 29
赖以生存 29
走得 29
走过 29
超乎 29
足额 29
轩然大波 29
较量 29
适龄 29
逆转录 29
透@@ 29
速@@ 29
邻@@ 29
配 29
里斯坦 29
重压 29
重开 29
重整 29
重燃 29
针@@ 29
钢@@ 29
银行@@ 29
错误@@ 29
锚 29
镇 29
长期趋势 29
防线 29
隆 29
难以避免 29
难得 29
雄厚 29
集群 29
雪 29
雷杰普 29
露出 29
非西方 29
非银行 29
颇@@ 29
频道 29
高地 29
麻风病 29
默罕 29
1300 28
1800 28
1920 28
1966 28
2022 28
2040 28
270 28
57% 28
61 28
91 28
Conference 28
FDIC 28
Fre@@ 28
Mod@@ 28
NTC 28
Syriza 28
Un@@ 28
ack 28
ada 28
ally 28
amb@@ 28
ans 28
are 28
ary 28
ber@@ 28
ens 28
erv@@ 28
iz@@ 28
me 28
ne@@ 28
old 28
oll@@ 28
ord@@ 28
www 28
} 28
è 28
一劳永逸 28
一己 28
一愿景 28
一派 28
一职 28
一课 28
万吨 28
万年 28
三人 28
三点 28
下才 28
不可不 28
不知情 28
不肯 28
不能允许 28
专栏作家 28
两大阵营 28
两派 28
严谨 28
中亚地区 28
乏味 28
争议性 28
二者 28
互补 28
亮@@ 28
亲密关系 28
人员伤亡 28
仁@@ 28
仇 28
任上 28
任性 28
仿制 28
伪造 28
伯特 28
何去何从 28
作证 28
供应国 28
侵@@ 28
偏颇 28
僧侣 28
克劳德 28
克里斯蒂娜 28
全美 28
共同行动 28
兴旺 28
其核 28
冠@@ 28
出新 28
刑法 28
列车 28
刘@@ 28
制品 28
制造品 28
刻@@ 28
力争 28
化学@@ 28
北冰洋 28
十二五 28
单极 28
南极洲 28
博士学位 28
卡利 28
原告 28
参数 28
双相 28
受阻 28
口中 28
吉尔@@ 28
吓@@ 28
哈利波 28
哥伦比亚革命武装力量 28
哦 28
唯@@ 28
唱 28
四川 28
四次 28
图像 28
图片 28
场@@ 28
埃里克 28
基层 28
墙@@ 28
处死 28
大众@@ 28
大错 28
太子党 28
失策 28
奇特 28
奋起 28
嫌疑人 28
宁 28
定于 28
审@@ 28
宣传@@ 28
宣布独立 28
容量 28
寄@@ 28
寒@@ 28
射@@ 28
小步 28
尘@@ 28
尼格 28
币值 28
席尔瓦 28
幕僚 28
年率 28
弱@@ 28
往事 28
微观经济 28
恒@@ 28
情节 28
惯用 28
扎实 28
打仗 28
扯皮 28
投保 28
抗体 28
拉古 28
拳@@ 28
振@@ 28
捏造 28
接到 28
控股 28
撒@@ 28
播放 28
收敛 28
改革开放 28
数个 28
数以亿计 28
敲@@ 28
施加影响 28
无助 28
无法自拔 28
既成事实 28
时说 28
时限 28
昏@@ 28
景@@ 28
智商 28
最最 28
有意思 28
服务提供者 28
期盼 28
未知数 28
本地人 28
权贵 28
杰弗里 28
极其重要 28
极小 28
极难 28
构思 28
标榜 28
标记 28
栖息地 28
欠发达 28
次大陆 28
欧文 28
正向 28
每吨 28
民主@@ 28
汽车业 28
泛@@ 28
洛克 28
津@@ 28
济@@ 28
浩劫 28
海岸线 28
渔@@ 28
漏 28
激进派 28
炎 28
烟消云散 28
热心 28
照明 28
爆 28
爆炸案 28
爱戴 28
犬儒主义 28
狐疑 28
独力 28
独岛 28
独生子女 28
独立战争 28
电脑@@ 28
电视节目 28
痴迷 28
的确如此 28
皮涅拉 28
益 28
目光短浅 28
相互影响 28
相左 28
真菌 28
睿智 28
瞩目 28
示范 28
私 28
科学院 28
科恩 28
租@@ 28
称赞 28
移除 28
稳定下来 28
穆 28
穿过 28
突显出 28
童婚 28
端@@ 28
第七 28
第五@@ 28
第四@@ 28
签 28
算术 28
红色高棉 28
纪录片 28
组织者 28
细 28
细微 28
终生 28
继承者 28
续@@ 28
罗索 28
美俄 28
美国众议院 28
美国国防部 28
耸人听闻 28
联合声明 28
脱身 28
自恋 28
自行车 28
自贸 28
艰辛 28
艾肯 28
芝加哥大学 28
苏黎世 28
英国议会 28
获@@ 28
蛊惑 28
蛋白 28
表现出色 28
裁@@ 28
解救 28
说来 28
贝克尔 28
贪污 28
贱民 28
费尔 28
赖 28
走低 28
走高 28
起飞 28
跃@@ 28
轨 28
轻率 28
辞去 28
边境线 28
迅速行动 28
违规 28
连续性 28
迷 28
追赶 28
逆@@ 28
透 28
透过 28
遗留 28
金字塔 28
锡 28
镇@@ 28
门类 28
阴云 28
阵地 28
限制性 28
隐患 28
雅虎 28
雾 28
非常明显 28
非贸易 28
鞋 28
频发 28
首屈一指 28
驻@@ 28
骗 28
09 27
1200 27
1919 27
1976 27
370 27
51% 27
74 27
84 27
89 27
Carmen 27
EC@@ 27
Em@@ 27
ISP 27
Ind@@ 27
Jeremy 27
Mc@@ 27
Mos@@ 27
Pr@@ 27
Rights 27
Trans 27
Trump 27
University 27
YouTube 27
able 27
arg@@ 27
der 27
des 27
ex 27
ini 27
ler 27
man@@ 27
out 27
q@@ 27
ter@@ 27
wor@@ 27
一分钱 27
一帮 27
一桶 27
一模一样 27
一蹶不振 27
万能 27
上班 27
下半叶 27
不上 27
不值一提 27
不动 27
不太@@ 27
不成 27
不经意 27
不胜枚举 27
与非 27
专栏 27
中心@@ 27
为数不多 27
为时已晚 27
主导作用 27
举个 27
举止 27
之春@@ 27
乘坐 27
九年 27
习以为常 27
书中 27
五星 27
人命 27
人死于 27
人马 27
从长远看 27
付诸 27
代码 27
令人费解 27
任职期间 27
优越 27
传 27
依赖性 27
俗 27
保护主义者 27
充实 27
先天 27
公共交通 27
再有 27
军售 27
军费开支 27
冰山一角 27
决策机构 27
减半 27
几分 27
几小时 27
几无 27
出乎 27
出价 27
出口额 27
刹车 27
刺@@ 27
副手 27
加倍 27
勃 27
十八世纪 27
十分复杂 27
华尔街日报 27
卖家 27
厂商 27
历时 27
友邦 27
双手 27
反复无常 27
取向 27
取暖 27
变数 27
叫@@ 27
各派 27
合众国 27
合作性 27
同谋 27
吸食 27
周边地区 27
商学院 27
喀拉拉邦 27
喘 27
回忆起 27
地中海地区 27
坦率地 27
境 27
增加一倍 27
增长势头 27
声名狼藉 27
备选 27
多一点 27
夜晚 27
大声疾呼 27
大楼 27
女王 27
妻 27
字母 27
季节 27
宁@@ 27
家属 27
宽恕 27
密 27
寿终正寝 27
尔德 27
展览 27
崇尚 27
巨星 27
巴特 27
布尔 27
布鲁金斯 27
带薪 27
幌子 27
干什么 27
干部 27
平壤 27
并发症 27
并非易事 27
幼儿 27
府 27
康复 27
当地政府 27
录 27
录@@ 27
彩票 27
徒@@ 27
德国马克 27
心理@@ 27
态@@ 27
怪@@ 27
总资产 27
恰如其分 27
情报@@ 27
打入 27
扩充 27
扬@@ 27
批 27
担负 27
拉拉 27
拨@@ 27
指导方针 27
捉襟见肘 27
掠夺性 27
揭开 27
摇身一变 27
撑腰 27
撬动 27
文凭 27
斯塔 27
新晋 27
无穷无尽 27
日报 27
早前 27
时间推移 27
易卜拉欣 27
暴力行动 27
暴增 27
曲@@ 27
最富 27
有损 27
未雨绸缪 27
末@@ 27
本着 27
权威性 27
材 27
极右 27
标语 27
核力量 27
核战争 27
桥@@ 27
模糊不清 27
欧洲共同 27
止@@ 27
毁于一旦 27
汇 27
波兰政府 27
泽@@ 27
泽纳维 27
流放 27
测序 27
消费国 27
深切 27
渗透到 27
湖 27
漏洞百出 27
潘 27
灭 27
燃油 27
爱德华 27
父母亲 27
片@@ 27
牢 27
特别法庭 27
猜 27
现身 27
珊瑚礁 27
生命力 27
生命线 27
甩 27
留存 27
疾@@ 27
痢疾 27
看守 27
碳排 27
磅 27
社会规范 27
第一份 27
第二条 27
纳什 27
纺织品 27
经济体制 27
经济基础 27
经营者 27
结 27
绘制 27
缔结 27
罗兴亚 27
罚金 27
罢免 27
置身事外 27
美国士兵 27
翻倍 27
翻版 27
而今 27
耶夫 27
聘请 27
肝@@ 27
股份公司 27
腹@@ 27
自以为是 27
自此以后 27
致病 27
船@@ 27
苏哈托 27
草率 27
荣 27
获知 27
落下 27
蓝领 27
蓬勃 27
行政@@ 27
行程 27
装作 27
裙带关系 27
认真思考 27
讨@@ 27
记载 27
访华 27
误读 27
诱因 27
请愿 27
谜题 27
貌 27
负值 27
责 27
赖@@ 27
赠款 27
赫尔辛基 27
软禁 27
运河 27
选举权 27
避免出现 27
酸 27
醒悟 27
采取有效 27
重写 27
重担 27
金融风暴 27
锡安 27
阴暗 27
阿尔茨海默 27
阿曼 27
阿赫玛 27
降温 27
需求量 27
韦伯 27
高墙 27
高度集中 27
鲁棒 27
鸟类 27
齐奥塞斯库 27
0% 26
1937 26
911 26
Andrew 26
Ben@@ 26
Bre@@ 26
Convention 26
Europe 26
FSB 26
Forum 26
Greenspan 26
JP 26
ME@@ 26
NA@@ 26
Ne@@ 26
PISA 26
Peace 26
Rus@@ 26
William 26
alism 26
ative 26
di@@ 26
ency 26
ern 26
ev 26
oli@@ 26
res 26
that 26
° 26
一两年 26
一体 26
一心 26
一架 26
一蹴而就 26
万多 26
三天 26
不在乎 26
不尽相同 26
业主 26
东道主 26
两届 26
两方 26
中国台湾 26
中小型 26
丹@@ 26
举足轻重 26
之位 26
乍得 26
乎 26
乐趣 26
井@@ 26
人类基因 26
介于 26
仪 26
会因 26
传教士 26
余 26
佛 26
使馆 26
供电 26
便于 26
保险业 26
借给 26
偏远地区 26
充分@@ 26
克林 26
克雅 26
全局 26
公共事务 26
公开信 26
公立 26
关爱 26
内政部 26
再生资源 26
军事演习 26
军舰 26
冰箱 26
冲击波 26
冷 26
几十个 26
列日涅夫 26
创业者 26
判 26
制药业 26
前方 26
前行 26
割@@ 26
动性 26
化学物质 26
厄立特里亚 26
受审 26
受限制 26
口头上 26
司 26
司法@@ 26
各有 26
合著 26
吐@@ 26
吕@@ 26
呼@@ 26
售 26
喜 26
喝@@ 26
回击 26
国库 26
国民@@ 26
土地@@ 26
在场 26
地上 26
地以 26
地处 26
坐拥 26
城市@@ 26
基督教徒 26
基础性 26
多变 26
多条 26
大学@@ 26
大海 26
大赦 26
天主教会 26
夫妻 26
奉 26
奉献 26
好意 26
妄@@ 26
媲美 26
安全局 26
安静 26
宗教团体 26
实际意义 26
审批 26
宣传攻势 26
察@@ 26
察觉 26
小行星 26
小说家 26
尸@@ 26
工程学 26
巨大成功 26
差劲 26
帽 26
年春 26
年限 26
幸灾乐祸 26
庄严 26
廷@@ 26
开发@@ 26
异教徒 26
引人瞩目 26
弗莱 26
彦 26
往日 26
心思 26
忠诚度 26
快得多 26
思潮 26
思索 26
恐惧症 26
悬@@ 26
意料之中 26
慈善家 26
所得税率 26
所欠 26
投射 26
拟定 26
拿下 26
按计划 26
挨饿 26
捐献者 26
接任 26
控@@ 26
提振@@ 26
提高效率 26
搜索引擎 26
撤@@ 26
擦@@ 26
支离破碎 26
放过 26
数百人 26
断然 26
新低 26
新奇 26
新思维 26
无意识 26
无益 26
日前 26
早教 26
明斯克 26
昔 26
暴露无遗 26
最重 26
最高点 26
有理 26
来之不易 26
来袭 26
染指 26
格拉 26
桑 26
欧洲法院 26
武@@ 26
每况愈下 26
毒枭 26
毫无道理 26
泄密 26
派兵 26
流逝 26
测@@ 26
海盗 26
液 26
渡边 26
渲染 26
湄公河 26
滋长 26
滩 26
潜@@ 26
激动人心 26
火星 26
灰色 26
炎热 26
烹饪 26
焦头烂额 26
牵扯 26
特尔 26
特曼 26
犀牛 26
独善其身 26
班加罗尔 26
理会 26
瓦尔斯 26
生物学家 26
甲烷 26
电气化 26
男 26
白白浪费 26
白色 26
皮诺切特 26
盖洛普 26
省@@ 26
睡 26
石油@@ 26
示 26
神职人员 26
禁毒 26
移居 26
稳定器 26
稳定局势 26
空军基地 26
空谈 26
笃定 26
筹划 26
算得 26
系@@ 26
紧急措施 26
紧迫感 26
繁衍 26
纽波特 26
线性 26
经济史 26
经济成就 26
经理人 26
缄默 26
缘@@ 26
罗亚尔 26
美英 26
老虎 26
耕地 26
联合@@ 26
联络 26
肤色 26
胡佛 26
胡塞 26
脱碳 26
腐败现象 26
自欺欺人 26
荷@@ 26
莫斯 26
莫迪@@ 26
蕴藏 26
虚张声势 26
裂@@ 26
裙带 26
要职 26
觉 26
计划经济 26
订@@ 26
让给 26
议席 26
议院 26
识别区 26
诗 26
调查结果 26
负债累累 26
负数 26
责怪 26
贾帕克萨 26
赔款 26
走入 26
起始 26
趋向于 26
足迹 26
跌落 26
跳出 26
身高 26
转到 26
输出国 26
辩称 26
过渡性 26
运往 26
这批 26
这本 26
进口商 26
追究 26
逆 26
通力合作 26
遍 26
邪恶轴心 26
郎 26
闲@@ 26
防护 26
阿什顿 26
阿拉伯半岛 26
降水 26
难过 26
集中度 26
非军事 26
额@@ 26
风电 26
餐@@ 26
饰@@ 26
首轮 26
首领 26
骑@@ 26
高产 26
高超 26
黄金时代 26
1941 25
200% 25
220 25
230 25
46% 25
69 25
9000 25
92 25
Af@@ 25
Bur@@ 25
CD@@ 25
Cons@@ 25
DDT 25
FDP 25
Human 25
IDA 25
INDC 25
Jo@@ 25
Mac@@ 25
Office 25
PE@@ 25
Panel 25
Program 25
Qu@@ 25
Rogoff 25
Ros@@ 25
SA 25
Wolfgang 25
X 25
aj@@ 25
ang 25
da 25
ert 25
ins 25
org 25
ris@@ 25
und 25
一事 25
一侧 25
一成不变 25
一眼 25
三军 25
三百万 25
上届 25
下列 25
不下 25
不大 25
不断@@ 25
不易 25
与生俱来 25
两座 25
严格控制 25
中间人 25
临@@ 25
于事无补 25
互助 25
亚人 25
京@@ 25
人口普查 25
人性化 25
人种 25
令人发指 25
令人惊叹 25
以防 25
似@@ 25
例@@ 25
俄语 25
保持一致 25
做事 25
催化 25
僵硬 25
充分认识 25
公报 25
六百万 25
关上 25
关系紧张 25
兵力 25
其间 25
军事@@ 25
农民工 25
冲 25
决赛 25
冷淡 25
出名 25
划 25
利斯 25
前不久 25
前车之鉴 25
剥离 25
加密 25
势必 25
十三 25
卖掉 25
卜 25
占领区 25
印钞机 25
却会 25
厄尔尼诺 25
压倒一切 25
原定 25
又@@ 25
双向 25
受够了 25
变局 25
另一面 25
可恶 25
合作项目 25
吞没 25
启@@ 25
吸毒 25
周旋 25
商定 25
嘴@@ 25
四季度 25
团伙 25
固@@ 25
国中 25
国家开发银行 25
国民大会 25
圆 25
土库曼斯坦 25
块@@ 25
基数 25
基督 25
堪忧 25
处方药 25
复兴党 25
多长时间 25
大举 25
大失所望 25
大崩盘 25
大气层 25
天花 25
太快 25
奖学金 25
奥威尔 25
奴 25
委婉 25
嫉妒 25
学术研究 25
宗旨 25
实际汇率 25
实验性 25
家政 25
小幅 25
小觑 25
尖@@ 25
就是说 25
尽显 25
屡@@ 25
履新 25
工业园 25
工业生产 25
工时 25
差强人意 25
巴西人 25
帮凶 25
年头 25
应为 25
异端 25
式@@ 25
引人入胜 25
弗朗哥 25
弗林 25
弗里@@ 25
归类 25
当真 25
形形色色 25
得不偿失 25
得来 25
德意志 25
德法 25
心灵 25
必要措施 25
忘却 25
性价比 25
性骚扰 25
意大利政府 25
感染者 25
感激 25
愤世嫉俗 25
所幸 25
执着 25
扩张主义 25
把@@ 25
投资@@ 25
投资决策 25
抗抑郁 25
抵抗力 25
拉马 25
拜访 25
挖 25
损@@ 25
排外主义 25
控制线 25
揭发 25
援助国 25
搁浅 25
搬@@ 25
摄@@ 25
敞开 25
整 25
断然拒绝 25
斯堪 25
无党派 25
无所不在 25
无法无天 25
最深 25
最高峰 25
月间 25
有名 25
朊病毒 25
机能 25
杜马 25
来源国 25
栋 25
模范 25
欢呼雀跃 25
欣喜 25
歇斯底里 25
残留 25
殖民统治 25
每一 25
毗邻 25
毫不@@ 25
氮 25
污染者 25
沿用 25
法国社会党 25
法拉奇 25
洋 25
洞 25
流行病学 25
涂@@ 25
消弭 25
淡@@ 25
渴求 25
游行示威 25
滑落 25
烂 25
烦恼 25
焚烧 25
熊@@ 25
爬 25
犯@@ 25
独家 25
猎@@ 25
猛然 25
猛虎 25
环境@@ 25
现代史 25
瓶 25
疑 25
疲于 25
痛恨 25
白领 25
皇@@ 25
盒 25
相互之间 25
相似性 25
相较 25
眼睁睁 25
矫正 25
砸 25
碰@@ 25
离奇 25
积分 25
称不上 25
穆萨维 25
立竿见影 25
立足 25
第一届 25
第一条 25
答 25
精彩 25
紧接着 25
繁@@ 25
绑 25
给与 25
维克托 25
缩写 25
网页 25
罗夫 25
美方 25
美韩 25
老百姓 25
肌肉 25
肝脏 25
股息 25
育 25
腐败问题 25
自杀性 25
自觉 25
致裂法 25
舍 25
舒服 25
航@@ 25
苏格兰人 25
范@@ 25
莫不 25
菲派 25
萨哈 25
蕴含 25
藏身 25
衣服 25
要少 25
要紧 25
角@@ 25
角力 25
解职 25
议价 25
论战 25
识@@ 25
诟病 25
误@@ 25
调节税 25
贝克 25
负有责任 25
财政支出 25
货运 25
资本密集型 25
赌 25
越境 25
趸 25
跑@@ 25
身体健康 25
软化 25
达乌德 25
过激 25
迈尔 25
迎@@ 25
近似 25
返@@ 25
这为 25
这代人 25
这时 25
违@@ 25
透支 25
道德@@ 25
那天 25
都柏林 25
醉@@ 25
醒 25
采矿 25
里奥 25
里萨 25
重新加入 25
钚 25
锚定 25
门户 25
险恶 25
隆@@ 25
难以承受 25
雄@@ 25
雄辩 25
集中@@ 25
静 25
非洲之角 25
顿@@ 25
领教 25
颠覆性 25
魔法 25
鲸鱼 25
1700 24
2035 24
Alliance 24
America 24
CIA 24
Capital 24
FA 24
IR@@ 24
IS@@ 24
IT@@ 24
Johnson 24
Law 24
Millennium 24
NASA 24
Pi@@ 24
QE3 24
Review 24
SC@@ 24
SCAF 24
SS@@ 24
Stephen 24
Stiglitz 24
ari 24
ath 24
be 24
di 24
ef 24
ick 24
ok@@ 24
ore 24
oth@@ 24
oy@@ 24
pos@@ 24
si 24
tic@@ 24
tif@@ 24
à 24
一击 24
一败涂地 24
丁@@ 24
万一 24
三周 24
三条 24
下会 24
与世隔绝 24
世纪之交 24
东帝汶 24
丢@@ 24
两样 24
两面 24
个人信息 24
丰@@ 24
丹尼 24
乙@@ 24
交由 24
亮点 24
亲戚 24
亲身 24
今年初 24
代之以 24
代表权 24
令人兴奋 24
价格指数 24
伍@@ 24
众人 24
但用 24
低头 24
低谷 24
低速 24
使团 24
供需 24
停 24
儒教 24
兆瓦 24
公 24
公平性 24
内乱 24
册 24
决策权 24
冷却 24
净资产 24
减慢 24
凭@@ 24
击溃 24
分道扬镳 24
刊物 24
划拨 24
利比亚人 24
制高点 24
刻板 24
前列 24
功能性 24
加州大学 24
加里 24
包裹 24
十二 24
十分@@ 24
十分相似 24
十岁 24
千禧 24
卢卡斯 24
印度@@ 24
印钞 24
卷 24
卷@@ 24
原油价格 24
原状 24
参谋长 24
反之亦然 24
反射 24
古拉格 24
召回 24
右 24
司法部长 24
吉米 24
后天 24
后遗症 24
命题 24
和平@@ 24
四周 24
国力 24
国际主义 24
坑 24
培 24
基因@@ 24
基建 24
基督教民主联盟 24
堵 24
塞浦路斯人 24
增至 24
墨索里尼 24
多国 24
多方 24
大吃一惊 24
大家庭 24
夸夸其谈 24
奎@@ 24
奥斯@@ 24
安乐死 24
完工 24
完毕 24
宗@@ 24
定时炸弹 24
实事求是 24
客人 24
室外 24
寥寥无几 24
导火索 24
小心谨慎 24
尚有 24
尼克 24
屏蔽 24
屠宰 24
崩塌 24
工人党 24
巴拉圭 24
平均寿命 24
年青 24
广为人知 24
建模 24
归为 24
当做 24
当权 24
德罗 24
必需品 24
性命 24
怨 24
恋@@ 24
恐@@ 24
惨剧 24
惰性 24
房@@ 24
房地产业 24
打倒 24
打分 24
扔 24
执行@@ 24
批@@ 24
承受能力 24
抑制剂 24
抹@@ 24
拉尼 24
拉马拉 24
拘押 24
拘禁 24
排名第 24
推举 24
提问 24
握手 24
搜查 24
撞@@ 24
攻击性 24
政策措施 24
故乡 24
救灾 24
数千万 24
斥 24
斯拉夫 24
斯特劳斯 24
旅客 24
族人 24
无人驾驶 24
无可争议 24
无政府主义 24
无罪 24
无限量 24
昭示 24
显眼 24
普罗迪 24
智@@ 24
智识 24
服务器 24
本金 24
束@@ 24
杰里米 24
极左 24
查德 24
标明 24
检视 24
楷模 24
榜首 24
欢@@ 24
比方 24
氏病 24
汇总 24
污@@ 24
波利 24
注@@ 24
泰姬陵 24
海峡 24
海湾地区 24
深信 24
温斯顿 24
滥@@ 24
烂@@ 24
烧毁 24
爆破 24
爱国者 24
牧民 24
犹太复国 24
狡猾 24
玛格丽特 24
珍珠港 24
理想化 24
甚嚣尘上 24
生气 24
田东 24
申请专利 24
电力公司 24
畅销书 24
病夫 24
症结 24
皆@@ 24
益@@ 24
盐 24
监督机构 24
直白 24
相扑 24
省级 24
硬性 24
磷虾 24
礁 24
科斯 24
积极支持 24
稿 24
空想 24
竖起 24
站稳脚跟 24
端的 24
精心设计 24
约束性 24
线粒体 24
绝无 24
维基百科 24
绿@@ 24
编写 24
美印 24
翻译 24
耗@@ 24
联合国粮农组织 24
联大 24
胆敢 24
胎儿 24
胡 24
能耗 24
脏@@ 24
膜 24
自我@@ 24
自此 24
自诩 24
舒曼 24
航行 24
良方 24
芬 24
花旗银行 24
英拉 24
获奖 24
萨克斯 24
萨克逊 24
蓄@@ 24
薪资 24
被誉为 24
角逐 24
触动 24
计数 24
计票 24
订单 24
评 24
译 24
语调 24
谢 24
败北 24
贫@@ 24
购买者 24
购物中心 24
贴近 24
资金不足 24
资金投入 24
赤@@ 24
趁@@ 24
踪影 24
轮流 24
较长 24
过活 24
近在眼前 24
进出 24
进驻 24
通勤 24
遗留下来 24
遵照 24
避险 24
那套 24
那维亚 24
都市 24
酒吧 24
重估 24
重新配置 24
重量 24
野 24
铜@@ 24
铺 24
销售@@ 24
销售税 24
长崎 24
长期@@ 24
问题重重 24
防御性 24
陆上 24
院@@ 24
陷入僵局 24
难民署 24
集权主义 24
雏形 24
零碳 24
震动 24
青蒿素 24
面子 24
顾名思义 24
颗粒物 24
题@@ 24
风险投资 24
饥@@ 24
骤@@ 24
高举 24
高效率 24
高龄 24
鬼城 24
鼓 24
鼠 24
齐头并进 24
00@@ 23
08 23
1983 23
240 23
49% 23
79 23
AS 23
Alex@@ 23
Authority 23
Bill 23
Bri@@ 23
CRA 23
Carney 23
Claude 23
Daniel 23
EU 23
Education 23
Gen@@ 23
Gl@@ 23
M2 23
Mag@@ 23
Mechanism 23
Or@@ 23
PKK 23
Pre@@ 23
Pri@@ 23
ace 23
equ@@ 23
fi@@ 23
ley 23
ond 23
ski 23
ures 23
一切照旧 23
一团糟 23
一大部分 23
三家 23
不合 23
不妙 23
不相上下 23
专属经济区 23
世贸 23
丘 23
东西方 23
两份 23
两端 23
中年 23
中非共和国 23
九 23
九牛一毛 23
亚美尼亚人 23
交织 23
产业@@ 23
亲欧 23
人民民主党 23
人间 23
什叶 23
仁慈 23
介@@ 23
从那时起 23
任地 23
企业@@ 23
伊核 23
伟大领袖 23
伸@@ 23
作何 23
作对 23
使命感 23
保护者 23
信中 23
候选者 23
偏低 23
偏差 23
充分考虑 23
克鲁@@ 23
免 23
关键所在 23
军事优势 23
军演 23
军用 23
农户 23
减去 23
出口@@ 23
出逃 23
刃 23
分摊 23
划清界限 23
刚性 23
创新型 23
利维坦 23
制衣 23
前几次 23
前端 23
办事 23
加勒比地区 23
劣@@ 23
动荡不安 23
勒索 23
千里 23
卖淫 23
博茨瓦纳 23
占用 23
卡斯 23
印美 23
双双 23
发芽 23
受约束 23
口诛笔伐 23
另一家 23
叫嚣 23
台湾人 23
同性恋者 23
名列前茅 23
名著 23
吞@@ 23
周小川 23
呼唤 23
哪位 23
围墙 23
国民经济 23
图表 23
地下水 23
地主 23
地方性 23
坎 23
坎昆 23
坐下 23
坚固 23
坚持不懈 23
垫底 23
基本法 23
堵@@ 23
堵住 23
处处 23
多层次 23
多米尼克 23
大地 23
头版 23
头版头条 23
奥斯曼 23
奥班 23
好几年 23
好奇 23
好日子 23
好运 23
如此一来 23
妈妈 23
威尔士 23
婚 23
孟@@ 23
宗教自由 23
宝莱坞 23
宫 23
宰@@ 23
宿命 23
寥寥 23
尊@@ 23
尊重人权 23
就业人数 23
尼尔 23
尼罗河 23
尾部 23
州@@ 23
巧@@ 23
常说 23
平权 23
年复一年 23
庆典 23
床@@ 23
底特律 23
废弃 23
度量 23
开头 23
开工 23
开拓 23
异口同声 23
弗利 23
当事人 23
彩 23
德克萨斯 23
德拉克马 23
德米特里 23
心安理得 23
怪 23
总有 23
悉尼 23
意向 23
成泽 23
所愿 23
手腕 23
才@@ 23
打包 23
折旧 23
抵 23
抵抗运动 23
担起 23
拉夫桑贾尼 23
拘捕 23
持久和平 23
持久性 23
排量 23
推入 23
推卸 23
提拔 23
提法 23
揭@@ 23
揽 23
撕@@ 23
操作性 23
改革家 23
放出 23
教材 23
文艺复兴 23
斩首 23
施舍 23
旁观者 23
无情地 23
日增 23
时髦 23
昂@@ 23
明智之举 23
明知 23
曲折 23
更富 23
更差 23
更有意义 23
最前沿 23
期货 23
机会成本 23
机械化 23
枪击案 23
柏拉图 23
染上 23
标普 23
欺骗性 23
正站 23
正视 23
死于 23
每种 23
毫不掩饰 23
民族党 23
民间组织 23
水涨船高 23
水量 23
油砂 23
波哥大 23
泥淖 23
洛佩斯 23
浅 23
浪 23
海洛因 23
深处 23
游刃有余 23
溶@@ 23
滑入 23
滚@@ 23
漩涡 23
激动 23
爆炸事件 23
版@@ 23
特种部队 23
犯罪分子 23
环境因素 23
现代性 23
玻利瓦尔 23
甚广 23
生产@@ 23
用药 23
田@@ 23
由此看来 23
略低于 23
盛会 23
相继 23
睡眠 23
知之甚少 23
短信 23
码 23
破败 23
社会效益 23
祸@@ 23
科学知识 23
科巴 23
秘书处 23
积聚 23
稀@@ 23
稍稍 23
税种 23
童@@ 23
筹备 23
箭@@ 23
粉 23
系数 23
紊乱 23
红海 23
约旦河 23
纳尔逊 23
纸面 23
经济带 23
经济波动 23
经济部长 23
统计局 23
统领 23
缘 23
缩 23
网民 23
罗马帝国 23
罗默 23
置若罔闻 23
美国法院 23
美好未来 23
美的 23
老一辈 23
老式 23
联合国@@ 23
联合国教科文组织 23
肩负着 23
胎 23
能源@@ 23
自由选择 23
艺 23
艾哈迈德 23
获准 23
落败 23
薪金 23
血红蛋白 23
补救措施 23
西方化 23
要花 23
议论 23
诚@@ 23
语气 23
诱@@ 23
说谎 23
调整计划 23
谈成 23
豪华 23
负债率 23
财政@@ 23
责难 23
购入 23
资产阶级 23
赌场 23
赛事 23
走弱 23
赶出 23
起伏 23
起效 23
足球队 23
身穿 23
辜负 23
边上 23
近年 23
这三大 23
这倒 23
进口量 23
违法行为 23
迥异 23
迪顿 23
迫于 23
逊于 23
逐年 23
递增 23
遗漏 23
配偶 23
酶 23
里夫 23
里斯 23
重构 23
钢铁@@ 23
钻@@ 23
铅 23
铎 23
销量 23
锐减 23
长官 23
闲暇 23
闹@@ 23
阴谋论 23
阻@@ 23
阿德 23
难以捉摸 23
难觅 23
非常容易 23
面额 23
项@@ 23
飞速发展 23
马英九 23
骗子 23
高危 23
高血压 23
魏玛 23
鲜血 23
黄金价格 23
黎@@ 23
黑海 23
23andMe 22
320 22
550 22
86 22
96 22
AR@@ 22
Ass@@ 22
BRCA2 22
Be@@ 22
Bo@@ 22
Dis@@ 22
ES@@ 22
Economy 22
Fl@@ 22
Fran 22
Gi@@ 22
House 22
Im@@ 22
Jer@@ 22
Kar@@ 22
La 22
Mus@@ 22
Protection 22
Reddit 22
SA@@ 22
Sol@@ 22
Tw@@ 22
Wat@@ 22
ability 22
ach 22
air 22
ala 22
ard@@ 22
ari@@ 22
ass 22
bl@@ 22
by 22
ect 22
eli@@ 22
ess 22
hi@@ 22
ial 22
ice 22
ich 22
iss@@ 22
ous 22
over@@ 22
pre@@ 22
state 22
一再强调 22
一月份 22
一胎 22
下一阶段 22
不便 22
不出意外 22
不断涌现 22
不间断 22
不靠 22
东南部 22
丝 22
两国@@ 22
两百年 22
严厉批评 22
个人化 22
中以 22
中央委员会 22
主旨 22
之差 22
之心 22
争 22
五十 22
五名 22
五百万 22
亟需 22
产业界 22
亲人 22
人口老化 22
人工@@ 22
人际关系 22
仅凭 22
仅存 22
仇@@ 22
令人窒息 22
以较 22
任何迹象 22
企业主 22
低薪 22
住房@@ 22
作弊 22
供求 22
依托 22
侯选人 22
俄亥俄州 22
俄罗斯@@ 22
修辞 22
倒下 22
借来 22
倾销 22
假想 22
停电 22
偶@@ 22
储 22
催@@ 22
光伏 22
克里斯托弗 22
全权 22
全盘 22
全面战争 22
农田 22
冯 22
凯南 22
凯撒 22
出力 22
出租 22
出血 22
划时代 22
创新力 22
判断力 22
利雅得 22
前所未见 22
剑 22
劝@@ 22
办公 22
加以解决 22
动手 22
勒曼 22
募集 22
医护人员 22
医治 22
十几岁 22
十周年 22
协@@ 22
占领者 22
卫 22
印记 22
危急 22
卵 22
历任 22
历程 22
反民主 22
发展前景 22
发展壮大 22
发源地 22
发电站 22
受挫 22
受援国 22
变体 22
口味 22
口服 22
另@@ 22
可知 22
合理化 22
后院 22
含糊 22
听任 22
咖啡@@ 22
哀@@ 22
哈里里 22
唯 22
啦 22
喊@@ 22
喝彩 22
嘉@@ 22
固化 22
国库券 22
在乎 22
坚强 22
坟墓 22
坦率 22
坦白 22
垄断@@ 22
垫 22
堆@@ 22
堆积如山 22
境遇 22
壁 22
壮@@ 22
壳 22
处以 22
复 22
外交大臣 22
大旗 22
大获 22
天使 22
失职 22
妈 22
姆林宫 22
委内瑞拉人 22
嫌疑犯 22
孔@@ 22
孙 22
季奇 22
安全形势 22
安慰剂 22
密不可分 22
察 22
对内 22
封禁 22
就行了 22
就读 22
居伦 22
屡见不鲜 22
岛@@ 22
巡逻 22
工薪阶层 22
巨富 22
巴方 22
巷 22
布尔什维克 22
布莱@@ 22
布里斯班 22
平等权利 22
幻 22
广告商 22
应声 22
应税 22
建筑物 22
开枪 22
弗吉尼亚州 22
弥漫着 22
弱国 22
当即 22
恐怖行动 22
恭@@ 22
愚弄 22
成形 22
战略意义 22
房地 22
所指 22
扩张政策 22
扫地 22
扶@@ 22
抓@@ 22
投票站 22
投资规模 22
投身 22
拉曼 22
拉特 22
招牌 22
挥舞 22
挥霍无度 22
捐赠者 22
掌 22
掏钱 22
排行榜 22
控股公司 22
控诉 22
推动者 22
援手 22
摆布 22
播出 22
收窄 22
敬畏 22
数值 22
数据分析 22
整治 22
斯坦@@ 22
斯宾塞 22
新人 22
新旧 22
新能源 22
无人@@ 22
无所不能 22
无私 22
早晨 22
明确规定 22
暖 22
暧昧 22
最终目标 22
月球 22
本党 22
本年度 22
朱 22
杂交 22
村@@ 22
杰克森 22
核心@@ 22
桎梏 22
桩 22
梅德 22
梅琳 22
棒@@ 22
模@@ 22
欣欣向荣 22
正值 22
武装人员 22
母公司 22
毒气 22
毫无根据 22
民族团结 22
氢@@ 22
汉堡 22
沃尔特 22
沉浸 22
沉闷 22
泡 22
洞察 22
洪@@ 22
洲际 22
活生生 22
测定 22
浑@@ 22
清迈 22
渐进性 22
湖@@ 22
滑 22
激素 22
火焰 22
灵丹妙药 22
炭 22
炼@@ 22
烟民 22
煤矿 22
照护 22
熟 22
牧@@ 22
牵连 22
猜疑 22
玛利亚 22
玩具 22
珀 22
理事 22
瑞典人 22
瓦拉 22
生成 22
生物体 22
生物制药 22
电力供应 22
电视机 22
留任 22
疏忽 22
盈利性 22
盐@@ 22
盛 22
直线 22
相等 22
着想 22
石油工业 22
确有 22
碰 22
示好 22
社会科学家 22
社会秩序 22
社会群体 22
祖母 22
禁区 22
私密 22
稀松 22
税金 22
税额 22
究其原因 22
穿@@ 22
突击 22
突袭 22
窒息 22
笃信 22
第一手 22
第三轮 22
精准 22
精通 22
系统地 22
索尔 22
紧随 22
累累 22
约定 22
约翰内斯堡 22
纳斯 22
细胞@@ 22
经济社会 22
缓@@ 22
编造 22
缩影 22
缴 22
美中关系 22
联想 22
肺癌 22
胜者 22
胡萝卜 22
腾飞 22
自营 22
良知 22
花言巧语 22
苗头 22
苦果 22
莉@@ 22
莫里斯 22
营业 22
落幕 22
蒂斯 22
蔡 22
虑 22
蜂拥 22
行政部门 22
表情 22
裁量权 22
裂缝 22
裕仁 22
覆盖率 22
设计者 22
证券市场 22
诺华 22
谢瓦尔德纳泽 22
负面效应 22
败坏 22
贩 22
贫苦 22
购买量 22
赌局 22
赔付 22
赵紫阳 22
赶不上 22
越战 22
转让 22
轰@@ 22
输血 22
辛苦 22
运输成本 22
远期 22
迟 22
迷你 22
送入 22
送给 22
逮捕令 22
逾 22
道德观 22
避 22
酗酒 22
重大事件 22
野心勃勃 22
金日成 22
钞 22
错乱 22
问道 22
队长 22
阻 22
阿拉伯语 22
阿赫 22
陆@@ 22
降格 22
随时随地 22
隐喻 22
雨@@ 22
零散 22
零部件 22
非同寻常 22
音乐会 22
顺理成章 22
顽强 22
预估 22
预测者 22
预警系统 22
领先者 22
领头羊 22
颜面 22
风险性 22
饮水 22
饮酒 22
马戏团 22
驳回 22
驾车 22
骂 22
高层次 22
魔@@ 22
魔咒 22
麦当劳 22
麻@@ 22
黄油 22
黑天鹅 22
龙头 22
169 21
193 21
1955 21
360 21
64% 21
650 21
74% 21
83 21
AP 21
Action 21
Ali 21
Association 21
BIS 21
BRCA1 21
Board 21
Cal@@ 21
Defense 21
ES 21
Er@@ 21
FC 21
Ha@@ 21
High 21
IM@@ 21
Jeffrey 21
Li@@ 21
Lu@@ 21
MFF 21
Med@@ 21
Medic@@ 21
Mohamed 21
Mohammad 21
My@@ 21
Plan 21
Ryan 21
Sand@@ 21
Ste@@ 21
Wil@@ 21
ain 21
ale 21
amp@@ 21
ast 21
ata 21
ba@@ 21
cer@@ 21
ea 21
eed 21
eng@@ 21
enn@@ 21
eo 21
gen@@ 21
ings 21
ire 21
iti@@ 21
ki 21
lic@@ 21
mar 21
mar@@ 21
ora 21
str@@ 21
tin@@ 21
tor 21
ual 21
zation 21
一旁 21
一百多万 21
一端 21
一般来说 21
一页 21
万亿元 21
上述情况 21
下午 21
下旬 21
不予 21
不容乐观 21
不折不扣 21
不消说 21
不祥 21
专员 21
专用 21
两件事 21
两国间 21
个人利益 21
中国银行 21
主持人 21
之三 21
之机 21
五十万 21
井喷 21
亚伯拉罕 21
亟待 21
交易量 21
人才流失 21
人际 21
付给 21
代谢 21
任内 21
伊万 21
众说纷纭 21
传到 21
传给 21
佐利克 21
佛罗伦萨 21
作恶 21
佬 21
供奉 21
供应者 21
依附 21
便捷 21
保守党政府 21
保护伞 21
保护局 21
信仰者 21
信用风险 21
值此 21
催生出 21
僵持 21
元凶 21
先行 21
先行者 21
光辉 21
公之于众 21
公元前 21
公开场合 21
公益 21
公职人员 21
六倍 21
共同@@ 21
具@@ 21
再三 21
再犯 21
准备金率 21
几代 21
凯斯 21
分发 21
分治 21
切割 21
划归 21
列宁主义 21
利好 21
别无二致 21
制成 21
制成品 21
刺 21
剧本 21
剪@@ 21
办事处 21
办公@@ 21
勋爵 21
北海 21
北溪 21
医疗@@ 21
升迁 21
卓有成效 21
单凭 21
博弈论 21
卡尔@@ 21
卡洛斯 21
卢斯科尼 21
历史悠久 21
压垮 21
厨房 21
反犹太 21
发展势头 21
发表声明 21
受到冲击 21
受害人 21
变本加厉 21
只用 21
可兑换 21
史蒂夫 21
司法部门 21
各有不同 21
各界 21
合乎逻辑 21
合计 21
听命于 21
吸毒者 21
呼 21
咬@@ 21
咸@@ 21
哺乳动物 21
喜剧演员 21
四射 21
因子 21
国父 21
国际劳工组织 21
地会 21
地平线 21
地雷 21
墨 21
壳牌 21
处理@@ 21
复活 21
外贸 21
多管齐下 21
夥伴 21
大幅度提高 21
大潮 21
大灾难 21
大胜 21
太阳@@ 21
头衔 21
奖牌 21
奥萨马 21
女权主义者 21
如火如荼 21
妥善 21
委任 21
子虚乌有 21
存入 21
学业 21
安全措施 21
安吉拉 21
完全相同 21
官司 21
定下 21
实际操作 21
宣@@ 21
家庭@@ 21
家族企业 21
对朝 21
寻@@ 21
小事 21
小报 21
少得 21
屋@@ 21
岁入 21
巢@@ 21
己@@ 21
巴伐利亚 21
巴勒斯坦解放组织 21
巴厘岛 21
市政府 21
帕金森病 21
帷幕 21
平和 21
平坦 21
年长者 21
建树 21
开张 21
开玩笑 21
弗兰@@ 21
弗雷德 21
当属 21
彼时 21
征用 21
徒劳地 21
德语 21
心情 21
志 21
念@@ 21
怀疑者 21
性生活 21
怨气 21
怪圈 21
总成本 21
恪守 21
悔@@ 21
惨淡 21
感冒 21
战犯 21
截@@ 21
打电话 21
扬言 21
扯 21
批发 21
承载 21
技@@ 21
抓捕 21
抗氧化剂 21
披上 21
抽取 21
拉迪奇 21
拓宽 21
招来 21
按时 21
挑衅性 21
损 21
掌@@ 21
探究 21
搜寻 21
摊牌 21
撒克逊 21
操作系统 21
收税 21
政要 21
教育者 21
数不胜数 21
文化@@ 21
文莱 21
新闻业 21
新闻界 21
新陈代谢 21
新颖 21
施政 21
无所不包 21
日程表 21
旱@@ 21
景观 21
曾一度 21
曾多次 21
最高值 21
期望值 21
本拉登 21
本轮 21
杆菌 21
李嘉图 21
材@@ 21
枯荣 21
标的 21
校友 21
核打击 21
检 21
榜 21
横财 21
欠发达国家 21
欧洲经济共同体 21
歌颂 21
正直 21
此刻 21
残疾人 21
毒害 21
毒贩 21
比较@@ 21
毛拉 21
民族自决 21
民进党 21
治安 21
沾沾自喜 21
海军基地 21
海报 21
涌 21
深受其害 21
溃败 21
滑稽 21
澳@@ 21
火力 21
点击 21
烦@@ 21
煎熬 21
牛市 21
特赦 21
献身 21
玩火 21
现实主义者 21
珍贵 21
甘 21
用语 21
留学 21
畸高 21
皈依 21
盎司 21
盲点 21
相互指责 21
相伴 21
相关联 21
相冲突 21
看电视 21
着眼点 21
确 21
碍@@ 21
示@@ 21
社会关系 21
祖玛 21
禁锢 21
私人机构 21
突发事件 21
突触 21
窃@@ 21
窥@@ 21
立宪 21
童年 21
第一线 21
第二项 21
第八 21
等同 21
答应 21
策略性 21
粗略 21
系统@@ 21
纪@@ 21
纵@@ 21
练 21
经济大国 21
经纪人 21
绝缘 21
统计学 21
维亚 21
绿 21
缺乏经验 21
缺水 21
羁押 21
美国大学 21
老龄 21
耗竭 21
耳熟能详 21
耻 21
职工 21
聚合物 21
肇事者 21
肖@@ 21
胆@@ 21
胶@@ 21
自家 21
自封 21
致命性 21
致歉 21
航空母舰 21
芬@@ 21
菲律宾人 21
萨特 21
藏匿 21
蛊惑人心 21
血管 21
表格 21
被称作 21
西北 21
西姆 21
西蒙 21
观测 21
视之为 21
视线 21
解放运动 21
解放阵线 21
触底 21
计划@@ 21
计算@@ 21
让渡 21
诗歌 21
该地 21
说教 21
请@@ 21
课题 21
谚语 21
贝尔格莱德 21
贡 21
财政负担 21
账目 21
贫血 21
贴@@ 21
赞叹 21
赞比亚 21
赶走 21
超导 21
超然 21
跟不上 21
跨过 21
踩 21
躺 21
转入 21
转机 21
软件@@ 21
轰然 21
输油管道 21
迁 21
迈勒 21
近代 21
这帮 21
这股 21
进一步提高 21
连接起来 21
逐一 21
遥遥领先 21
那儿 21
酸@@ 21
采 21
重新制定 21
钥匙 21
长城 21
长征 21
阿盟 21
降价 21
随便 21
隔夜 21
隶属于 21
难点 21
雀 21
静悄悄 21
顶部 21
领会 21
频频 21
颗 21
风头 21
飞涨 21
飞行员 21
饱 21
饼 21
首肯 21
驱@@ 21
驱散 21
骄傲地 21
高温 21
高附加值 21
鲸 21
鸭 21
101 20
125 20
14@@ 20
1918 20
1952 20
7500 20
850 20
86% 20
Barry 20
Cooperation 20
Democratic 20
Draghi 20
EM@@ 20
Energy 20
FBI 20
GNI 20
Gh@@ 20
Her@@ 20
IP@@ 20
JPM 20
King 20
Lawrence 20
Medicare 20
PDVSA 20
Ro@@ 20
Sc@@ 20
Service 20
Sil@@ 20
UN@@ 20
ab 20
ampgt 20
amplt 20
ane 20
ano 20
ast@@ 20
bert 20
ean 20
eld 20
ett 20
eur@@ 20
fa@@ 20
ines 20
ko 20
onal 20
ong 20
ook 20
oor 20
ou 20
oun@@ 20
per 20
pp@@ 20
ps 20
stein 20
tic 20
up 20
vis@@ 20
za 20
一世 20
一两个 20
一意孤行 20
一期 20
一杯 20
一案 20
一桩 20
一点@@ 20
一纸空文 20
三季度 20
上旬 20
上瘾 20
上移 20
上级 20
不可逾越 20
不堪一击 20
不失为 20
不论如何 20
不足之处 20
世界主义 20
世界大国 20
严惩 20
丧@@ 20
中东战争 20
之低 20
之国 20
之士 20
之痛 20
书记 20
于是乎 20
互相矛盾 20
互补性 20
产假 20
亲王 20
人想 20
仁 20
令人厌恶 20
任何理由 20
企@@ 20
伊朗伊斯兰共和国 20
优良 20
传出 20
低端 20
住院 20
何方 20
作出反应 20
俄军 20
俄罗斯联邦 20
保障@@ 20
信守 20
倍@@ 20
候@@ 20
借款国 20
值@@ 20
偏 20
傲 20
元首 20
充满信心 20
光环 20
全无 20
公共安全 20
公司@@ 20
公用事业 20
共谋 20
关系@@ 20
冠 20
减债 20
几千年 20
几点 20
凡尔赛 20
凭空 20
出产 20
出版物 20
刚果民主共和国 20
利亚@@ 20
利库德 20
剥@@ 20
动辄 20
北韩 20
医疗机构 20
十六 20
千亿美元 20
千名 20
半球 20
华丽 20
南方共同市场 20
南沙群岛 20
卡拉奇 20
卫星@@ 20
卫生系统 20
历史教训 20
历次 20
厘米 20
原住民 20
原型 20
双轨 20
反倾销 20
发展潜力 20
变更 20
变革性 20
口气 20
另辟蹊径 20
只能靠 20
只顾 20
召唤 20
各位 20
各路 20
后门 20
吝啬 20
吸收能力 20
呈@@ 20
和普京 20
和约 20
哀悼 20
哮喘 20
唉 20
唾手可得 20
善举 20
善良 20
四天 20
四种 20
回响 20
围困 20
国债券 20
国情咨文 20
国门 20
囿于 20
土豆 20
圣城 20
在所难免 20
地去 20
地盘 20
坎坷 20
坏处 20
坦白说 20
埋下 20
基本要素 20
堂@@ 20
堤 20
境@@ 20
墓@@ 20
外交家 20
多米诺骨牌 20
大不@@ 20
大大减少 20
大幅度降低 20
大跃进 20
太长 20
失业工人 20
头号 20
夹 20
夹@@ 20
夺得 20
奖项 20
奥马尔 20
如此等等 20
姑@@ 20
娱乐@@ 20
孙@@ 20
学前教育 20
宿@@ 20
对以 20
对美 20
少有 20
尔顿 20
尽如人意 20
屋顶 20
属@@ 20
崇拜者 20
工业@@ 20
工业部门 20
工艺 20
巨大变化 20
已近 20
布莱恩 20
希曼 20
席@@ 20
常委 20
帽子 20
干涸 20
平滑 20
年度预算 20
并不知道 20
幻@@ 20
幻象 20
庄@@ 20
应是 20
庭@@ 20
开去 20
开放政策 20
开车 20
弃权 20
弗雷 20
强加于 20
强烈抗议 20
强硬态度 20
强者 20
归结 20
当口 20
得罪 20
微调 20
德维尔 20
德鲁兹 20
必然结果 20
忘掉 20
忧@@ 20
性关系 20
总产量 20
总统制 20
惊 20
惩戒 20
想见 20
愈@@ 20
愈发 20
意指 20
愿@@ 20
成瘾 20
成群结队 20
战区 20
战术性 20
戴维营 20
所获 20
扑朔迷离 20
扑灭 20
扑热息痛 20
打动 20
打折 20
托管 20
执业 20
扫描 20
扶助 20
投票表决 20
担负起 20
拆分 20
拔 20
挂@@ 20
挥@@ 20
捕@@ 20
推上 20
掩@@ 20
援 20
搜@@ 20
搭 20
摩根士丹利 20
摩苏尔 20
撒哈拉沙漠 20
支票 20
攻讦 20
放在首位 20
政治局面 20
政治立场 20
敏@@ 20
数以 20
数百 20
数百万美元 20
敲定 20
斯特@@ 20
斯蒂芬 20
新月 20
新纳粹 20
新著 20
旁边 20
既得利益者 20
日本式 20
时有 20
显现出 20
普通@@ 20
暗含 20
更慢 20
曼哈顿 20
最后通牒 20
有多@@ 20
朝圣者 20
机动 20
杭州 20
核实 20
核心内容 20
检察长 20
榨取 20
欣慰 20
歌手 20
正统性 20
毫不含糊 20
氟 20
水稻 20
沃森 20
法国总理 20
法律义务 20
洛斯 20
活体 20
流血事件 20
消费市场 20
深恶痛绝 20
混 20
渐 20
游泳 20
游离 20
灾@@ 20
灾区 20
炉 20
炮@@ 20
炸@@ 20
点头 20
点对点 20
烈@@ 20
照看 20
爆炸式 20
爪牙 20
爱尔兰人 20
牺牲者 20
现货 20
甚远 20
生存率 20
生日 20
用场 20
申请者 20
电价 20
畏@@ 20
畸形 20
疲惫 20
百万@@ 20
皮肤 20
直接对话 20
眉@@ 20
睡@@ 20
石头 20
破坏者 20
硫 20
碳化物 20
磨@@ 20
示弱 20
礼仪 20
社@@ 20
社论 20
离心机 20
科学依据 20
突如其来 20
窄 20
第一阶段 20
第九条 20
第二阶段 20
笼子 20
筹措 20
筹款 20
简短 20
素养 20
累 20
红十字会 20
纪 20
纷@@ 20
经常帐户 20
经济运行 20
绳之以法 20
维利 20
维希 20
编码 20
老大 20
老练 20
而出 20
而动 20
而应 20
而行 20
耕种 20
职业@@ 20
聚变 20
胆 20
脑后 20
脑病 20
脾气 20
腐朽 20
臭@@ 20
船上 20
苏尔 20
荷尔蒙 20
莫衷一是 20
莱德 20
莱茵 20
获释 20
菲永 20
萨缪尔 20
蒂萨 20
蓝色 20
蓝领工人 20
藩篱 20
蜜月 20
行政命令 20
补充性 20
衰竭 20
衰退期 20
被困 20
西岸地区 20
要害 20
规划者 20
誉 20
计算能力 20
讯 20
记忆犹新 20
评论者 20
词语 20
试问 20
该案 20
该片 20
说不定 20
责@@ 20
贪@@ 20
趋紧 20
跌至 20
跟@@ 20
踌躇满志 20
转嫁给 20
转播 20
较慢 20
边境地区 20
迁@@ 20
过错 20
这边 20
进军 20
进攻性 20
远东 20
迥然不同 20
送上 20
选拔 20
途经 20
遵守规则 20
邦联 20
里亚 20
里尔 20
重合 20
金主 20
钓鱼 20
钟摆 20
链接 20
镜像 20
阶级斗争 20
阿登纳 20
陆续 20
陷 20
难上加难 20
雨果 20
非正统 20
非经济 20
韩国政府 20
顶点 20
领军人物 20
领空 20
饮@@ 20
首届 20
马其顿 20
马尔 20
马来 20
马约 20
马纳 20
骑士 20
魁北克 20
鲜为人知 20
麦康奈尔 20
鼎@@ 20
齐达内 20
1907 19
1917 19
2021 19
56% 19
71 19
72% 19
81 19
81% 19
82% 19
AD 19
APEC 19
CRISPR 19
Cap@@ 19
Clinton 19
Corporation 19
Dep@@ 19
EA@@ 19
EC 19
Edward 19
El 19
Ge@@ 19
Ger@@ 19
Gr@@ 19
Green 19
HICCup 19
Ham@@ 19
ICTY 19
Intergovernmental 19
Is@@ 19
Jacques 19
LGBT 19
Michel 19
NI@@ 19
Nations 19
Nexus 19
Organization 19
Poli@@ 19
Sch 19
Society 19
ai 19
ara 19
ards 19
bi@@ 19
bin 19
cons@@ 19
de@@ 19
ear@@ 19
ect@@ 19
ei 19
ere 19
inc@@ 19
lan 19
mann 19
min@@ 19
non 19
ome 19
ont 19
ors 19
our 19
q 19
red@@ 19
tin 19
tions 19
tweet 19
uble 19
ver@@ 19
yan 19
zi 19
ö 19
一分为二 19
一吨 19
一堆 19
一头 19
一小 19
一招 19
一目了然 19
一辈子 19
七大 19
下降时 19
不休 19
不寒而栗 19
不得@@ 19
不怎么 19
不择手段 19
不朽 19
不能@@ 19
不能容忍 19
不良资产 19
不菲 19
世界末日 19
两翼 19
严格执行 19
个人收入 19
临 19
为数众多 19
之选 19
书写 19
书店 19
事与愿违 19
二号 19
二次大战 19
亏 19
互利 19
五六十年代 19
亚利桑那州 19
亡@@ 19
交通事故 19
亦步亦趋 19
产妇 19
享@@ 19
亲手 19
人口众多 19
人口构成 19
人权记录 19
人格@@ 19
从容 19
以牙还牙 19
仰光 19
任者 19
任重道远 19
仿@@ 19
企业界 19
伊曼纽尔 19
伍德罗 19
休克 19
优待 19
伙 19
会员国 19
伴 19
低息贷款 19
低落 19
佳@@ 19
供职 19
侧面 19
保尔森 19
保护性 19
俩 19
停下来 19
傅@@ 19
储@@ 19
兆头 19
先兆 19
克莱蒙 19
全套 19
全能 19
八国 19
公共场合 19
公司债务 19
公开@@ 19
公正性 19
六分之一 19
关头 19
关联性 19
兴衰 19
内生 19
内讧 19
农药 19
决策程序 19
况且 19
冷酷 19
冷酷无情 19
凌@@ 19
凝@@ 19
几十万 19
几名 19
凶残 19
凶险 19
出口品 19
分行 19
分隔 19
刑法典 19
别墅 19
制片人 19
前列腺癌 19
前进方向 19
加倍努力 19
加在一起 19
加西亚 19
动物@@ 19
化工 19
北方邦 19
十七世纪 19
十二@@ 19
十天 19
升职 19
升起 19
南韩 19
博格 19
卡内基 19
即期 19
压得 19
压迫者 19
反正 19
反转 19
受贿 19
可变 19
可逆 19
号@@ 19
号称 19
吃紧 19
各政党 19
合伙人 19
合共 19
合在一起 19
吉拉尼 19
吊@@ 19
哈桑 19
喜好 19
四方 19
回扣 19
回潮 19
国土面积 19
国境 19
国防@@ 19
国际竞争 19
国际能源机构 19
国际货币基金 19
圈套 19
圣徒 19
地理@@ 19
坐落 19
坚不可摧 19
坛 19
域@@ 19
基因突变 19
增加@@ 19
声浪 19
外逃 19
多亿 19
多伦多 19
多岁 19
多种@@ 19
大受欢迎 19
大户 19
大桥 19
天皇 19
天翻地覆 19
夷为平地 19
奔赴 19
奥斯卡 19
奴@@ 19
好过 19
妙@@ 19
姓名 19
娃 19
婚礼 19
媒 19
孔 19
孔子 19
孕产妇 19
存款人 19
孙子 19
季节性 19
学习@@ 19
守护者 19
安全区 19
安德森 19
宏@@ 19
密歇根 19
对抗性 19
小小的 19
就位 19
屁股 19
展望未来 19
巴兰 19
巴西政府 19
市场导向 19
布兰@@ 19
布拉特 19
布鲁@@ 19
希德 19
帐篷 19
广度 19
异类 19
弊 19
引 19
引以为豪 19
引起争议 19
当回事 19
当量 19
很能 19
德国队 19
心怀 19
心怀不满 19
忍 19
志向 19
性侵犯 19
总司令 19
恢复过来 19
恫吓 19
恶名 19
恶棍 19
悲观者 19
想得到 19
惹@@ 19
愤@@ 19
慈善事业 19
慎重 19
慕@@ 19
成功率 19
成本上升 19
成本增加 19
成见 19
战略武器 19
手工 19
手指 19
扣押 19
披 19
拉尔 19
拖垮 19
拨 19
持股 19
挡 19
捕鲸 19
推手 19
描写 19
提示 19
摸 19
撰文 19
攀@@ 19
改组 19
效能 19
敌@@ 19
敌方 19
敏感度 19
救市 19
敬@@ 19
敬而远之 19
数以万计 19
整场 19
文化差异 19
断裂 19
新一波 19
新古典主义 19
新意 19
无数次 19
无法忍受 19
无神论者 19
早晚 19
时装 19
昭然若揭 19
晚期 19
普惠 19
普选 19
普通百姓 19
普遍现象 19
更多人 19
服饰 19
朝圣 19
本性 19
机械@@ 19
条路 19
枷锁 19
染色体 19
栖身 19
核事故 19
核危机 19
核大国 19
格莱布 19
梁振英 19
梳理 19
棋盘 19
植树 19
横向 19
欠@@ 19
次优 19
次序 19
欧共体 19
欧洲联盟 19
欺凌 19
歇 19
止步 19
正中 19
此时此刻 19
死亡威胁 19
殊@@ 19
比比皆是 19
江泽民 19
汽油价格 19
沉没 19
沉溺于 19
法兰西共和国 19
浏览 19
浪@@ 19
海军陆战队 19
消费主义 19
淡 19
深圳 19
混杂 19
渎职 19
游击 19
漏@@ 19
漏油 19
演出 19
炸毁 19
烈士 19
燃气 19
爱情 19
物价水平 19
特人 19
特殊性 19
狂妄 19
狐狸 19
狭小 19
猜想 19
玛丽 19
环境标准 19
现代科学 19
珍@@ 19
珠@@ 19
琐碎 19
瑟 19
甘愿 19
生产方式 19
生死 19
用电 19
用量 19
留意 19
略显 19
疯@@ 19
白沙瓦 19
盯 19
直到现在 19
相互尊重 19
看做 19
看得见 19
着眼 19
短命 19
砖@@ 19
破碎 19
碾@@ 19
社会学 19
社会阶层 19
社保 19
祖马 19
票@@ 19
票仓 19
福山 19
离散 19
禽流感 19
秋@@ 19
种植者 19
科技@@ 19
秘 19
积极@@ 19
积极主动 19
称道 19
稀土 19
稀缺资源 19
穆迪 19
空话 19
窗 19
竞技场 19
竟 19
第一项 19
第三项 19
第四季度 19
笼 19
策@@ 19
简报 19
粮 19
精密 19
精神障碍 19
索偿 19
繁忙 19
级@@ 19
纽约@@ 19
终极目标 19
终究 19
经济学界 19
绝对优势 19
统计学家 19
缅甸政府 19
缓 19
罗恩 19
罗申科 19
美国司法部 19
美国大使馆 19
耗 19
联盟党 19
肾@@ 19
胜负 19
胺 19
脉@@ 19
腐@@ 19
腐化 19
腾挪 19
自助 19
致残 19
舌 19
般地 19
舰 19
花招 19
苏丹政府 19
莫汉 19
获得胜利 19
菜@@ 19
营养素 19
落空 19
董事长 19
葬 19
蒙混过关 19
蒙特 19
蚊 19
西半球 19
解放组织 19
警卫队 19
训 19
证人 19
评议 19
诈骗 19
诘难 19
说成 19
谈判桌上 19
谢钦 19
谦卑 19
谦逊 19
谷底 19
豪赌 19
贡献者 19
货币汇率 19
购房者 19
贷款@@ 19
赎罪 19
赐 19
赞 19
赫尔@@ 19
走狗 19
起色 19
超重 19
越少 19
越来越低 19
蹩脚 19
转型期 19
轮廓 19
软弱无力 19
轰炸机 19
辨@@ 19
边沁 19
达尔文主义 19
过境 19
迈 19
这支 19
远不如 19
违宪 19
连贯性 19
逆向 19
选中 19
通报 19
遭殃 19
那年 19
邻 19
郭 19
配套 19
重大成就 19
重温 19
重要@@ 19
钦 19
钻 19
银 19
链@@ 19
锡@@ 19
长期债务 19
闭门 19
闻名于世 19
阿尔巴尼亚人 19
阿拉@@ 19
附庸 19
隧道 19
难事 19
难以预料 19
雷茨 19
非官方 19
韦捷夫 19
顺应 19
颇受欢迎 19
频 19
颠倒 19
饮用 19
饱@@ 19
马耳他 19
高低 19
高技术 19
高明 19
魂 19
黄豆 19
齐聚一堂 19
0000 18
1400 18
1959 18
210 18
330 18
52% 18
67% 18
69% 18
93% 18
97% 18
98% 18
Abd@@ 18
Airbnb 18
And@@ 18
Anwar 18
Ap@@ 18
BS 18
Ber@@ 18
Bh@@ 18
Bi@@ 18
Boris 18
Brown 18
CH@@ 18
Care 18
Case 18
DR 18
DS 18
EA 18
Free 18
Great 18
IAEA 18
Islamic 18
Jackson 18
Jim 18
Mad@@ 18
Mer@@ 18
ND@@ 18
PA 18
Public 18
R2P 18
Ra@@ 18
Reg@@ 18
Rep@@ 18
SD@@ 18
Science 18
Sen 18
Sn@@ 18
Star 18
State 18
States 18
Sw@@ 18
Tom 18
Viktor 18
Wal@@ 18
acy 18
ado 18
ality 18
ami 18
amm@@ 18
bor@@ 18
elle 18
era 18
ham 18
ici@@ 18
ick@@ 18
ish@@ 18
iz 18
ood@@ 18
poli@@ 18
port 18
rec@@ 18
sa 18
tl@@ 18
ts@@ 18
ul 18
uti@@ 18
von 18
一些则 18
一切顺利 18
一去不复返了 18
一国两制 18
一帆风顺 18
一律 18
一触即发 18
一遍 18
一长串 18
一阵 18
一飞冲天 18
一马当先 18
七月份 18
三边 18
上规模 18
不为 18
不可同日而语 18
不可开交 18
不同点 18
不向 18
不容置疑 18
不带 18
不提 18
不无 18
不止一次 18
不约而同 18
不顾一切 18
专家组 18
世俗化 18
世界之最 18
世界领先 18
丙@@ 18
丛生 18
两性 18
两面@@ 18
严肃认真 18
严重错误 18
中产 18
丰 18
临界 18
主因 18
主教 18
举世@@ 18
之光 18
乏善可陈 18
事务@@ 18
二人 18
亚尼 18
交叉 18
亨廷顿 18
亲朋好友 18
人文学科 18
人比 18
人气 18
人类文明 18
从总体上 18
从政 18
仙台 18
以极 18
以比 18
伊凡 18
伏 18
休眠 18
优先@@ 18
优柔寡断 18
伟人 18
传承 18
伦理学 18
似曾相识 18
体外受精 18
佛山 18
佩里 18
佳 18
使出 18
供养 18
依法 18
侥幸 18
俄勒冈州 18
俄美 18
保险商 18
信心危机 18
信服 18
俱@@ 18
倍受 18
倒数 18
倒霉 18
候 18
债台高筑 18
假消息 18
偏右 18
偶像 18
偿@@ 18
儿女 18
充耳不闻 18
先于 18
光明@@ 18
光芒 18
光鲜 18
免职 18
党执政 18
关注度 18
其子 18
兼具 18
军事法庭 18
准军事 18
几十亿 18
分析@@ 18
刑罚 18
初中 18
利害关系 18
制宪会议 18
刷 18
剃头 18
剧院 18
副行长 18
力学 18
功效 18
加尔@@ 18
加速器 18
努 18
劫 18
势不可挡 18
勒姆 18
勤 18
北极熊 18
医疗保障 18
十万 18
午夜 18
半壁江山 18
卑劣 18
卓@@ 18
占领军 18
卡耶夫 18
即使如此 18
卵@@ 18
厄尔 18
原子能 18
原罪 18
去年同期 18
参半 18
反革命 18
发出声音 18
发射@@ 18
受到@@ 18
受惠 18
受苦 18
受试者 18
受难 18
变异型 18
叙述 18
古吉拉特邦 18
可循 18
可预见性 18
右@@ 18
各邦 18
合同@@ 18
合意 18
吵@@ 18
周日 18
和平时期 18
哈利 18
哈格 18
哈瓦那 18
商业机会 18
商议 18
商谈 18
噪音 18
四月份 18
四百万 18
回暖 18
国家计划 18
场上 18
坍塌 18
坏人 18
坠落 18
坦诚 18
垂直 18
城市规划 18
基线 18
堪培拉 18
增长期 18
壮 18
多边合作 18
够@@ 18
大同 18
大有@@ 18
大肆宣传 18
大踏步 18
失业人数 18
头条新闻 18
头痛 18
夸大其词 18
奠基 18
奥巴桑乔 18
奥林匹克 18
妇女@@ 18
姐妹 18
姑且 18
委@@ 18
威信 18
威吓 18
子孙 18
安妮 18
宏观政策 18
官邸 18
定理 18
实惠 18
宠儿 18
容易接受 18
密集度 18
对错 18
寺 18
封信 18
封面 18
将领 18
尝@@ 18
就业人口 18
屏幕 18
岗 18
巅峰 18
工资收入 18
巨大进步 18
巨额利润 18
巴斯克 18
巴马 18
常有 18
干系 18
平时 18
幸@@ 18
幸运地 18
幽@@ 18
应用@@ 18
废@@ 18
座@@ 18
庸@@ 18
建构 18
建设@@ 18
开城 18
开除 18
弄巧成拙 18
弄清 18
归罪于 18
当是 18
录得 18
彼 18
征兆 18
径 18
律@@ 18
德班 18
心声 18
性虐待 18
恋 18
恩里克 18
悄悄 18
悔 18
愚@@ 18
愚昧 18
愧疚 18
成份 18
成本低 18
战斗@@ 18
战略@@ 18
战略眼光 18
房屋贷款 18
所欲 18
所述 18
手持 18
手无寸铁 18
打乱 18
打响 18
扰 18
扰动 18
扶植 18
投下 18
折衷 18
抢先 18
抢劫 18
报复性 18
报应 18
拉克 18
拉卡 18
拨付 18
挣 18
探寻 18
推倒 18
提供商 18
插曲 18
搭@@ 18
摊 18
操之过急 18
支持系统 18
放之四海而皆准 18
故障 18
救治 18
救赎 18
教学@@ 18
敢@@ 18
数千年 18
文化遗产 18
文档 18
斑@@ 18
断定 18
斯特伐 18
斯科 18
新娘 18
方才 18
旋@@ 18
无可厚非 18
日新月异 18
日本民主党 18
早年 18
时数 18
昆虫 18
晋升 18
晴雨表 18
暴 18
暴发 18
有机体 18
有过之而无不及 18
服刑 18
未有 18
朴正熙 18
束 18
束之高阁 18
杰克 18
松弛 18
极尽 18
柱 18
柳叶刀 18
柴@@ 18
标识 18
栏 18
株 18
核电厂 18
根据地 18
根本就是 18
格雷厄姆 18
棋手 18
欣 18
欧后 18
步履维艰 18
残局 18
殖民者 18
母鸡 18
毒素 18
水污染 18
汇回 18
沉睡 18
沥青 18
沼泽 18
法国@@ 18
法学院 18
波尔 18
泥炭 18
济 18
浪费时间 18
海路 18
消防@@ 18
涌现出 18
淋@@ 18
深海 18
渗入 18
灯@@ 18
灰飞烟灭 18
热切 18
煽风点火 18
熟练工人 18
爆发式 18
爱好者 18
牛顿 18
物理@@ 18
特立独行 18
犀牛角 18
犯罪团伙 18
犯罪率 18
玛丽@@ 18
玩家 18
环绕 18
现实生活 18
现政权 18
现行政策 18
玻璃 18
珍妮特 18
瑞士法郎 18
瓦罗 18
生态@@ 18
生活水准 18
用户@@ 18
甲 18
盾 18
真实性 18
真有 18
矣 18
知名度 18
知识经济 18
石油危机 18
石油部门 18
神学家 18
神经科学 18
神经细胞 18
科齐 18
称号 18
稳定增长 18
突@@ 18
站@@ 18
站点 18
符合@@ 18
符合中国 18
第一波 18
第七@@ 18
粗俗 18
紧要 18
繁重 18
纯一 18
纳斯鲁拉 18
绊脚石 18
经不起 18
经济委员会 18
绑定 18
统帅 18
继之 18
维护和平 18
罂粟 18
网络战 18
罔顾 18
美以 18
美好生活 18
翻天覆地 18
耀武扬威 18
耻@@ 18
联想起 18
肉食 18
肝 18
肥胖率 18
背井离乡 18
背弃 18
胡安 18
脑膜炎 18
脑袋 18
脱轨 18
腐烂 18
自我意识 18
自来水 18
自焚 18
自然科学 18
自行其是 18
自认 18
舒尔茨 18
舞@@ 18
航天 18
艇 18
苏伊士运河 18
苏格拉底 18
英特尔 18
英联邦 18
范龙佩 18
莎士比亚 18
莱西 18
萨克 18
葬送 18
蒙代尔 18
虐@@ 18
蜕变 18
衣钵 18
补足 18
表露无遗 18
被选为 18
裂 18
西奥 18
覆灭 18
见于 18
言简意赅 18
言语 18
詹@@ 18
警卫 18
计划署 18
计量 18
让@@ 18
诀窍 18
诡异 18
误入歧途 18
误差 18
说客 18
说真的 18
诸脑 18
课本 18
谋取 18
谜 18
贝京 18
财政预算 18
财经 18
账@@ 18
贫民 18
贼 18
跌去 18
距今 18
身居 18
身患 18
躲 18
较强 18
辞 18
辱 18
迁就 18
过得 18
近距离 18
这张 18
连通 18
迟@@ 18
迟到 18
退税 18
递@@ 18
逝 18
遏止 18
遗体 18
邪@@ 18
酋长国 18
采取相应 18
重债国 18
重大意义 18
重量级 18
金融资本 18
钟爱 18
铁丝网 18
银行信用 18
锁 18
锋@@ 18
错位 18
阅@@ 18
阿拉斯加 18
附和 18
陆克文 18
降下来 18
院长 18
除掉 18
陷@@ 18
雄心壮志 18
雾@@ 18
霍姆 18
青 18
静态 18
非市场 18
非法行为 18
颂扬 18
飘@@ 18
飘忽不定 18
食品@@ 18
饱和 18
首付 18
马克斯 18
马基雅 18
马斯克 18
骚动 18
高性价比 18
高时 18
高等法院 18
高级@@ 18
高谈阔论 18
鬼@@ 18
魔力 18
鲜活 18
鼠@@ 18
200@@ 17
260 17
93 17
AIDS 17
Business 17
CAFTA 17
CF@@ 17
CP@@ 17
CSU 17
Col@@ 17
Corbyn 17
Coun@@ 17
Declaration 17
ESG 17
Fa@@ 17
Five 17
Gazprom 17
Hal@@ 17
Han@@ 17
Henry 17
Hu@@ 17
IA@@ 17
IPL 17
Ifo 17
Index 17
Isl@@ 17
Jac@@ 17
Jam@@ 17
Janet 17
Ju@@ 17
KRG 17
Kell@@ 17
Kibaki 17
Kn@@ 17
Manuel 17
Mas@@ 17
Mat@@ 17
May@@ 17
Mur@@ 17
Ni@@ 17
Nuclear 17
OP 17
OPEC 17
PS 17
Pet@@ 17
Sec@@ 17
Sha@@ 17
Tax 17
Tur@@ 17
UN 17
UNFCCC 17
Val@@ 17
Wor@@ 17
act 17
agan 17
ams 17
ase 17
att@@ 17
cess 17
del 17
den 17
ences 17
fer@@ 17
ger 17
ght 17
ha 17
itt@@ 17
lin 17
lo 17
mat@@ 17
ock 17
ood 17
ory 17
osi@@ 17
pe@@ 17
rep@@ 17
uction 17
una 17
wh@@ 17
一下子 17
一到 17
一夜 17
一宗 17
一心一意 17
一段@@ 17
一章 17
一般化 17
一般地说 17
一般而言 17
一言以蔽之 17
三支 17
上行 17
下层 17
下级 17
下结论 17
不具 17
不可动摇 17
不相干 17
不知所措 17
不称职 17
不端 17
不致 17
不良@@ 17
不良后果 17
专 17
专制政府 17
专横 17
业余 17
业界 17
两件 17
两支 17
个案 17
中投 17
中日关系 17
中曾 17
中等教育 17
丸 17
主力 17
主动性 17
之事 17
之快 17
之意 17
之计 17
乐队 17
九段 17
书名 17
争论不休 17
事是 17
二线 17
互惠互利 17
互通 17
五常 17
亚斯 17
亚特兰大 17
亡 17
交火 17
亲眼@@ 17
亲身经历 17
亲近 17
亵渎 17
从中作梗 17
从小 17
代人 17
令人欣慰 17
令人难忘 17
以供 17
以色列国 17
任人唯亲 17
份量 17
伊斯@@ 17
众人皆知 17
伟 17
传来 17
传记 17
估计值 17
似是而非 17
体量 17
佛教徒 17
依存度 17
侦@@ 17
保值 17
借以 17
债转股 17
假丝 17
偏执狂 17
偏隘 17
儿童@@ 17
兄 17
克劳 17
克拉克 17
克里@@ 17
入侵者 17
全力以赴 17
全境 17
公司股票 17
公开化 17
公有 17
关进 17
具体来说 17
典 17
兽@@ 17
内斯 17
写手 17
冲破 17
决策层 17
凑@@ 17
几何 17
几分钟 17
出众 17
出版@@ 17
分校 17
分给 17
刊 17
刑期 17
利息收入 17
利益者 17
前台 17
劣等 17
劣质 17
动因 17
化为 17
北非地区 17
匹 17
区域合作 17
十分明确 17
十字军 17
千疮百孔 17
危 17
即将来临 17
卸@@ 17
原子@@ 17
反共 17
发人深省 17
发型 17
取舍 17
受到谴责 17
受益人 17
叛国 17
口径 17
另一半 17
可供 17
可信性 17
可口可乐 17
可喜 17
史密斯 17
司令 17
吃掉 17
各个方面 17
合伙 17
合作方 17
同一天 17
后腿 17
吴@@ 17
吹 17
周转 17
味@@ 17
和平主义 17
哪条 17
售出 17
唯独 17
喜不喜欢 17
喜剧 17
喜马拉雅 17
喻 17
嘲弄 17
四家 17
回旋余地 17
围攻 17
国民会议 17
国际奥委会 17
国际法院 17
地球@@ 17
坚韧 17
坠毁 17
垃圾@@ 17
埃米尔 17
埋单 17
培植 17
基础教育 17
堵塞 17
备用 17
外科医生 17
外科手术 17
外面 17
大学教授 17
大戏 17
大法官 17
大猩猩 17
天平 17
太平洋战争 17
失去@@ 17
夺权 17
奥尔@@ 17
奥尼尔 17
女婿 17
好友 17
妮@@ 17
孩@@ 17
安德烈 17
完全符合 17
宜@@ 17
实权 17
客观@@ 17
家具 17
宿主 17
密谋 17
富足 17
富饶 17
寒冷 17
寸@@ 17
对前 17
对华关系 17
对大 17
对话者 17
封建 17
小团体 17
尘 17
就职典礼 17
尼亚@@ 17
尼采 17
山姆 17
山脉 17
岸@@ 17
峰 17
币种 17
布隆 17
帐@@ 17
带上 17
帮忙 17
常设 17
平衡@@ 17
年龄@@ 17
广东 17
廉@@ 17
建筑工人 17
开幕 17
引以为@@ 17
强于 17
强盗 17
当一国 17
形状 17
徒刑 17
得利 17
得票率 17
德国@@ 17
德曼 17
忙@@ 17
怀俄明州 17
性别差异 17
恼怒 17
恼火 17
患@@ 17
惨烈 17
惶@@ 17
感觉良好 17
愤 17
懒惰 17
戈兰高地 17
戒烟 17
战壕 17
所写 17
所学 17
所见 17
打赌 17
扣@@ 17
执行者 17
扫除 17
技术支持 17
技术转让 17
抑@@ 17
抢夺 17
披@@ 17
抵销 17
押注 17
抽出 17
拉伊 17
拉夫 17
拉比 17
拿来 17
持久战 17
指手画脚 17
指摘 17
挤 17
振奋 17
捕 17
捞 17
接踵而至 17
推算 17
提速 17
援救 17
搞清楚 17
搞错 17
搭档 17
摩尔 17
收复 17
收拾残局 17
放纵 17
政敌 17
政治气候 17
敌对势力 17
敏 17
教育权 17
教育领域 17
数倍 17
整体利益 17
斤@@ 17
斯科特 17
新闻台 17
新闻网 17
方都 17
旗@@ 17
无关痛痒 17
无孔不入 17
无差别 17
无果 17
无耻 17
无薪 17
日美 17
星期@@ 17
春@@ 17
显微镜 17
暴力犯罪 17
曼昆 17
最底层 17
月末 17
有所@@ 17
有生之年 17
有益于 17
有远见 17
有钱人 17
未免 17
未受 17
末尾 17
本是 17
本雅明 17
杜特 17
杜瓦 17
杯水车薪 17
板块 17
极少数人 17
极致 17
柏@@ 17
核化 17
格兰@@ 17
档 17
棋 17
橄榄枝 17
欧洲式 17
欺@@ 17
歌曲 17
此案 17
死者 17
母乳喂养 17
毒药 17
民族运动 17
民生 17
气田 17
汤姆 17
沙特政府 17
沸@@ 17
波利斯 17
浴@@ 17
海绵状 17
消融 17
涉@@ 17
涨价 17
涨势 17
深入人心 17
滑@@ 17
满怀 17
满足感 17
滥用职权 17
漂@@ 17
演讲时 17
灭@@ 17
灵 17
烦 17
焕然一新 17
燃@@ 17
爆出 17
爵士 17
牢@@ 17
特拉 17
特梅尔 17
特许 17
狼 17
玩笑 17
珀@@ 17
琴 17
生命周期 17
生死存亡 17
申@@ 17
申科 17
电视频道 17
畜牧业 17
登场 17
白白 17
百分之一 17
皮埃尔 17
监督机制 17
盗@@ 17
盛名 17
目标值 17
相互合作 17
看不出 17
真切 17
真心实意 17
眠 17
知觉 17
确凿 17
磁@@ 17
神学院 17
票据 17
私隐 17
秋 17
种族歧视 17
科鲁兹 17
秒钟 17
积极分子 17
稻@@ 17
立法会 17
站得住脚 17
竞标 17
竟@@ 17
竭 17
笑柄 17
符@@ 17
第一场 17
第一夫人 17
第二代 17
第二位 17
第十 17
策划者 17
粗鲁 17
精简 17
系于 17
繁文缛节 17
红军 17
红衣主教 17
纤维 17
纵向 17
纽约大学 17
线@@ 17
组阁 17
终端 17
经常出现 17
经济负担 17
经销商 17
结尾 17
结构@@ 17
统治集团 17
绰号 17
维瑟尔 17
绵@@ 17
羁绊 17
美化 17
美国联邦储备委员会 17
美国进口 17
美墨 17
老旧 17
者@@ 17
而定 17
耕 17
耳道 17
职@@ 17
联邦@@ 17
肥@@ 17
能起 17
脊@@ 17
腰@@ 17
自决 17
自治区 17
自生自灭 17
自给 17
自行@@ 17
航线 17
节约型 17
苏共 17
苏珊 17
苦涩 17
英勇 17
莫名其妙 17
获得性 17
萨缪尔森 17
蒸汽机 17
薄@@ 17
蛇 17
行凶 17
被迫辞职 17
裁减 17
裂变 17
西北大学 17
西斯 17
规划署 17
规矩 17
规章 17
解放@@ 17
誉@@ 17
警察部队 17
计算机@@ 17
讨 17
讨论会 17
训练营 17
访美 17
试探 17
调查者 17
谢赫 17
谨@@ 17
谨小慎微 17
贝塔 17
资本@@ 17
资源分配 17
赌徒 17
赡养 17
赫尔穆特 17
赶下 17
超强 17
越走越远 17
趣 17
足球场 17
跌入 17
躲@@ 17
轻型 17
轻蔑 17
辞@@ 17
辨认 17
边远地区 17
达到高潮 17
过失 17
过山车 17
过重 17
过长 17
近日 17
这名 17
这回 17
进口产品 17
迷人 17
追溯 17
通俗 17
通谕 17
遇 17
遇见 17
遗传@@ 17
遮羞布 17
邓@@ 17
那瓦 17
郁@@ 17
酵母菌 17
酸化 17
酿成 17
重大突破 17
重归 17
钢 17
钱包 17
钳制 17
钻探 17
铝 17
铺设 17
锅 17
长长的 17
门人 17
问世 17
问到 17
阿兰 17
陈腐 17
隔离墙 17
隔阂 17
障 17
难以克服 17
雨水 17
零星 17
震 17
霍姆斯 17
非法@@ 17
靡 17
革命制度党 17
顺风 17
顽@@ 17
顾@@ 17
预报 17
领导班子 17
风光 17
风波 17
飞跃 17
食用@@ 17
饭 17
馅饼 17
首府 17
香港政府 17
马首是瞻 17
验 17
高企@@ 17
高到 17
高校 17
高铁 17
鸟@@ 17
鸡蛋 17
鸣 17
鹿 17
00% 16
12@@ 16
1934 16
2400 16
54% 16
58% 16
71% 16
87 16
87% 16
Africa 16
Ahm@@ 16
BP 16
Bas@@ 16
Bra@@ 16
CTBT 16
China 16
Co@@ 16
Comm@@ 16
Copenhagen 16
Digital 16
EMU 16
ESA 16
Economics 16
Eichengreen 16
Ev@@ 16
Far@@ 16
Freedom 16
General 16
Google 16
IC 16
ICC 16
ICSID 16
IRGC 16
Ibrahim 16
Inter@@ 16
Mah@@ 16
Medicaid 16
Mil@@ 16
NA 16
OECD 16
Oc@@ 16
Osborne 16
PNV 16
Pol@@ 16
Ram@@ 16
Ris@@ 16
SGP 16
WHO 16
Warren 16
X光 16
Z 16
adi 16
ali 16
ame 16
ap 16
ash 16
az 16
berg 16
bus@@ 16
eb 16
ene 16
ente 16
esa 16
esh 16
eth@@ 16
ff@@ 16
http 16
ich@@ 16
ight 16
inter@@ 16
ip@@ 16
iri 16
ka 16
len 16
mon@@ 16
od 16
om 16
ram 16
sion 16
utions 16
ville 16
yn 16
ñ 16
▪ 16
一一 16
一举一动 16
一半左右 16
一口 16
一步步 16
一身 16
上升幅度 16
上合 16
不为过 16
不争 16
不以为然 16
不在意 16
不好过 16
不妥 16
不结盟 16
不绝于耳 16
不计后果 16
不起眼 16
不难看出 16
专断 16
业务@@ 16
两组 16
两股 16
严 16
严格@@ 16
中一 16
中仅 16
中位数 16
中西部 16
临时工 16
为名 16
举例来说 16
之举 16
之风 16
乘 16
买不起 16
了如指掌 16
了结 16
争夺战 16
二元 16
互相冲突 16
五位 16
亚里士多德 16
亚齐 16
交付 16
交恶 16
交通运输 16
亨萨林 16
享用 16
人口总数 16
人类学家 16
介 16
介质 16
仲裁者 16
企 16
伊玛目 16
伐 16
优先级 16
优劣 16
优渥 16
优美 16
会计准则 16
伯尔尼 16
估价 16
但他却 16
位处 16
住宿 16
体育场 16
何地 16
使用@@ 16
侧@@ 16
保单 16
保持@@ 16
保释 16
信息系统 16
修筑 16
候选国 16
值得@@ 16
值得一提的是 16
做成 16
做点 16
做饭 16
停下 16
偷走 16
储蓄银行 16
僧@@ 16
充分条件 16
光有 16
克拉底 16
党专政 16
党羽 16
全心全意 16
全球股市 16
共进 16
关贸总协定 16
冉@@ 16
再造 16
冗余 16
写下 16
军区 16
农村@@ 16
决战 16
冷落 16
准确度 16
出版商 16
击毙 16
击退 16
分之一 16
分而治之 16
刊@@ 16
则否 16
创立者 16
创造财富 16
判刑 16
判处死刑 16
利己主义 16
利得税 16
利息支出 16
到期日 16
前夜 16
割礼 16
力挽狂澜 16
努力实现 16
勒德 16
北半球 16
区位 16
区内 16
医务人员 16
医师 16
卖空 16
南美国家 16
卡普兰 16
卡梅伦@@ 16
卫生部门 16
印度议会 16
印有 16
危机四伏 16
厂房 16
厄 16
参与方 16
参会 16
友@@ 16
发电能力 16
变幻莫测 16
变换 16
叛逆 16
口吻 16
古巴人 16
句号 16
各省 16
吉姆 16
同年 16
名义工资 16
名号 16
后勤 16
后发优势 16
君@@ 16
吞 16
吻合 16
咒语 16
哄@@ 16
响@@ 16
哪些@@ 16
喀麦隆 16
喋喋不休 16
四十多年 16
四项 16
回路 16
国内@@ 16
国内安全 16
国对 16
国际公约 16
圣雄甘地 16
在世 16
在校 16
在线教育 16
地方@@ 16
地看 16
垂死挣扎 16
培@@ 16
基本原理 16
增支 16
外援 16
多数党 16
多米尼加 16
大主教 16
大型项目 16
大步 16
大而 16
大跌眼镜 16
天鹅绒 16
失势 16
失明 16
头部 16
奥尔 16
奥特 16
女士 16
奶制品 16
奶牛 16
好感 16
始终@@ 16
威慑力 16
婴 16
嫌犯 16
字面 16
存亡 16
守法 16
客机 16
家们 16
宾夕法尼亚州 16
密友 16
寡头政治 16
对埃 16
寻 16
射杀 16
小学生 16
少年 16
就会 16
尺 16
尼茨基 16
屡次 16
岩@@ 16
崩 16
工业园区 16
工具箱 16
左 16
左右@@ 16
巨大贡献 16
巴德 16
布伦@@ 16
希波 16
帕潘德里欧 16
帖子 16
帝@@ 16
幕@@ 16
平起平坐 16
年仅 16
并列 16
并驾齐驱 16
幽默 16
广泛应用 16
庆@@ 16
座右铭 16
建设项目 16
建起 16
开动 16
异性 16
异议人士 16
弗格森 16
归入 16
当众 16
彼得森 16
很久 16
很深 16
徒劳无功 16
微粒 16
心想 16
忌惮 16
志同道合 16
忙不迭 16
怒不可遏 16
性暴力 16
怨声载道 16
恨@@ 16
悬 16
惊异 16
感同身受 16
慎之又慎 16
成型 16
战争@@ 16
戛然而止 16
截止期 16
所涉 16
手续 16
手表 16
托斯 16
托辞 16
扩大化 16
扼@@ 16
技术革新 16
投资总额 16
抚@@ 16
报价 16
抬@@ 16
拉夫罗夫 16
招徕 16
拧@@ 16
拳 16
拼 16
指挥@@ 16
指数化 16
挪用 16
振 16
排列 16
探 16
接班 16
接踵而来 16
推而广之 16
搬 16
携@@ 16
播@@ 16
支行 16
改装 16
政治形势 16
政绩 16
故土 16
教法 16
散发 16
数以百计 16
数十个 16
数千@@ 16
数学家 16
数量级 16
整套 16
斥责 16
斯塔@@ 16
新世纪 16
新债 16
新理念 16
方程 16
施暴者 16
无休无止 16
无力@@ 16
无功而返 16
无可置疑 16
无可辩驳 16
无所事事 16
无所适从 16
无神论 16
无线 16
无缝 16
早上 16
早餐 16
时报 16
旺盛 16
易感 16
晚餐 16
普及率 16
暖和 16
暴雨 16
更要 16
曾于 16
替代物 16
最低值 16
最高级别 16
服役 16
望而却步 16
未获 16
本世纪初 16
本杰明 16
村落 16
杞人忧天 16
条文 16
来访 16
杰布 16
极好 16
极快 16
果敢 16
查戈斯 16
标准@@ 16
标本 16
样@@ 16
核政策 16
根植 16
梅隆 16
欠债 16
欧洲@@ 16
歉收 16
步行 16
民事@@ 16
民权运动 16
氟@@ 16
氧化 16
求职者 16
沃尔夫冈 16
沙子 16
没落 16
沿袭 16
法军 16
法外 16
法律@@ 16
泰德 16
泵 16
浅@@ 16
海外投资 16
海里 16
消费@@ 16
消防员 16
液体 16
深信不疑 16
深感不安 16
深表 16
深谙 16
湿@@ 16
溪 16
满满地 16
演绎 16
潜台词 16
火箭炮 16
灵巧 16
灾后 16
灾民 16
炒作 16
烈 16
热门话题 16
焦躁 16
照样 16
燃 16
爆@@ 16
父@@ 16
牛奶 16
牟利 16
特郎普 16
状@@ 16
狗@@ 16
狗狗 16
狭义 16
王牌 16
环球 16
现如今 16
理事国 16
理想主义者 16
琳娜 16
瓶子 16
生产链 16
生命体 16
生命科学 16
生存@@ 16
生活费 16
生病 16
电器 16
电子游戏 16
电视辩论 16
疯 16
疯子 16
病历 16
痴人说梦 16
痴呆症 16
痼疾 16
百万富翁 16
皮亚斯 16
盛宴 16
直播 16
直言 16
相仿 16
看过 16
督促 16
瞬息万变 16
短处 16
石油业 16
硅 16
碑 16
碳水化合物 16
祖 16
私立 16
秋季 16
种族主义者 16
科研@@ 16
积 16
积蓄 16
称职 16
程@@ 16
稳妥 16
稳定@@ 16
稳定物价 16
穆拉 16
穷苦 16
笑容 16
笔记本电脑 16
第一天 16
第二任 16
第六@@ 16
答@@ 16
签约国 16
签订协议 16
简洁 16
类药物 16
粗糙 16
精炼 16
纠@@ 16
纸老虎 16
经由 16
绕开 16
统 16
继@@ 16
继承权 16
绳 16
维修 16
维克多 16
维格 16
编 16
编程 16
缝@@ 16
罪责 16
罪过 16
置身于 16
美利坚 16
美国能源部 16
群众运动 16
而成 16
而论 16
耳朵 16
联动 16
股票交易 16
肩负 16
育@@ 16
胡作非为 16
胡言乱语 16
能源消耗 16
脉 16
脑海中 16
腾出 16
臣 16
自传 16
自由落体 16
至多 16
致敬 16
舞 16
艺术@@ 16
艾略特 16
花大 16
花旗 16
茁壮成长 16
莎@@ 16
莫西 16
菌株 16
萦绕 16
萨斯 16
落后地区 16
蒙德 16
虫病 16
蚀 16
行贿 16
街@@ 16
表现形式 16
衷@@ 16
裤 16
西南部 16
西太平洋 16
要挟 16
要花费 16
观望 16
览 16
觊觎 16
解除武装 16
言下之意 16
警力 16
讳 16
诡计 16
诵 16
读书 16
调停人 16
谦虚 16
谬论 16
豆@@ 16
贝鲁 16
财产损失 16
财产权 16
财务状况 16
质子 16
质询 16
贩子 16
贯@@ 16
贴切 16
贴现 16
贴现率 16
费利佩 16
费城 16
资历 16
资本积累 16
越深 16
越界 16
趋 16
趋@@ 16
跨越国界 16
踪迹 16
身在 16
转身 16
轻描淡写 16
输送到 16
辩护者 16
边防 16
达伊 16
迈阿密 16
这两点 16
进取 16
述@@ 16
迷信 16
退让 16
送往 16
适应能力 16
选择权 16
透明化 16
途@@ 16
速效 16
道德行为 16
邮报 16
郑@@ 16
释放出来 16
里拉 16
重大贡献 16
重夺 16
重金 16
金牌 16
鉴定 16
铁矿石 16
锡克教 16
门口 16
队员 16
阳 16
阴暗面 16
阴险 16
阶梯 16
险胜 16
随机@@ 16
隐秘 16
难以解决 16
集体利益 16
雨后春笋 16
雨林 16
零售@@ 16
零点 16
霍华德 16
霾 16
青年@@ 16
面上 16
面世 16
革@@ 16
顺畅 16
顽固不化 16
飞速 16
食利 16
餐桌 16
饭@@ 16
马佐维耶茨基 16
马格 16
马格里布 16
驱赶 16
骗@@ 16
骤降 16
高居 16
高瞻远瞩 16
魔 16
麦当娜 16
麦迪逊 16
黄 16
黑洞 16
黑社会 16
齿@@ 16
! 15
--- 15
120% 15
1789 15
1924 15
195 15
1954 15
2060 15
280 15
3500 15
40@@ 15
430 15
ARPA 15
ATM 15
Abu 15
Ahmed 15
Ak@@ 15
Amartya 15
Andre@@ 15
As@@ 15
Az@@ 15
BJP 15
Banking 15
CA 15
CA@@ 15
CE@@ 15
CELAC 15
COP@@ 15
Debt 15
ED@@ 15
Es@@ 15
FT@@ 15
Fac@@ 15
Facility 15
First 15
GAVI 15
H1N1 15
Harry 15
Hor@@ 15
Hy@@ 15
IB 15
Infrastructure 15
Kat@@ 15
Keynes 15
Kur@@ 15
Lev@@ 15
McKinsey 15
Min@@ 15
Mitt 15
Monetary 15
Na@@ 15
P2P 15
Pad@@ 15
People 15
Prot@@ 15
RCT 15
Raj@@ 15
Romney 15
Saf@@ 15
Shiller 15
T3 15
Taylor 15
UPA 15
Uni@@ 15
Women 15
Yellen 15
ama 15
arm@@ 15
can 15
cap@@ 15
debt 15
eh 15
igh@@ 15
illi@@ 15
imp@@ 15
ins@@ 15
int 15
ish 15
kin 15
land 15
lo@@ 15
med@@ 15
ns 15
ok 15
pe 15
reg@@ 15
ress 15
ris 15
row@@ 15
sk@@ 15
stone 15
tain@@ 15
tish 15
ubli@@ 15
ula 15
ven@@ 15
vi@@ 15
一党制 15
一分 15
一团 15
一栋 15
一盘散沙 15
一线希望 15
一股@@ 15
一般性 15
一言@@ 15
一记 15
万桶 15
三月份 15
下决心 15
下场 15
不准 15
不前 15
不可收拾 15
不如@@ 15
不断深入 15
不稳 15
不见@@ 15
不言而喻 15
不通 15
丑@@ 15
专利申请 15
专家@@ 15
世界遗产 15
两度 15
两部 15
中小 15
中意 15
中转 15
临界值 15
为本 15
为重 15
主导型 15
主导权 15
久远 15
之友 15
之名 15
之家 15
之数 15
之流 15
之窗 15
乌克兰语 15
乐施会 15
九十 15
乞@@ 15
乳房 15
五十年代 15
亚太经合组织 15
交易系统 15
交通工具 15
亦非 15
产品安全 15
人口稠密 15
人用 15
人身安全 15
人造卫星 15
人间@@ 15
亿多美元 15
从此以后 15
从这一点 15
仓@@ 15
他命 15
令人困惑 15
令人生畏 15
以待 15
以示 15
仰@@ 15
仲@@ 15
任何@@ 15
伍 15
优惠@@ 15
优步 15
优越性 15
传授 15
传统媒体 15
估量 15
佐科维 15
何以 15
作出贡献 15
侧重于 15
保守势力 15
信件 15
停战 15
偷渡 15
偷猎 15
克劳斯 15
克西 15
兜底 15
入不敷出 15
入手 15
入籍 15
全欧 15
全面@@ 15
八分 15
公允 15
公共场所 15
六名 15
关怀 15
关键词 15
具体地说 15
具体措施 15
养育 15
养鸡 15
内部@@ 15
再现 15
冒险主义 15
写信 15
军事设施 15
军营 15
冠冕堂皇 15
冬 15
冷藏 15
冷血 15
净化 15
几万 15
凯文 15
凯瑟琳 15
出击 15
出境 15
分清 15
分离出来 15
删@@ 15
利用自身 15
刻画 15
削@@ 15
剧中 15
功绩 15
加大力度 15
加总 15
勇于 15
化学品 15
北瓦济 15
匠 15
匹兹堡 15
医药费 15
十一 15
十二个 15
十六世纪 15
十分必要 15
十四 15
千瓦时 15
午@@ 15
华而不实 15
卑@@ 15
卖方 15
南朝鲜 15
卡多佐 15
卢克 15
卫士 15
卫生部 15
压倒多数 15
参差不齐 15
参战 15
参政 15
双眼 15
反华 15
反复强调 15
发生@@ 15
发生率 15
发给 15
发表意见 15
受其 15
受压迫 15
受命 15
变富 15
叙 15
叛徒 15
口实 15
古柯 15
只消 15
召@@ 15
可望 15
可比性 15
可贵 15
台湾@@ 15
史蒂文斯 15
史诗 15
司@@ 15
各式 15
各行各业 15
合体 15
合理@@ 15
同学 15
同情者 15
名流 15
后备 15
吓 15
吓人 15
含糊不清 15
启示录 15
启迪 15
吴登盛 15
周恩来 15
咆哮 15
咨询@@ 15
哈卡尼 15
哈尔@@ 15
哈菲兹 15
哈雷 15
哗众取宠 15
哥伦比亚人 15
商业地产 15
商业贷款 15
商品@@ 15
啤酒 15
喀@@ 15
喜忧参半 15
噶玛巴 15
四位 15
回首 15
固定成本 15
国人 15
国际舆论 15
图拉 15
圆满@@ 15
土生土长 15
在建 15
在所不惜 15
场面 15
址 15
坚持到底 15
坠@@ 15
垂死 15
埃尔@@ 15
埃尔文 15
埃德 15
城乡 15
基因组学 15
增加出口 15
壮举 15
复辟 15
外交途径 15
外出 15
外汇管制 15
外籍 15
多种形式 15
多钱 15
大刀阔斧 15
大张旗鼓 15
大洋 15
大肆宣扬 15
天文学家 15
太弱 15
失速 15
夸@@ 15
夺 15
奔 15
奥利佛 15
奥斯维辛 15
奶 15
好于 15
好人 15
好几十年 15
妄图 15
妙 15
嫌疑 15
子里 15
存活率 15
宇 15
宇宙学 15
安东尼奥 15
安全部 15
安在 15
安迪 15
官僚@@ 15
官样文章 15
实则 15
实地 15
宣示 15
家伙 15
寄 15
察觉到 15
寡@@ 15
对阵 15
小姐 15
少数@@ 15
尔夫 15
尤甚 15
尽人皆知 15
尽全力 15
尽量减少 15
屈 15
岸信 15
工人工资 15
工会组织 15
巨兽 15
差点 15
巴克 15
巴厘 15
巴斯 15
布加勒斯特 15
布拉德 15
布雷斯 15
帖 15
帝国主义者 15
常规武器 15
年级 15
并不大 15
并不相同 15
广为流传 15
废水 15
座位 15
庭审 15
开倒车 15
开立 15
开诚布公 15
弊病 15
弗吉尼亚 15
弦 15
强制力 15
强加在 15
强烈要求 15
当之无愧 15
形同虚设 15
彭@@ 15
役 15
往返 15
得上 15
德隆 15
忠@@ 15
快速反应 15
念头 15
总产值 15
总计 15
恐怖事件 15
恢复@@ 15
恢复正常 15
恶毒 15
情结 15
惊恐 15
惧 15
惨 15
感叹 15
或能 15
战俘 15
戛纳 15
戳@@ 15
戴着 15
戴蒙 15
户口 15
扭@@ 15
找回 15
承销 15
把握住 15
抓获 15
投入@@ 15
投放 15
投资收益 15
报章 15
抱歉 15
抵@@ 15
拉近 15
拐@@ 15
拒@@ 15
拦截 15
拷打 15
挣@@ 15
挫伤 15
捉@@ 15
捏 15
捕杀 15
捷@@ 15
授@@ 15
掌声 15
掏空 15
掏腰包 15
接受国 15
插@@ 15
援助者 15
搅@@ 15
摆出 15
摩萨德 15
摩西 15
撇开 15
撞击 15
播下 15
擅@@ 15
操 15
支持性 15
收归国有 15
改为 15
攻 15
敏锐地 15
教条主义 15
敞开大门 15
数学模型 15
数码 15
整理 15
料到 15
斩@@ 15
斯克 15
斯坦利 15
斯曼 15
斯特拉斯堡 15
斯瓦特 15
新兴力量 15
新泽西州 15
新疗法 15
新篇章 15
新面孔 15
施以援 15
旁遮普 15
旗 15
无产阶级 15
无从谈起 15
无异 15
无影无踪 15
无怪乎 15
无所不用其极 15
无法弥补 15
无端 15
无谓 15
无辜者 15
日本公司 15
日本自卫队 15
日起 15
时日 15
时薪 15
明斯基 15
晚近 15
晨 15
暂缓 15
暴虐 15
曲解 15
最佳@@ 15
最难 15
有三大 15
服务质量 15
本地化 15
机率 15
杀人@@ 15
杠杆作用 15
杨 15
极了 15
林登 15
柔 15
查维斯 15
根治 15
格勒 15
格里@@ 15
格陵兰 15
格雷@@ 15
栽@@ 15
梅尔 15
梯@@ 15
检查@@ 15
棋@@ 15
植@@ 15
植被 15
模样 15
欠佳 15
欧亚大陆 15
步枪 15
死难者 15
殿 15
每名 15
毫无关系 15
民主制 15
民选总统 15
气息 15
水力 15
水电站 15
求职 15
汉斯 15
汽车行业 15
沉重负担 15
没有@@ 15
沿线 15
泄@@ 15
泛太平洋 15
注视 15
泪 15
泰 15
洗 15
洞@@ 15
活动分子 15
浆 15
测绘 15
浮 15
深水 15
清盘 15
渔场 15
湖泊 15
滑坡 15
滞涨 15
灌 15
火炬 15
火热 15
火电厂 15
灵活@@ 15
炸 15
点名 15
炼油 15
烟雾 15
热切地 15
热议 15
焦急 15
照搬 15
熔炉 15
爱国@@ 15
版面 15
物业 15
特斯拉 15
犀利 15
犹@@ 15
狂潮 15
独立自主 15
猪@@ 15
玛雅 15
环境署 15
现实状况 15
现政府 15
珍惜 15
理睬 15
瑞恩 15
甚大 15
甜叶菊 15
生产线 15
生前 15
生性 15
电子产品 15
电子货币 15
畅通 15
畅销 15
留下来 15
疑欧 15
疲@@ 15
疹 15
病痛 15
皇 15
皇冠 15
皮肤癌 15
盟@@ 15
目瞪口呆 15
相向 15
相对论 15
盼望 15
着重 15
瞬间 15
砍掉 15
研@@ 15
碎@@ 15
私生活 15
私立学校 15
科研人员 15
科罗拉多州 15
称霸 15
税项 15
稳步增长 15
究 15
空想家 15
穿戴 15
突飞猛进 15
第一家 15
第五个 15
管控 15
管理体系 15
管理制度 15
类人 15
粮食价格 15
糟糕透顶 15
索取 15
索尼娅 15
索洛 15
紧紧抓住 15
紧邻 15
累进税 15
纠正错误 15
红树林 15
纳德 15
纳米 15
纺织 15
织@@ 15
经济特区 15
绝境 15
统一战线 15
继位 15
继续前进 15
继而 15
绿灯 15
缓冲国 15
缘故 15
翁 15
而令 15
而大受 15
耐 15
职场 15
联合国人权委员会 15
聚居区 15
肇始 15
肺炎球菌 15
胜地 15
胡德 15
胸 15
脸上 15
膳食 15
臣民 15
自作自受 15
自由度 15
自由支配 15
自私自利 15
致癌 15
舌@@ 15
舞蹈 15
船长 15
艳羡 15
艾哈德 15
若干@@ 15
若能 15
苦恼 15
英属 15
荣光 15
莫内 15
莫拉 15
获奖者 15
蒂尔 15
虽@@ 15
蜂 15
蜂@@ 15
蜡烛 15
行为规范 15
行使权力 15
行得通 15
行星 15
街上 15
补偿性 15
补助金 15
衰减 15
衰老 15
装饰 15
观感 15
视觉 15
解救出来 15
言之@@ 15
言行 15
誓@@ 15
议会制 15
讯@@ 15
记账 15
讲授 15
设限 15
误 15
误算 15
说得@@ 15
诸位 15
谋划 15
谢尔盖 15
谷@@ 15
豪 15
贡献力量 15
财政困难 15
财政部门 15
责任心 15
败给 15
账面 15
贩运 15
贫乏 15
贯 15
资助者 15
赞助商 15
赢回 15
赫尔佐格 15
走下坡路 15
赴@@ 15
超负荷 15
超高 15
跌到 15
跛脚 15
距 15
路子 15
踩@@ 15
蹒跚 15
身体@@ 15
转账 15
软肋 15
运算 15
近在咫尺 15
连动 15
连带 15
迟钝 15
适应力 15
逃生 15
逆袭 15
选情 15
递 15
遇上 15
道琼斯 15
遗弃 15
遥遥无期 15
那一刻 15
酬劳 15
里加 15
里程 15
重围 15
重症 15
野田 15
金库 15
金融学 15
钱来 15
铁路@@ 15
铭@@ 15
锁@@ 15
镀金 15
长期贷款 15
长途@@ 15
闭 15
闭幕 15
问卷 15
闲 15
防火 15
阿卜杜 15
阿拉 15
阿罗 15
附件 15
附加条件 15
陆路 15
除开 15
陪@@ 15
隐忧 15
隐晦 15
难看 15
雅加达 15
集团公司 15
雇 15
零下 15
雷达 15
震中 15
靠着 15
靠边站 15
韦拉 15
韩日 15
预测值 15
预言家 15
领导小组 15
领袖人物 15
颜@@ 15
风度 15
风雨飘摇 15
飞行器 15
马上会 15
马尔萨斯 15
马解 15
驱逐出境 15
驾@@ 15
高喊 15
高度@@ 15
高枕无忧 15
鲍勃 15
麻省理工 15
黎凡特 15
默 15
默默无闻 15
黯然失色 15
鼻@@ 15
龄 15
1100 14
150% 14
1600 14
190@@ 14
1913 14
1942 14
2070 14
300% 14
73% 14
860 14
94 14
950 14
AA 14
Abdul 14
Ag@@ 14
Alexander 14
Av@@ 14
BECCS 14
BI 14
BR@@ 14
Bad@@ 14
Bak@@ 14
CE 14
COP21 14
Christian 14
Comp@@ 14
Consensus 14
DSM 14
DiEM25 14
EBA 14
EBRD 14
ER 14
Emmanuel 14
FDA 14
Food 14
For@@ 14
Fr@@ 14
Fron@@ 14
Hadjiev 14
IEA 14
IFC 14
IP 14
IPO 14
Int@@ 14
Key@@ 14
LHC 14
Liber@@ 14
Lugovoi 14
Maynard 14
Mel@@ 14
Mohammed 14
NP 14
Nat@@ 14
Nik@@ 14
OR@@ 14
Ol@@ 14
Pact 14
Pesa 14
Pew 14
Piketty 14
Q 14
RA 14
RI 14
Rio 14
Rob@@ 14
Rom@@ 14
SAARC 14
Sarkozy 14
Schum@@ 14
Sl@@ 14
South 14
Sur@@ 14
TC 14
Ta@@ 14
Tal@@ 14
Tar@@ 14
Target 14
Tony 14
Tre@@ 14
Trichet 14
Vladimir 14
_ 14
ani@@ 14
ational 14
che 14
do@@ 14
eld@@ 14
emb@@ 14
ena 14
erson 14
fic@@ 14
fin@@ 14
hood 14
iPad 14
ik 14
ment@@ 14
ms 14
net 14
off 14
ost 14
pu@@ 14
qui@@ 14
sch@@ 14
self 14
sen 14
th 14
tion@@ 14
tor@@ 14
uch@@ 14
ud 14
we@@ 14
一出 14
一千年 14
一周年 14
一并 14
一极 14
一次次 14
一氧化@@ 14
一贫如洗 14
万到 14
万辆 14
三类 14
三维 14
上司 14
上天 14
上映 14
下意识 14
不一而足 14
不利因素 14
不可知论 14
不对称性 14
不得人心 14
不放 14
不畅 14
不知不觉 14
不自@@ 14
不计 14
与会代表 14
丘@@ 14
丛林 14
东北@@ 14
严格遵守 14
个人隐私 14
中介机构 14
中则 14
中国式 14
中层 14
中非 14
丰田 14
为害 14
主宰者 14
举出 14
义愤 14
之义 14
之作 14
之少 14
之比为 14
之责 14
之辞 14
之音 14
乌合之众 14
乌里 14
乔布斯 14
乔杜里 14
乱伦 14
争取时间 14
事倍功半 14
事关重大 14
事务所 14
二分之一 14
互 14
五千 14
亚瑟 14
交替 14
交锋 14
产品价格 14
产地 14
亨@@ 14
人口统计 14
人后 14
人流 14
亿万 14
亿元 14
仍远 14
从业者 14
从何而来 14
从大 14
他者 14
仙@@ 14
代表大会 14
以新 14
优 14
优先权 14
优异 14
伦敦@@ 14
伦敦经济学院 14
伪劣 14
伯克利分校 14
伸手 14
但据 14
何 14
何塞 14
作法 14
侦测 14
侵略者 14
便会 14
促@@ 14
促发 14
促进作用 14
俘获 14
保安 14
保持良好 14
倡议者 14
债务@@ 14
假日 14
偏狭 14
儒@@ 14
元件 14
充足率 14
先河 14
先见之明 14
克多 14
全民教育 14
全身 14
公会 14
公共关系 14
公共秩序 14
公共设施 14
共处 14
共用 14
关岛 14
关系恶化 14
兴业银行 14
其向 14
具体来讲 14
再购 14
冠以 14
冷眼旁观 14
减退 14
几千人 14
几大 14
凯勒 14
凸现 14
分立 14
分辨 14
列表 14
初次 14
初级阶段 14
利沃夫 14
别无他法 14
别有用心 14
前一天 14
劝告 14
功能@@ 14
劲@@ 14
劳务市场 14
匆匆 14
北京@@ 14
十亿美元 14
千丝万缕 14
千克 14
千夫所指 14
半导体 14
华为 14
华人 14
卒 14
单向 14
单性 14
博主 14
卡娅 14
卡洛 14
卫星电视 14
卫生部长 14
印制 14
危言耸听 14
历 14
压榨 14
厕所 14
原产地 14
原教旨 14
及早 14
双轨制 14
发展经济学 14
发改委 14
发明@@ 14
发育不良 14
发行者 14
发觉 14
取得联系 14
受此 14
受灾国 14
变性 14
变质 14
台面 14
史学家 14
司法程序 14
各处 14
合作开发 14
合法@@ 14
合资 14
吉尔 14
同业 14
同心协力 14
同盟国 14
名存实亡 14
后台 14
启发性 14
吸 14
吸烟@@ 14
吹捧 14
哈维 14
哈西娜 14
哨 14
哨@@ 14
唇@@ 14
售价 14
商业行为 14
商务旅行 14
商品化 14
啥 14
喷洒 14
园丁 14
固定@@ 14
国家机器 14
国情 14
国有资产 14
国歌 14
国防工业 14
国际形象 14
圈养 14
土著居民 14
坐落于 14
基加利 14
基尔 14
堪@@ 14
塔尔 14
塞拉 14
填写 14
填满 14
墓 14
增高 14
声讨 14
复杂程度 14
外加 14
多党制 14
多时 14
多来 14
大同小异 14
大大小小 14
大放@@ 14
大有希望 14
大杂烩 14
大计 14
大都会 14
大陆架 14
天天 14
天安 14
天气@@ 14
头目 14
头等大事 14
奋@@ 14
奋战 14
奢华 14
奢望 14
奥孔乔 14
奥林匹克@@ 14
好评 14
如履薄冰 14
如是 14
妥 14
存续 14
孟加拉@@ 14
季风 14
孤岛 14
学年 14
学院派 14
学龄儿童 14
宁边 14
宇航员 14
守住 14
安哲秀 14
安曼 14
安第斯@@ 14
完全恢复 14
官方语言 14
实习 14
实录 14
宠@@ 14
宪政改革 14
家务 14
家喻户晓 14
家畜 14
家门口 14
对非 14
寿@@ 14
尖端@@ 14
尺度 14
届满 14
川 14
巡逻@@ 14
工厂化 14
工程@@ 14
巫术 14
已降 14
巴巴 14
布局 14
布道 14
帕多 14
帮派 14
常务@@ 14
年景 14
年秋 14
并入 14
并肩作战 14
广播电台 14
庄 14
应验 14
庞@@ 14
延 14
建立联系 14
建筑师 14
建筑材料 14
开发者 14
开国元勋 14
开展业务 14
开幕式 14
开源 14
弗朗@@ 14
弟 14
弦@@ 14
归纳 14
彻底消除 14
彻底解决 14
往后 14
征得 14
微量 14
德洛尔 14
德高望重 14
心照不宣 14
忌 14
快车道 14
怀特 14
性交 14
性爱 14
性能 14
怪诞 14
总体@@ 14
息差 14
恰到好处 14
悄悄地 14
悟 14
悬念 14
悬殊 14
惜 14
惯常 14
惹 14
慈@@ 14
我行我素 14
或用 14
战斗人员 14
战略思维 14
所有制 14
打扮 14
托尔斯泰 14
执法@@ 14
扩建 14
承压 14
抓紧 14
投身于 14
折中 14
抢占 14
抬 14
抱有幻想 14
抵触情绪 14
押@@ 14
抽身 14
拆毁 14
拉各斯 14
招生 14
拿走 14
挣钱 14
挪@@ 14
振奋人心 14
授粉 14
排出 14
探明 14
接受@@ 14
接受者 14
控制区 14
推进改革 14
提高产量 14
援@@ 14
搬迁 14
摆脱困境 14
摇滚 14
撤 14
撤走 14
操作@@ 14
收养 14
收音机 14
政教 14
政治宣传 14
救命稻草 14
敦 14
数据中心 14
数百亿美元 14
整体而言 14
文化交流 14
文化冲突 14
文明@@ 14
断断续续 14
斯勒 14
斯文森 14
斯特拉 14
新罕布什尔州 14
新车 14
新闻标题 14
新闻记者 14
旅途 14
旋转 14
无以为继 14
无偿 14
无名 14
无所@@ 14
无核武器 14
无证 14
无赖 14
日常@@ 14
时为 14
时滞 14
时节 14
昂 14
昆@@ 14
易受 14
昙花一现 14
显例 14
晚年 14
普及教育 14
普鲁士 14
智力测验 14
智囊团 14
暴风@@ 14
最出色 14
最高@@ 14
有别于 14
有见 14
有误 14
有限责任 14
朔 14
望远镜 14
末路 14
本位 14
术@@ 14
朴 14
朴@@ 14
杀掉 14
杀灭 14
权力下放 14
权宜 14
杰作 14
松懈 14
林木 14
查看 14
柯齐 14
标注 14
格雷 14
格鲁 14
梵@@ 14
棚 14
森严 14
欧罗巴 14
款@@ 14
此处 14
步子 14
武器化 14
武库 14
武装斗争 14
歧@@ 14
段落 14
殷@@ 14
毁@@ 14
每十年 14
每逢 14
毛骨悚然 14
毫无希望 14
民主革命 14
气象@@ 14
氦气 14
氮@@ 14
水管 14
池@@ 14
汤 14
汽油税 14
沃克 14
沾@@ 14
沿@@ 14
法兰西 14
波音 14
泾渭分明 14
洒 14
洪流 14
活下去 14
流血冲突 14
浸@@ 14
涅姆佐夫 14
涅槃 14
消耗量 14
消逝 14
涉及面 14
涛 14
深刻理解 14
深感忧虑 14
深邃 14
混战 14
清廉 14
溃@@ 14
滋@@ 14
演示 14
潘多拉 14
潜意识 14
激光 14
濒于 14
灌@@ 14
火山 14
炒@@ 14
炙手可热 14
炮击 14
炮火 14
炮轰 14
炼油厂 14
烟草业 14
煤钢 14
照办 14
照此 14
爱丽舍宫 14
片段 14
片面 14
特殊@@ 14
狙击手 14
狩猎 14
独特性 14
猫@@ 14
玫瑰 14
环境友好 14
现值 14
班子 14
理论@@ 14
瑞安 14
瓜 14
瓜分 14
瓦夫 14
生死攸关 14
生殖细胞 14
生物科技 14
生物质 14
申报 14
电磁@@ 14
电视屏幕 14
男女@@ 14
留学生 14
番 14
瘦身 14
瘾 14
登革热 14
白皮书 14
监护 14
盛产 14
目录 14
盲 14
盲人 14
盲从 14
直选 14
相互理解 14
相当程度 14
相隔 14
省略 14
眼界 14
眼花缭乱 14
瞎@@ 14
矛盾@@ 14
知识界 14
矿工 14
硬通货 14
礼拜 14
社会变革 14
祝福 14
祝贺 14
神秘@@ 14
神经外科 14
祭 14
祸根 14
禁用 14
福萨 14
禽@@ 14
私人@@ 14
科塔 14
科雷亚 14
秘密@@ 14
称谓 14
程度较高 14
税前 14
立足点 14
符 14
第三代 14
第二步 14
笼罩着 14
筋 14
筑墙 14
管理系统 14
粮农组织 14
精巧 14
精心策划 14
精良 14
索尼 14
纤@@ 14
纯洁 14
纳伦 14
纳吉 14
纳西 14
纺织业 14
经济趋势 14
结成联盟 14
结核 14
绕 14
给力 14
绝无仅有 14
继续执行 14
维茨基 14
综@@ 14
绿皮书 14
缘由 14
缠@@ 14
缴款 14
网络化 14
置身 14
美元兑 14
美洲国家组织 14
美苏 14
老一代 14
耐力 14
聊@@ 14
联结 14
肢 14
肩@@ 14
肩上 14
胖 14
能源业 14
腔 14
腾讯 14
自主性 14
自律 14
自立 14
自问 14
自鸣得意 14
航母 14
航空业 14
航道 14
节省@@ 14
节省下来 14
芝 14
若想 14
英国工党 14
英迪拉 14
英雄@@ 14
范 14
茅@@ 14
茶@@ 14
莫属 14
获选 14
菌@@ 14
菜单 14
菲利普斯 14
萨拉热窝 14
董建华 14
蒙古 14
蒙特雷 14
蓬 14
虚 14
蚊虫 14
行话 14
行进 14
表征 14
衰亡 14
要不了 14
要价 14
览@@ 14
解开 14
言过其实 14
让出 14
训令 14
访谈 14
评定 14
识字 14
诊疗 14
说明性 14
说起 14
请愿书 14
课@@ 14
豪斯曼 14
贝南克 14
贝卢斯 14
贝布托 14
负责管理 14
财产权利 14
财产税 14
财政管理 14
贫 14
费率 14
资源管理 14
资金短缺 14
赚@@ 14
赛义德 14
赞@@ 14
赢@@ 14
起起落落 14
足球比赛 14
跨部门 14
路障 14
跳舞 14
踏@@ 14
身陷囹圄 14
车道 14
转弯 14
达到目标 14
过渡政府 14
过犹不及 14
近海 14
返还 14
还应 14
这颗 14
进步@@ 14
远处 14
远胜 14
迟疑 14
迦@@ 14
迫近 14
退去 14
退役 14
送回 14
逆境 14
透明性 14
递延 14
通讯@@ 14
通过@@ 14
造势 14
遇害 14
遍地 14
遍地开花 14
遗嘱 14
遣散 14
那条 14
邦@@ 14
部位 14
部委 14
配对 14
释@@ 14
里奇 14
重型 14
重庆 14
重重@@ 14
钉 14
铁杆 14
铸@@ 14
锐 14
镜子 14
长途 14
门前 14
门外 14
闯入 14
间歇性 14
间谍活动 14
阐释 14
阿什 14
阿伯特 14
阿尔及尔 14
阿布@@ 14
阿根廷政府 14
阿波罗 14
陶@@ 14
隐形 14
难以忍受 14
难度很大 14
雄性 14
零时 14
霍尔丹 14
霍尔姆 14
霸@@ 14
静下来 14
非专利 14
非得 14
非法活动 14
面向未来 14
鞋子 14
韦兹 14
音乐@@ 14
顺便 14
顾忌 14
预备 14
预案 14
领土问题 14
颗粒 14
马达加斯加 14
高层@@ 14
高等 14
高管们 14
高贵 14
魂@@ 14
鱼肉 14
鸠山 14
麦地那 14
黑猩猩 14
黑石 14
黑钱 14
05 13
135 13
1814 13
1870 13
1915 13
1923 13
2300 13
377 13
59% 13
61% 13
640 13
78% 13
AC 13
AI@@ 13
Affordable 13
African 13
All 13
Ash@@ 13
Ay@@ 13
BC 13
Ba@@ 13
Better 13
CBR 13
CFC 13
CHW 13
CNN 13
CNVs 13
CP 13
CR@@ 13
CS@@ 13
Christi@@ 13
ET@@ 13
FMLC 13
Fischer 13
Framework 13
Francis 13
Golden 13
HC 13
Hab@@ 13
Haram 13
Hole 13
Hou@@ 13
Hum@@ 13
IS 13
IVC 13
Jar@@ 13
Jos 13
Jos@@ 13
Kon@@ 13
Ky@@ 13
M5S 13
MD@@ 13
Mal@@ 13
Mu@@ 13
Nar@@ 13
Nav@@ 13
News 13
Os@@ 13
PC 13
PMI 13
PO 13
Pac@@ 13
Pat@@ 13
Pay@@ 13
Por@@ 13
Powell 13
Power 13
Prog@@ 13
Rab@@ 13
Rah@@ 13
Rein@@ 13
Rud@@ 13
SNB 13
SNP 13
Sachs 13
Sam@@ 13
Sar@@ 13
Schumpeter 13
Singh 13
Sm@@ 13
Solow 13
Stanley 13
TAR@@ 13
TFP 13
Ther@@ 13
Tobin 13
Vill@@ 13
West@@ 13
Wh@@ 13
Wolf 13
Y 13
aci 13
ack@@ 13
ake 13
aly@@ 13
aria 13
ath@@ 13
ati 13
bail 13
ber 13
cor@@ 13
count@@ 13
eff@@ 13
ein 13
eration 13
gro@@ 13
hab@@ 13
hat 13
ier 13
ile 13
ily 13
inda 13
ino 13
ission 13
ith@@ 13
ities 13
konzo 13
la@@ 13
lie 13
mod@@ 13
national 13
ology 13
olution 13
ond@@ 13
osp@@ 13
pa 13
peti@@ 13
polac@@ 13
pr@@ 13
prog@@ 13
rad@@ 13
ressive 13
rich 13
riel 13
se@@ 13
sec@@ 13
sid@@ 13
sti@@ 13
tics 13
tri@@ 13
uck 13
ull@@ 13
universit 13
ura 13
va 13
ynd@@ 13
zer 13
一丁点 13
一分钟 13
一大笔 13
一年@@ 13
一时间 13
一清二楚 13
一百万@@ 13
一空 13
七十 13
万事@@ 13
万分之 13
万物 13
三座 13
三思而后行 13
上马 13
下任总统 13
下放 13
不可救药 13
不尽人意 13
不惜@@ 13
不比 13
不灵 13
不相@@ 13
不相称 13
不着@@ 13
不知@@ 13
不解 13
不谋而合 13
不连贯 13
与时俱进 13
世上 13
两三年 13
两侧 13
两大党 13
两轮 13
严加 13
丧气 13
中伤 13
中印关系 13
中国外交部 13
中型 13
中毒 13
中间@@ 13
临时政府 13
为时未晚 13
主人公 13
主管部门 13
主编 13
之人 13
之母 13
乌戈 13
乍@@ 13
乐土 13
乔伊斯 13
九月份 13
买得起 13
乳 13
二十年代 13
五次 13
亚太@@ 13
亚特 13
些年 13
亟待解决 13
亡羊补牢 13
交到 13
交界 13
亦@@ 13
亲美 13
人寿保险 13
人造@@ 13
今夏 13
仔细观察 13
付诸东流 13
以军 13
伍德 13
优秀@@ 13
会起 13
伟@@ 13
传染给 13
伤亡@@ 13
伴有 13
位子 13
供给者 13
保守党人 13
保持中立 13
保险制度 13
信贷@@ 13
修修补补 13
俯@@ 13
倒行逆施 13
借到 13
借此机会 13
储蓄@@ 13
傲@@ 13
元帅 13
先声 13
先期 13
克努特 13
克劳狄 13
兑换@@ 13
兔子 13
党首 13
全书 13
全副武装 13
全国人大 13
全国人民代表大会 13
全天候 13
全过程 13
公交车 13
公元 13
公务 13
公平合理 13
公营 13
共生 13
关停 13
关键人物 13
关键步骤 13
其以 13
内华达州 13
内斗 13
写成 13
写过 13
军警 13
冤@@ 13
冥@@ 13
冬季 13
冰冷 13
减赤 13
凡是 13
凭借着 13
凭空@@ 13
出柜 13
出格 13
出行 13
击中 13
分明 13
分野 13
分阶段 13
划入 13
创造性地 13
制性 13
制胜 13
刺激作用 13
削减到 13
力不从心 13
加以控制 13
加拉加斯 13
加油站 13
勒令 13
勒斯 13
勤奋 13
匈 13
化为乌有 13
化妆品 13
北极圈 13
匪@@ 13
区域@@ 13
医学界 13
十月份 13
千载难逢 13
半决赛 13
卑鄙 13
单日 13
单是 13
南北战争 13
博纳 13
印刷@@ 13
印钱 13
即用 13
却@@ 13
双边协定 13
反覆 13
发扬光大 13
发热 13
发电@@ 13
发自内心 13
取得成效 13
受益匪浅 13
受训 13
变化无常 13
叙@@ 13
叠加 13
古典@@ 13
各个领域 13
各项@@ 13
合宪性 13
合法政府 13
吉隆坡 13
名望 13
后人 13
后继 13
后继者 13
吐 13
君主@@ 13
吞下 13
吸入 13
呼吸系统 13
哥伦比亚政府 13
哭@@ 13
唾弃 13
商务@@ 13
喂养 13
嗜好 13
器官移植 13
器械 13
噪声 13
嚣张 13
囊中 13
四人 13
回调 13
回馈 13
困苦 13
围 13
国会山 13
国将 13
国有@@ 13
国际石油 13
在此之后 13
在表面上 13
在讲话中 13
地下@@ 13
地站 13
地质@@ 13
场地 13
场外 13
均匀 13
坝 13
坠入 13
坦然 13
垄断权 13
埃以 13
埃德@@ 13
堤坝 13
塔尼亚 13
塔斯 13
增产 13
墨西哥政府 13
复合 13
外交人员 13
外来@@ 13
外资银行 13
多党 13
多米诺 13
大公 13
大力@@ 13
大可 13
大国家党 13
大好@@ 13
大学毕业 13
大度 13
大惊失色 13
大权在握 13
大纲 13
太慢 13
失忆症 13
头顶 13
夷@@ 13
奇点 13
奥利@@ 13
奥尔特加 13
奧 13
如对 13
如愿 13
如法炮制 13
妻@@ 13
姆斯 13
委托人 13
威尔克斯 13
嫁@@ 13
子宫 13
存放 13
孤注一掷 13
孩 13
守卫 13
安吉 13
完全一致 13
宛@@ 13
实践@@ 13
实验@@ 13
审计@@ 13
宫殿 13
害虫 13
家庭暴力 13
宿醉 13
寄予厚望 13
密歇根州 13
富强 13
对台 13
导航 13
小巫见大巫 13
尚无 13
尝 13
就象 13
尼安德 13
尼泊尔@@ 13
尽其所能 13
尽失 13
尿@@ 13
居住地 13
居家 13
屡试不爽 13
崩@@ 13
崭露头角 13
州级 13
工作量 13
工程技术 13
左右翼 13
已高达 13
巴赫 13
市区 13
市郊 13
布里 13
布鲁斯 13
希勒 13
帕斯 13
帕斯@@ 13
帝王 13
幕僚长 13
平原 13
平均工资 13
平方米 13
平等主义 13
年任 13
年薪 13
并不等于 13
广东省 13
广告@@ 13
广州 13
广播@@ 13
库克 13
底下 13
店@@ 13
庸 13
廉洁 13
建国以来 13
建设者 13
开行 13
引人关注 13
引述 13
张扬 13
弹头 13
强壮 13
强奸犯 13
强烈反应 13
归国 13
录音 13
得票 13
心智 13
心甘情愿 13
忘@@ 13
忧 13
忧郁 13
怎么回事 13
怨@@ 13
怯懦 13
总价值 13
总供给 13
恢复元气 13
恶梦 13
悍然 13
悲痛 13
情况@@ 13
惊慌 13
惯于 13
愈合 13
愉悦 13
意大利@@ 13
感到高兴 13
感召 13
慰安妇 13
懒得 13
戏@@ 13
戒律 13
战略地位 13
户@@ 13
房主 13
所困 13
才干 13
技术人员 13
投票决定 13
抗菌素 13
折价 13
抬升 13
抵免 13
拉萨 13
拍照 13
拦@@ 13
拼凑 13
持枪 13
指为 13
指日可待 13
挑动 13
挡@@ 13
挪威@@ 13
据报 13
掌权者 13
排他性 13
排入 13
掘@@ 13
控制措施 13
推敲 13
推特上 13
推高到 13
提上 13
提价 13
插入 13
揭穿 13
搬出 13
搭便车 13
搭建 13
摆在面前 13
摈弃 13
摘@@ 13
收效 13
收看 13
改建 13
放权 13
放款 13
放置 13
放血 13
效而仿 13
救星 13
教给 13
教育部长 13
散户 13
整天 13
文化背景 13
文物 13
斐济 13
斐然 13
新技能 13
新机制 13
方舟 13
旅游@@ 13
族@@ 13
无以 13
无国籍 13
无常 13
无形资产 13
无独有偶 13
无穷的 13
无节制 13
无论怎样 13
日产 13
日军 13
日趋激烈 13
旦 13
明确性 13
明确提出 13
显露出 13
晚宴 13
普拉 13
智者 13
暂@@ 13
更名 13
更坏 13
更让人 13
替@@ 13
替代者 13
最弱 13
有利条件 13
有染 13
有涉 13
有线电视 13
有违 13
服装@@ 13
期内 13
未知领域 13
未竟 13
未遂政变 13
本可 13
本尼迪克 13
本来面目 13
本科生 13
机智 13
杜赫 13
杰哈德 13
板@@ 13
极佳 13
查阅 13
柯比 13
核军备 13
桃@@ 13
案中 13
桌@@ 13
桑托 13
梅内 13
森林保护 13
楚 13
槽 13
橄榄球 13
欠下 13
欢庆 13
正常人 13
正派 13
正确@@ 13
武器库 13
死板 13
残杀 13
殖民化 13
毒品走私 13
比价 13
毫不留情 13
民粹派 13
气候@@ 13
氧 13
氧化物 13
水下 13
水文 13
水质 13
水道 13
江河日下 13
沃尔@@ 13
沃尔芬森 13
沉沦 13
沙尔 13
沟 13
没用 13
沦陷 13
河水 13
法典 13
法律效力 13
法律界 13
法耶兹 13
注脚 13
洁 13
海滨 13
海边 13
涅@@ 13
淫@@ 13
清白 13
渐进主义 13
温室效应 13
滚动 13
漫漫 13
澳大利亚人 13
灌溉系统 13
火药桶 13
灿烂 13
炸药 13
热忱 13
焦 13
熟@@ 13
爷@@ 13
片中 13
牧场 13
物价上涨 13
物力 13
物质利益 13
物质财富 13
牵强 13
牵线 13
特洛@@ 13
特科夫 13
犬类 13
犯错误 13
犹太主义 13
犹如 13
狂飙 13
狄@@ 13
独 13
独霸 13
献给 13
玉米@@ 13
王妃 13
玩意 13
环境退化 13
现为 13
玻@@ 13
珊瑚 13
珍 13
珠 13
球场 13
理发师 13
理学 13
甄选 13
甘冒 13
甚或 13
生产资料 13
生命@@ 13
生存能力 13
生物武器 13
用武之地 13
用钱 13
电信@@ 13
电话@@ 13
画上 13
画家 13
界面 13
疏散 13
疟俘 13
疾 13
病房 13
痴呆 13
登盛 13
皆知 13
皮克 13
皮克提 13
监督权 13
盛大 13
盟 13
相互间 13
相差无几 13
知情权 13
石头砸 13
矿产资源 13
砍@@ 13
破旧 13
破纪录 13
确定无疑 13
碌@@ 13
社会党人 13
社民党 13
祈@@ 13
神明 13
神经系统 13
禁烟 13
禄 13
福利@@ 13
科研机构 13
秘@@ 13
称颂 13
移民法 13
程序员 13
税来 13
稻米 13
穷困 13
空头 13
突进 13
窗户 13
窥探 13
立方米 13
站队 13
竹岛 13
笔下 13
笨@@ 13
笼@@ 13
筋疲力尽 13
筹 13
签发 13
签约 13
管线 13
篡改 13
精神分裂症 13
紧急行动 13
紧绷 13
紫外线 13
约束条件 13
纪念活动 13
纳伊夫 13
纳特 13
纳瓦尔 13
纳粹党 13
纵使 13
纹 13
组件 13
组织@@ 13
经济实体 13
结下 13
结合体 13
统一行动 13
统治@@ 13
维多利亚 13
绿化 13
绿洲 13
罗伯@@ 13
罗德里@@ 13
罢黜 13
罩 13
罪人 13
置换 13
置疑 13
羊@@ 13
羊群 13
美国电话电报公司 13
美国能源 13
美国队 13
羞@@ 13
群起 13
羹 13
翻新 13
而无@@ 13
耍 13
耕@@ 13
耕作 13
耶鲁 13
联署 13
肉体 13
肢体 13
育种 13
胃@@ 13
胆固醇 13
胎死腹中 13
胡乱 13
脑部 13
脚下 13
自动@@ 13
自由职业者 13
航天局 13
良好@@ 13
良药 13
芒@@ 13
花园 13
苗 13
英吉利海峡 13
茄 13
荒漠化 13
荒诞 13
荷 13
莫伊 13
营救 13
萨拉姆 13
葡萄牙@@ 13
葡萄酒 13
蒂姆 13
蒸@@ 13
虐 13
行动党 13
行政当局 13
行驶 13
补习班 13
被害 13
裤腰带 13
西北部 13
西班牙语 13
西非国家 13
覆盖范围 13
见过 13
见面 13
计量经济学 13
训@@ 13
训诫 13
论及 13
访@@ 13
证书 13
证监会 13
试射 13
诚 13
详@@ 13
诧异 13
语言@@ 13
诺德 13
诺斯 13
调查@@ 13
谋利 13
谜团 13
豪言壮语 13
贝内特 13
贡@@ 13
财政年度 13
责备 13
货币制度 13
贫困@@ 13
贫民区 13
贬@@ 13
贷@@ 13
贸易区 13
贸易商 13
贸易总额 13
费力 13
费尽@@ 13
资企业 13
赏 13
赞助人 13
赠@@ 13
赢者 13
赵@@ 13
赶紧 13
起死回生 13
起草者 13
超前 13
越强 13
越来越快 13
跃升 13
跋涉 13
距@@ 13
跨界 13
践行 13
躁 13
身材 13
躲过 13
转发 13
转手 13
转换成 13
轿车 13
过早地 13
运动@@ 13
运动会 13
这一下 13
进口额 13
进退两难 13
远大 13
迪斯@@ 13
迫切@@ 13
迷思 13
追捕 13
逃出 13
选取 13
逍遥 13
通论 13
通话 13
逾越 13
遇难 13
遗迹 13
遣@@ 13
遥@@ 13
避孕套 13
那般 13
酋长 13
配方 13
酷@@ 13
重伤 13
重磅 13
金矿 13
钢铁业 13
钱财 13
银行信贷 13
销声匿迹 13
锦标赛 13
键 13
长远利益 13
长队 13
闻@@ 13
闻名@@ 13
阅 13
防御@@ 13
阶 13
阻断 13
阿帕约 13
阿拉伯@@ 13
陀@@ 13
陋习 13
降临到 13
陡@@ 13
除此以外 13
险些 13
陪伴 13
隐 13
集中力量 13
青藏高原 13
非军事区 13
非线性 13
面对现实 13
面试 13
革命派 13
顶住 13
颁@@ 13
预感 13
领事 13
飞往 13
飞越 13
食品业 13
食品行业 13
食谱 13
饥渴 13
饿@@ 13
马克思主义者 13
马哈蒂尔 13
马来人 13
马科斯 13
驾驶@@ 13
骄@@ 13
高学历 13
高手 13
高碳 13
高能 13
高速铁路 13
高院 13
魄 13
鱼群 13
麦德林 13
默拉 13
默默 13
鼎盛时期 13
齿 13
$ 12
% 12
115 12
170@@ 12
1815 12
1871 12
1910 12
2026 12
250% 12
380 12
560 12
670 12
720 12
77% 12
88% 12
96% 12
ALBA 12
AS@@ 12
ASEAN 12
AT@@ 12
All@@ 12
Arab 12
Asia 12
At@@ 12
Atl@@ 12
Bay 12
Beppe 12
Boko 12
Bro@@ 12
Bru@@ 12
CFIUS 12
CNY 12
CO@@ 12
Carlos 12
Cent@@ 12
Civ@@ 12
Coalition 12
Compl@@ 12
Control 12
Credit 12
Cris@@ 12
Dani 12
EBM 12
EID 12
East 12
Economist 12
Elizabeth 12
Eri@@ 12
FCTC 12
Foreign 12
G0 12
GB 12
GBD 12
Gary 12
Grillo 12
HR 12
Hans 12
Hen@@ 12
Hillary 12
INGO 12
IO@@ 12
ISI 12
Id@@ 12
Independence 12
Ir@@ 12
Journ@@ 12
Juncker 12
Kind@@ 12
League 12
MH@@ 12
MILF 12
Mahmoud 12
Markets 12
Network 12
Nicholas 12
Nigel 12
North 12
Olivier 12
PARP 12
PP 12
PR@@ 12
Pa@@ 12
Pas@@ 12
Pe@@ 12
Petro@@ 12
Rad@@ 12
Rec@@ 12
Revolution 12
Ri@@ 12
SW@@ 12
Samuelson 12
San@@ 12
Se@@ 12
Sea 12
Street 12
Summit 12
System 12
TR@@ 12
TRIPS 12
TTP 12
Tas@@ 12
Ted 12
The@@ 12
Tig@@ 12
Tim@@ 12
Time 12
Timothy 12
Trans@@ 12
VIX 12
Vi@@ 12
Walter 12
White 12
Workers 12
ament@@ 12
aron 12
asi 12
ays 12
des@@ 12
ech@@ 12
emissions 12
err@@ 12
ets 12
europ 12
ew 12
fi 12
han 12
har 12
he@@ 12
ido 12
ism 12
ito 12
kers 12
kins 12
lig@@ 12
liv@@ 12
me@@ 12
ng 12
olog@@ 12
omb@@ 12
oo 12
oto 12
ovi 12
owitz 12
par 12
port@@ 12
red 12
row 12
ses 12
sive 12
sp@@ 12
tax 12
ties 12
tz 12
uch 12
uel 12
ullah 12
une 12
ung 12
vers@@ 12
vey 12
ym@@ 12
ze 12
一个零 12
一以贯之 12
一会儿 12
一剂 12
一大@@ 12
一大群 12
一无所获 12
一看 12
一窥 12
一而再 12
万人@@ 12
万份 12
万劫不复 12
万英镑 12
万难 12
三分 12
三十@@ 12
三思 12
上文 12
上海@@ 12
下流 12
下落 12
下载 12
不久以后 12
不全 12
不分青红皂白 12
不可估量 12
不多 12
不太会 12
不容@@ 12
不屈不挠 12
不成文 12
不敢@@ 12
不暇 12
不知疲倦 12
不管@@ 12
不耐烦 12
不能不 12
不许 12
不论@@ 12
不详 12
不配 12
专业@@ 12
专利制度 12
世界冠军 12
世界报 12
东南亚地区 12
东山再起 12
东海岸 12
丝路 12
两伊 12
严冬 12
严峻考验 12
严重@@ 12
个人行为 12
中共@@ 12
中华民国 12
中小学 12
丰收 12
串@@ 12
主办权 12
主动权 12
之夜 12
之用 12
之锚 12
乐团 12
予@@ 12
争先恐后 12
事前 12
事务部 12
事实@@ 12
二月份 12
二氧化硫 12
于用 12
互相联系 12
五亿 12
五天 12
五家 12
五年期 12
五项 12
亚历 12
交通拥堵 12
交通系统 12
产业结构 12
产品质量 12
产生共鸣 12
人世 12
人以 12
人口密度 12
人家 12
人权委员会 12
人脉 12
人要 12
亿桶 12
仆人 12
今年底 12
仍有 12
仍高达 12
从以 12
从技术上 12
从现在起 12
他称 12
付息 12
付酬 12
代尔 12
代言 12
代顿 12
以助 12
以方 12
以色列国防军 12
仪@@ 12
仰慕 12
价值观念 12
任其 12
企及 12
伊利诺伊州 12
休息 12
众包 12
优越感 12
传感器 12
伤痕 12
伯恩斯 12
但光 12
但埃 12
但近 12
低俗 12
佐证 12
体力 12
使然 12
使该 12
例行公事 12
依法@@ 12
依然@@ 12
侵权 12
侵略战争 12
俄中 12
保护法 12
保留意见 12
信息流 12
信誉度 12
修好 12
修昔底 12
修订@@ 12
修饰 12
倒戈 12
做时 12
做能 12
做起 12
停战协定 12
停止使用 12
偷 12
储备金 12
傻瓜 12
儿科 12
先机 12
克莱 12
克里斯蒂 12
免费搭车 12
党魁 12
全民投票 12
全面性 12
八名 12
八强 12
共产党人 12
关口 12
兴许 12
具体内容 12
典@@ 12
养殖@@ 12
兼得 12
兽 12
内有 12
再而三 12
军事装备 12
农业生产者 12
冰山 12
净流入 12
减灾 12
减肥 12
凑 12
凤@@ 12
出人@@ 12
出场 12
出头 12
分心 12
分泌 12
切换 12
刑事犯罪 12
刑事责任 12
划出 12
刚好 12
创记录 12
利于 12
利兹 12
利卡 12
利器 12
利大于弊 12
利用效率 12
别斯兰 12
到哪去 12
到头来 12
到时候 12
制宪 12
刺猬 12
刺耳 12
前人 12
前去 12
前路 12
剖析 12
剩 12
剽窃 12
力量@@ 12
加拿大人 12
务农 12
劣 12
动静 12
努斯 12
劳作 12
勒紧 12
勾当 12
匈牙利人 12
区块 12
医药公司 12
升势 12
半世纪 12
半叶 12
半身像 12
协同效应 12
南墙 12
博彩 12
博爱 12
卡什 12
卡利亚 12
卡尔森 12
卢拉@@ 12
卫生条件 12
却成 12
厄@@ 12
厌烦 12
参与@@ 12
及时@@ 12
反射率 12
反应@@ 12
反毒 12
发票 12
叔 12
受骗 12
变态 12
叛乱@@ 12
句@@ 12
可可 12
可追溯 12
台上 12
司法机关 12
各党派 12
各部 12
各阶层 12
吉利 12
同义词 12
同伙 12
名誉扫地 12
后现代 12
向东 12
君主国 12
吟@@ 12
呈上升 12
告一段落 12
呐喊 12
周密 12
呼吸道 12
和亲 12
和平过渡 12
哈布斯堡 12
哈德 12
哪儿 12
哺育 12
售@@ 12
商会 12
喂@@ 12
喉舌 12
喜悦 12
喧嚣 12
器@@ 12
囊 12
囚徒 12
四十 12
四小龙 12
四点 12
四面楚歌 12
团结@@ 12
困难性 12
固守 12
国事访问 12
国境线 12
国所 12
国政府 12
国立 12
图书 12
圈子里 12
土地改革 12
土壤@@ 12
圣何塞 12
圣杯 12
圣诞老人 12
在心 12
圭亚那 12
地使 12
地理分布 12
均值 12
坎帕拉 12
坐视不理 12
坡 12
埃胡德 12
城市交通 12
培根 12
基准@@ 12
塑料制品 12
塔鲁@@ 12
塞特 12
塞西 12
墙角 12
增收 12
增长幅度 12
声势浩大 12
处事 12
外国@@ 12
外汇@@ 12
外汇交易 12
外语 12
多前 12
多恩 12
多活 12
多美元 12
大会党 12
大做文章 12
大大@@ 12
大方 12
大理石 12
大赢家 12
大钱 12
大阪 12
天体 12
天内 12
天后 12
太多人 12
失常 12
头筹 12
奄奄一息 12
套息 12
奥马 12
女权 12
女神 12
奸 12
好似 12
妇 12
妥当 12
妮 12
姆贝基 12
始 12
委派 12
威尼斯 12
嫖娼 12
孙辈 12
孤儿院 12
孤家寡人 12
学府 12
学徒 12
安插 12
安然无恙 12
宋思明 12
完备 12
完美无缺 12
定得 12
宝石 12
实属 12
实性 12
宣泄 12
宣誓就职 12
宣讲 12
家门 12
容忍度 12
寄予 12
密松 12
富有成效 12
寓@@ 12
对外开放 12
对着干 12
寺庙 12
封建@@ 12
少不了 12
尤什申科 12
尼哈 12
尽职 12
局部@@ 12
居住@@ 12
居功至伟 12
居所 12
居民区 12
屠@@ 12
峡谷 12
巡回 12
工地 12
工种 12
巫@@ 12
差得多 12
已成定局 12
巴库 12
市场繁荣 12
市级 12
布坎南 12
布莱 12
帕特罗 12
带宽 12
常理 12
干燥 12
平反 12
平民百姓 12
平淡无奇 12
平衡点 12
年老 12
年迈 12
并行 12
幸 12
幼儿园 12
广告牌 12
庆 12
序@@ 12
应从 12
应激 12
废品 12
废弃物 12
废料 12
废气 12
度假@@ 12
开发署 12
开发计划 12
开放式 12
开普敦 12
开邦 12
异化 12
弗拉 12
弗拉芒 12
弯@@ 12
当前情况 12
当场 12
征询 12
径@@ 12
徐@@ 12
得力 12
得起 12
心头 12
心满意足 12
心灰意冷 12
忠告 12
快地 12
快感 12
快餐 12
怀有敌意 12
怂恿 12
怜悯 12
思维@@ 12
性别@@ 12
性感 12
怪兽 12
总参谋长 12
总比 12
总的来讲 12
恣睢 12
恰尔邦 12
恳求 12
恶意软件 12
悉 12
情怀 12
情理 12
情绪@@ 12
情谊 12
惊叹 12
惊吓 12
想着 12
惹恼 12
感到遗憾 12
感染率 12
愤愤不平 12
慌乱 12
戏剧化 12
成像 12
成都 12
戒 12
战斗力 12
所示 12
扇 12
才行 12
扔进 12
托宾 12
扫荡 12
技 12
投票选举 12
拆借 12
拉德 12
拖拉机 12
拭目以待 12
指导思想 12
挫折感 12
挺@@ 12
捞取 12
换届 12
授课 12
掌握权力 12
排位 12
接见 12
控制系统 12
推升 12
掷 12
掺杂 12
提供@@ 12
摘要 12
支付宝 12
收入者 12
收受 12
收留 12
攻击者 12
放任自流 12
放牧 12
放眼世界 12
政治派别 12
救出 12
教唆 12
教育部 12
教诲 12
敛财 12
敬意 12
数十 12
数百万个 12
文版 12
文科 12
斯洛博 12
新贵 12
方法论 12
方言 12
旅中 12
旅游者 12
旋 12
无从@@ 12
无可救药 12
无暇 12
无法@@ 12
无计可施 12
日夜 12
日益频繁 12
日薄西山 12
旧式 12
早日 12
时事 12
时能 12
时要 12
明确要求 12
明说 12
易得 12
星期日 12
映@@ 12
昭@@ 12
晦涩 12
普通法 12
普里 12
晶体管 12
暗 12
暗流 12
暗物质 12
暗箱 12
暴躁 12
更多@@ 12
更弱 12
更穷 12
最惠国 12
有增无减 12
服务供应商 12
朝鲜政府 12
期货交易 12
本笃 12
机组 12
杂 12
权威人士 12
杆 12
杜罗 12
来不及 12
杭 12
松绑 12
枝@@ 12
枪杀 12
枪炮 12
枯@@ 12
核算 12
核裂变 12
核试 12
格式 12
格莱@@ 12
格陵兰岛 12
格鲁吉亚人 12
桌 12
梅特涅 12
梯 12
棉@@ 12
棵 12
椅 12
椅子 12
榜@@ 12
模板 12
模糊@@ 12
欧猪 12
正规@@ 12
此种 12
步步 12
武装@@ 12
死气沉沉 12
殉@@ 12
残 12
毁林 12
每人每年 12
每户 12
每股 12
比利时人 12
比哈尔邦 12
比较而言 12
毫无例外 12
民主权利 12
民主自由 12
民族和解 12
民望 12
氧气 12
水落石出 12
汇率问题 12
汞 12
江户 12
池子 12
沙俄 12
法克斯 12
泛欧 12
波澜 12
泻@@ 12
洪 12
派往 12
流动资产 12
浮夸 12
海拔 12
海藻 12
海运 12
涌@@ 12
涌出 12
淘@@ 12
深入研究 12
混合体 12
淹死 12
清偿 12
清晰可见 12
渔利 12
温州 12
渴 12
游乐园 12
游牧 12
游牧民 12
溯 12
滋味 12
满目疮痍 12
滨 12
滴 12
漫不经心 12
潦倒 12
激愤 12
火车站 12
灰 12
灵长类 12
烧掉 12
热带@@ 12
煤炭行业 12
照常 12
熄灭 12
熟练@@ 12
牌照 12
牢不可破 12
牢牢地 12
物竞天择 12
特别@@ 12
特大 12
特拉@@ 12
犯罪活动 12
犯过 12
狡@@ 12
独断专行 12
狼@@ 12
猜忌 12
率地 12
玛蒂 12
玩偶 12
环境压力 12
现代战争 12
现金支付 12
理清 12
琼斯 12
瑞士@@ 12
瑞行 12
瓜@@ 12
瓜葛 12
瓦尔@@ 12
瓦文萨 12
瓦茨拉夫 12
瓦西里 12
生化 12
用工 12
用水量 12
甩@@ 12
田纳西州 12
申明 12
申诉 12
电动 12
电量 12
病入膏肓 12
痛楚 12
瘾君子 12
白芝浩 12
白血病 12
百分位 12
百科全书 12
直击 12
直升飞机 12
直率 12
直达 12
省下 12
省政府 12
真人秀 12
真实情况 12
短期贷款 12
破产案 12
碗 12
碰面 12
社会制度 12
社会民主主义 12
社区@@ 12
福布斯 12
私营经济 12
科尼@@ 12
移出 12
稀有 12
稀缺性 12
税则 12
稻草 12
穴 12
空头支票 12
空置 12
窃 12
窗@@ 12
窝@@ 12
立足之地 12
竞技 12
竞逐 12
竹 12
笨蛋 12
第一点 12
第三阶段 12
第九 12
第九@@ 12
第四条 12
筑@@ 12
答复 12
算作 12
管们 12
管制@@ 12
管好 12
管理机制 12
篇章 12
簿 12
籍@@ 12
米洛 12
粘性 12
粮@@ 12
粮食作物 12
精神失常 12
素材 12
索拉纳 12
繁荣昌盛 12
纠缠不清 12
纹@@ 12
纽斯 12
线上 12
经得起 12
经文 12
经营@@ 12
结构化 12
绝对值 12
统一@@ 12
统制 12
统统 12
绪 12
维他命 12
维吾尔族 12
维拉 12
维斯 12
缅怀 12
缓冲区 12
罗尔斯 12
罚@@ 12
美国国家安全局 12
美国民主党 12
美国联邦政府 12
美国陆军 12
美联社 12
羞于 12
羽@@ 12
翻开 12
耀眼 12
老套 12
老年@@ 12
老话 12
耐用 12
联姻 12
联席会议 12
联络小组 12
股东大会 12
肺@@ 12
背书 12
脂 12
脑中 12
脑子 12
脱胎 12
臣@@ 12
自上 12
自保 12
自我批评 12
自我标榜 12
自由言论 12
致信 12
舱 12
色子 12
芽 12
苛@@ 12
苟@@ 12
苟同 12
若望 12
若泽 12
英明 12
英雄主义 12
草坪 12
荒芜 12
药店 12
莉 12
莱昂 12
获益匪浅 12
菅 12
菲永@@ 12
萌@@ 12
萨德 12
落后者 12
葛@@ 12
薪@@ 12
藉此 12
藤 12
虚无主义 12
蛮横 12
蜜 12
螺旋式 12
行走 12
补给 12
表示同意 12
表达方式 12
表露 12
衬衫 12
衰 12
被忽略了 12
被抛弃了 12
被盗 12
裹挟 12
西奥多 12
西方式 12
西西 12
要远 12
见怪不怪 12
观察团 12
规章制度 12
触 12
警戒 12
讥@@ 12
议@@ 12
讽 12
证件 12
试探性 12
该是 12
误会 12
误认为 12
读过 12
谁@@ 12
谁又能 12
调查员 12
调研 12
调降 12
贝多 12
责任制 12
贩毒集团 12
购房 12
贸易部长 12
贸然 12
贻@@ 12
赌@@ 12
赏@@ 12
赞许 12
走动 12
走投无路 12
赶到 12
越多 12
越拉越 12
趋之若鹜 12
足球@@ 12
足球运动 12
足量 12
跑步 12
跑道 12
路易斯@@ 12
跳板 12
车祸 12
转嫁到 12
转给 12
轮胎 12
轴@@ 12
输气管道 12
边界线 12
过多地 12
过渡时期 12
迈克 12
迈入 12
运到 12
运营商 12
这群 12
进犯 12
远去 12
违规行为 12
迫 12
迷茫 12
追捧 12
适于 12
逃避现实 12
逐步提高 12
通关 12
通气 12
通用电气 12
通缉 12
通过观察 12
造假 12
造访 12
遗传性 12
那一 12
邮政 12
醇 12
里卡多 12
重新部署 12
重重困难 12
金边 12
钉子 12
钦奈 12
铁托 12
铁板一块 12
铐 12
铸币 12
铸造 12
铺天盖地 12
锋 12
锦@@ 12
门徒 12
防御能力 12
阿尔伯特 12
阿拉伯联合酋长国 12
阿隆 12
阿鲁纳 12
际@@ 12
陈词 12
降雨量 12
陡峭 12
险境 12
隙 12
难受 12
零件 12
雷格 12
霸占 12
非对称 12
靡@@ 12
鞭策 12
页面 12
颂@@ 12
预料中 12
预设 12
领事馆 12
领头 12
领导集体 12
飞船 12
食物链 12
饲@@ 12
香港@@ 12
香蕉 12
马拉喀什 12
马拉松 12
马斯 12
骆驼 12
骤然 12
高分 12
高发 12
高品质 12
高收入者 12
高歌猛进 12
高等级 12
高级专员 12
魄力 12
魔术 12
鲁莽地 12
鲜@@ 12
鲨 12
麦克纳马拉 12
黎巴嫩人 12
黑暗时代 12
黑色@@ 12
鼠疫 12
齐亚 12
03 11
102 11
123 11
126 11
1848 11
1916 11
2027 11
310 11
840 11
870 11
880 11
92% 11
AG@@ 11
Abdullah 11
Acad@@ 11
Ang@@ 11
Angela 11
Army 11
Aut@@ 11
Bal@@ 11
Big 11
Blanchard 11
Bou@@ 11
CAPE 11
CB@@ 11
Central 11
Char@@ 11
Child 11
Coll@@ 11
Common 11
Court 11
Cruz 11
Da@@ 11
Del@@ 11
Dor@@ 11
Earth 11
Eric 11
Ern@@ 11
Euro@@ 11
FHA 11
Farage 11
Finance 11
Financing 11
Fisher 11
Friedrich 11
GI 11
Gar@@ 11
Go@@ 11
Gold@@ 11
Govern@@ 11
Gra@@ 11
Gs 11
Gus@@ 11
Hay@@ 11
Helm@@ 11
Hun@@ 11
ICU 11
IV 11
Internet 11
Ja@@ 11
Jeff 11
Jonathan 11
Jr 11
Kacz@@ 11
Karl 11
Ken 11
Kevin 11
Khal@@ 11
Ki@@ 11
La@@ 11
Lee 11
Lis@@ 11
Long 11
MA 11
MH17 11
MIT 11
MPC 11
Merkel 11
Mervyn 11
Mik@@ 11
NTD 11
Nation@@ 11
Oliver 11
On@@ 11
Ox@@ 11
PR 11
PSA 11
Pal@@ 11
Pap@@ 11
Philip 11
Podemos 11
Polonia 11
RC 11
Ran@@ 11
Regi@@ 11
Ren@@ 11
Ricardo 11
Rodrik 11
Romer 11
SR@@ 11
Sadr 11
School 11
Schul@@ 11
Sci@@ 11
Scot@@ 11
Sergei 11
Square 11
Stand@@ 11
Steve 11
Sub@@ 11
Syrian 11
Tel@@ 11
Tri@@ 11
UGHE 11
Val 11
War@@ 11
Wolfensohn 11
aba 11
act@@ 11
akh@@ 11
ands 11
app 11
arif 11
art@@ 11
awi 11
aya 11
be@@ 11
capture 11
cep@@ 11
chi 11
coun@@ 11
dem@@ 11
dic@@ 11
dish 11
eck 11
edge 11
ega 11
ela 11
ents 11
erman 11
ery 11
fir@@ 11
fr@@ 11
from 11
gh@@ 11
gn@@ 11
good 11
ib 11
isi 11
ita 11
itb@@ 11
ive 11
jec@@ 11
king 11
ling 11
ma@@ 11
mo@@ 11
na 11
ock@@ 11
ola 11
oniprobe 11
oom@@ 11
ort 11
ove 11
por@@ 11
ppm 11
pri@@ 11
recherche 11
sey 11
ss 11
tical 11
tiv@@ 11
uct@@ 11
ult@@ 11
unity 11
ution 11
val@@ 11
van 11
was 11
zz@@ 11
一众 11
一切@@ 11
一切办法 11
一国@@ 11
一堂 11
一堵 11
一塌糊涂 11
一帖 11
一年期 11
一损俱损 11
一文 11
一无所有 11
一来 11
一百周年 11
一瞬间 11
一笔勾销 11
一筹 11
一落千丈 11
七分 11
七名 11
万事达 11
万年前 11
万户 11
万无一失 11
万里 11
丈 11
三件 11
三场 11
三管齐下 11
三难 11
上以 11
上用 11
上百万 11
上课 11
下怀 11
下挫 11
下班 11
不一致性 11
不买账 11
不偏不倚 11
不免 11
不公平地 11
不共戴天 11
不减 11
不列颠 11
不及@@ 11
不周 11
不屑 11
不平 11
不死 11
不温不火 11
不由 11
不良影响 11
不问 11
专业性 11
专业技能 11
东南亚国家联盟 11
两国人民 11
严守 11
严重危害 11
个人崇拜 11
中心地带 11
中文 11
中欧国家 11
主办国 11
举棋不定 11
之实 11
之害 11
之能事 11
乌云 11
九倍 11
也@@ 11
也罢 11
买到 11
买来 11
买进 11
争锋 11
事实真相 11
互动@@ 11
五点 11
五花八门 11
亚历@@ 11
亚尔 11
交还给 11
产权保护 11
亲眼 11
人口数 11
人因 11
人心@@ 11
人所共知 11
人民日报 11
人猿 11
人类学 11
亿个 11
亿日元 11
仇敌 11
从头@@ 11
从头开始 11
仓库 11
代表制 11
令人注目 11
令人激动 11
令人讨厌 11
令到 11
件@@ 11
价格体系 11
企业债券 11
伊夫 11
伊德 11
伏笔 11
伐木 11
休斯顿 11
众矢之的 11
会想 11
会计师 11
会面时 11
伞 11
传统@@ 11
传统意义 11
传送 11
伪科学 11
似 11
但令 11
低质量 11
体积 11
体能 11
何人 11
何况 11
余生 11
佣金 11
使者 11
俄方 11
俘 11
保护国 11
倒计时 11
倚重 11
假使 11
偏左 11
偏误 11
做梦 11
停车 11
健康权 11
偿 11
儒 11
兄弟姐妹 11
充 11
充电 11
光纤 11
光荣@@ 11
克塞尔 11
克朗 11
入罪 11
全体成员 11
全国@@ 11
全球通 11
全身而退 11
全靠 11
八成 11
公交 11
公审 11
公开批评 11
公敌 11
六日 11
六月份 11
六次 11
共产党员 11
关塔那摩湾 11
关税同盟 11
关门大吉 11
兴旺发达 11
其内 11
其来 11
其能 11
典礼 11
兼有 11
内债 11
内燃机 11
内部化 11
内陆@@ 11
再也不会 11
再见 11
再说 11
冒险家 11
军界 11
冬奥会 11
冰雪 11
冲击力 11
冲突@@ 11
决不会 11
决不可 11
冻@@ 11
几任 11
几条 11
凭证 11
出其 11
出狱 11
出生地 11
出示 11
出类拔萃 11
凿@@ 11
分庭抗礼 11
分散@@ 11
分配机制 11
切中要害 11
切尔 11
切斯 11
切身@@ 11
刑事@@ 11
刑事诉讼 11
创业家 11
创作 11
利伯曼 11
利奥 11
利润@@ 11
利率差 11
利用@@ 11
别忘了 11
刮@@ 11
刮目相看 11
到此为止 11
刷新 11
券@@ 11
前后@@ 11
前置 11
剧减 11
剩余劳动力 11
割 11
剿 11
劝 11
功不可没 11
动型 11
动能 11
劳工部 11
势必会 11
勇 11
北卡罗来纳州 11
医学杂志 11
匿@@ 11
十九@@ 11
十六@@ 11
十名 11
千差万别 11
千禧@@ 11
升水 11
半段 11
华盛顿州 11
华裔 11
单打独斗 11
南部非洲 11
博士@@ 11
占优 11
占款 11
卡斯帕罗夫 11
卧室 11
卫报 11
卫生界 11
印刷机 11
印尼@@ 11
却令 11
历史渊源 11
历史背景 11
厉@@ 11
原籍 11
参众两院 11
友人 11
友好@@ 11
双倍 11
双边合作 11
反以 11
反制 11
反常@@ 11
发号施令 11
发明者 11
发行人 11
发表@@ 11
发起人 11
发起者 11
取经 11
变化趋势 11
变坏 11
变弱 11
变现 11
口头禅 11
古钦斯基 11
只想 11
只靠 11
叫作 11
召 11
可兰经 11
可憎 11
可数 11
台前 11
叹@@ 11
叹为观止 11
吃饭 11
各个击破 11
各方对 11
吉布提 11
同名 11
同源 11
同胞们 11
同质 11
名气 11
后世 11
后殖民 11
向外 11
向性 11
君 11
听听 11
吸收器 11
呆@@ 11
咋 11
品味 11
哈佛商学院 11
哈姆 11
哲@@ 11
唾@@ 11
商业部门 11
善政 11
嗅@@ 11
嘴里 11
噩@@ 11
囊中羞涩 11
四起 11
园@@ 11
固体@@ 11
国家化 11
国际金融公司 11
土耳其共和国 11
在结构上 11
地形 11
地方法院 11
地毯 11
地道 11
地问 11
坐实 11
坚实基础 11
坚持下去 11
坚持原则 11
埃沃 11
城堡 11
城镇化 11
基因学 11
基尔库克 11
基尼 11
基础@@ 11
堕入 11
堪萨@@ 11
塔尔@@ 11
塘 11
填补空白 11
墙上 11
增发 11
壁@@ 11
外交活动 11
多元性 11
多克 11
多场 11
多多 11
多夫 11
多安 11
多巴@@ 11
多杰 11
大一统 11
大体@@ 11
大党 11
大吉 11
大喊 11
大致相同 11
大赛 11
天花板 11
天赐 11
奔波 11
奔走 11
奖牌@@ 11
奥维尔 11
好不容易 11
好几@@ 11
如其 11
如日中天 11
如此这般 11
妄为 11
妇@@ 11
婆 11
婴@@ 11
媾和 11
孰@@ 11
宁静 11
安拉 11
定时 11
定点 11
实业家 11
实力@@ 11
实践者 11
实际效果 11
审问 11
宫廷 11
害性 11
家务@@ 11
家用 11
家禽 11
家长作风 11
宽宏大量 11
宿命论 11
寂静 11
密切联系 11
富含 11
寡妇 11
对性 11
对接 11
对称性 11
小圈子 11
小城 11
小康@@ 11
小生产者 11
尔克 11
尔巴 11
尔比 11
尖 11
尤金 11
尸 11
尼日利亚政府 11
尽情 11
居留 11
屏 11
履 11
屹立 11
岛礁 11
崎@@ 11
巢 11
工薪 11
巧克力 11
巨款 11
己任 11
已于 11
已使 11
巴东 11
巴克莱 11
巴基斯坦人民党 11
巴尔的摩 11
巴尼 11
巴尼@@ 11
市场监管 11
布满 11
希腊@@ 11
带头作用 11
常年 11
常规战争 11
干涉主义 11
平凡 11
平均年龄 11
平流层 11
年度报告 11
庇 11
应变 11
庞氏 11
庞然大物 11
廉价地 11
建坝 11
开关 11
开具 11
开口 11
开足马力 11
开进 11
开采@@ 11
开门 11
开阔 11
异曲同工 11
弃权票 11
弄错 11
弊@@ 11
弗洛@@ 11
弗里 11
弟@@ 11
弟弟 11
张开 11
张贴 11
强权政治 11
归属于 11
归根到底 11
当权派 11
形容词 11
往好 11
征求 11
很差 11
徒劳无益 11
得偿 11
得意 11
循@@ 11
循序渐进 11
德涅斯特河 11
心不在焉 11
心理疾病 11
心脏地带 11
必有 11
忍不住 11
忍受着 11
忠 11
忠心 11
怀尔德 11
怎@@ 11
怎能 11
怒气 11
急升 11
性取向 11
总督 11
总面积 11
恐惧心理 11
恐慌性 11
恒定 11
恰 11
恳请 11
恶劣影响 11
恶性@@ 11
悉@@ 11
悼念 11
情有可原 11
情绪化 11
惠 11
惨案 11
愁 11
意料中 11
愿景@@ 11
慎@@ 11
慢于 11
慰藉 11
慷慨解囊 11
懒 11
成倍@@ 11
成功经验 11
成本@@ 11
我能 11
戒心 11
或非 11
战略决策 11
所未见 11
扎伊@@ 11
打击目标 11
打死 11
托塔 11
托洛茨基 11
执意 11
抑制@@ 11
投掷 11
抢走 11
抵税 11
拒绝给予 11
拘@@ 11
招待 11
拟@@ 11
拼图 11
指导@@ 11
指导性 11
指着 11
指称 11
按部就班 11
挣得 11
捏@@ 11
掉头 11
接二连三 11
接种率 11
控告 11
掺@@ 11
提出@@ 11
提尔 11
插 11
搅乱 11
搏 11
搏斗 11
摇滚乐 11
摩尔定律 11
摩湾 11
收割 11
收藏 11
改变方向 11
改名 11
改弦更张 11
改用 11
放逐 11
政治信仰 11
政治界 11
效法 11
敌对状态 11
敌对行动 11
数亿美元 11
数学@@ 11
敷@@ 11
文中 11
斥@@ 11
断电 11
斯利 11
斯卡 11
斯库 11
斯托 11
斯科@@ 11
新老 11
新股 11
方便之门 11
方程组 11
无事 11
无利可图 11
无核国家 11
无法挽回 11
无理 11
无脑 11
既定目标 11
日本帝国 11
日益减少 11
日记 11
日间 11
早早 11
早点 11
时向 11
时时 11
时点 11
旺@@ 11
明令禁止 11
明灯 11
星期五 11
星期天 11
昧@@ 11
显露出来 11
普及@@ 11
普通家庭 11
普通工人 11
智利人 11
晾 11
暴力@@ 11
暴富 11
更多 11
更胜一筹 11
最起码 11
有句 11
有志于 11
有权有势 11
有种 11
服刑人员 11
服务商 11
望而生畏 11
木薯 11
末代 11
本方 11
机票 11
杀伤力 11
杂着 11
杖 11
来回 11
来时 11
杰克逊 11
杰斐逊 11
林业 11
林书豪 11
枪口 11
架设 11
柄 11
某处 11
柔@@ 11
查禁 11
柯 11
柯林斯 11
核苷酸 11
格伦 11
格哈德 11
框 11
桌面 11
桑德尔 11
梅林达 11
梦魇 11
棕@@ 11
棕榈油 11
橄榄@@ 11
欠款 11
欣@@ 11
正为 11
此地 11
此话 11
步其后尘 11
步调一致 11
歧途 11
死前 11
比亚 11
毫不相关 11
毫不费力 11
毫不逊色 11
氏症 11
民主思想 11
民法 11
民盟 11
气来 11
水中 11
水漂 11
水灾 11
永无止境 11
求得 11
汇丰银行 11
汇聚一堂 11
汉族 11
汉班 11
污水 11
沉痛 11
沉迷 11
沧@@ 11
法学 11
波斯@@ 11
波茨坦 11
波黑 11
泰国人 11
泰米尔纳德邦 11
泳@@ 11
洛克菲勒 11
洛特 11
洞察力 11
活动份子 11
活得 11
流行@@ 11
流行性 11
海洋@@ 11
海浪 11
海面 11
海鲜 11
消 11
消沉 11
消磨 11
消解 11
涌动 11
淋巴@@ 11
淋漓尽致 11
淡出 11
深入@@ 11
深化改革 11
清一色 11
渎 11
温哥华 11
游击队员 11
游艇 11
溜走 11
滞@@ 11
满怀希望 11
滥发 11
潜伏 11
潜移默化 11
濒临破产 11
瀑布 11
炉@@ 11
炸死 11
炼狱 11
烟草行业 11
焕发 11
焦土 11
燎原之势 11
爱丁堡 11
爱荷华州 11
爵 11
牙买加 11
牙医 11
牢狱之灾 11
特雷莎 11
犬@@ 11
犹太@@ 11
犹太教徒 11
狡诈 11
独占 11
狮子 11
猎物 11
玉@@ 11
玛沙 11
环境卫生 11
环境污染 11
现代文明 11
现实性 11
珠宝 11
瑞郎 11
瑟@@ 11
瓜达尔 11
瓦特 11
甚为 11
甚少 11
甚深 11
生不@@ 11
生子 11
生意@@ 11
用地 11
用心 11
用过 11
甫 11
由衷 11
申根协定 11
电力@@ 11
电池板 11
电视剧 11
电视网 11
画像 11
畔 11
略低 11
番@@ 11
疏@@ 11
疚 11
疫 11
病因 11
痛心 11
瘦@@ 11
白热化 11
盈 11
监听 11
监督员 11
盗取 11
相像 11
相联 11
省长 11
看穿 11
真想 11
真话 11
眩@@ 11
着陆 11
睦邻友好 11
睦邻政策 11
矗立 11
短期@@ 11
短程 11
矮@@ 11
石油输出国组织 11
矿石 11
研究局 11
破解 11
磷@@ 11
示范@@ 11
神庙 11
神牛 11
祥@@ 11
票价 11
祭@@ 11
祭出 11
禁酒令 11
福德 11
福田 11
科伦坡 11
科特 11
科目 11
秘密行动 11
积极行动 11
税赋 11
究@@ 11
空域 11
空子 11
窘迫 11
窝 11
立场坚定 11
立法委员 11
章@@ 11
笛卡尔 11
第一类 11
第一道 11
第二点 11
第五条 11
第四种 11
笼统 11
等价物 11
等级制度 11
篇@@ 11
米利班德 11
米奇 11
米斯 11
粒 11
粮食供应 11
精于 11
精神病院 11
精神领袖 11
精致 11
糊涂 11
糟@@ 11
索菲亚 11
紧盯 11
紧跟 11
红细胞 11
约会 11
约等于 11
约组织 11
纳耶夫 11
纺织@@ 11
组织性 11
绅士 11
细小 11
经济腾飞 11
经营不善 11
统治权 11
续 11
绳子 11
维权 11
缺乏@@ 11
罐 11
网球 11
罗伊 11
罗斯@@ 11
罗马@@ 11
美好@@ 11
美梦 11
美食 11
羞愧 11
翻译成 11
老方 11
而据 11
而终 11
而过 11
聊天 11
聒噪 11
聚光灯 11
聚居 11
聚集@@ 11
肠@@ 11
肩膀 11
胡耀邦 11
能源危机 11
能源行业 11
脑海 11
脑细胞 11
脚跟 11
脱离@@ 11
腐败@@ 11
腔@@ 11
腰斩 11
腹 11
腹地 11
腺@@ 11
腻 11
自始至终 11
自满情绪 11
自然生态 11
自食其果 11
臭氧 11
致力 11
舍弃 11
舟 11
航路 11
舰艇 11
良 11
良策 11
艺@@ 11
艾尔@@ 11
花花公子 11
苍蝇 11
苏菲 11
英寸 11
荒 11
荡然无存 11
药效 11
荷兰政府 11
莫测 11
莫顿 11
莱茵河 11
菲克 11
营地 11
营运 11
落于 11
落地 11
落马 11
著@@ 11
著名@@ 11
蒂亚 11
蒸汽 11
蔚@@ 11
蔡美儿 11
藤@@ 11
虐囚 11
虚与委蛇 11
虚拟现实 11
虽说 11
蛇@@ 11
行业协会 11
行者 11
衣物 11
补充@@ 11
表演者 11
袭@@ 11
装模作样 11
裹足不前 11
褒@@ 11
西科@@ 11
西里 11
要强 11
覆@@ 11
规模@@ 11
解决目前 11
言不@@ 11
言听计从 11
警务 11
譬如 11
计算机化 11
计算机程序 11
订 11
认 11
认命 11
讲座 11
访者 11
词来 11
译者 11
试行 11
试金石 11
试验@@ 11
试验场 11
诞辰 11
诡@@ 11
诬@@ 11
语焉不详 11
误导作用 11
误诊 11
诸任 11
读一读 11
调解人 11
谎 11
谎@@ 11
谲 11
贝格 11
贝鲁斯科 11
负罪感 11
负荷 11
责任人 11
货币流通 11
贪得无厌 11
贷方 11
费迪南德 11
费雪 11
贺@@ 11
资讯 11
资金分配 11
资金量 11
赢取 11
赫尔曼 11
赫然 11
赵连海 11
起家 11
超大 11
越低 11
越来越近 11
趣@@ 11
路易@@ 11
跳楼价 11
踪 11
身居高位 11
躯 11
转瞬即逝 11
轮状病毒 11
辅助性 11
输往 11
输电 11
输赢 11
辞令 11
辨 11
达近 11
达里 11
过火 11
迎刃而解 11
运载 11
运输@@ 11
近些年来 11
返 11
这番 11
这门 11
进步性 11
进食 11
远征 11
远距离 11
远远不如 11
违抗 11
迷雾 11
追 11
追求@@ 11
退位 11
适耕 11
逃到 11
逃过 11
逊@@ 11
逐个 11
通奸 11
通用汽车 11
通行证 11
通货 11
逝去 11
造出 11
造林 11
逢@@ 11
遂 11
遑论 11
道德感 11
遗传学家 11
遣 11
遮掩 11
避孕@@ 11
那句 11
部长会议 11
酸盐 11
酿@@ 11
醒@@ 11
醒来 11
采掘 11
释 11
里亚尔 11
重大胜利 11
重挫 11
重男轻女 11
重返家园 11
金墉 11
金家 11
金枪鱼 11
钟@@ 11
钢材 11
钩 11
银根 11
铸 11
销往 11
镜@@ 11
镜花水月 11
长篇 11
闭嘴 11
问一问 11
间接@@ 11
间断 11
间隔 11
阵 11
阻击 11
阻拦 11
阿列 11
阿塔 11
阿尔及利亚人 11
附加@@ 11
降速 11
陪同 11
陷在 11
障@@ 11
雀@@ 11
雕塑 11
零八 11
零净 11
零增长 11
雷亚尔 11
雷诺 11
霍利 11
非常适合 11
面具 11
韩三国 11
韩美 11
须@@ 11
预备@@ 11
领略 11
题目 11
颠簸 11
风景@@ 11
风暴潮 11
食品药品 11
饲喂 11
香 11
马修 11
马尔代夫 11
马来亚 11
马科 11
马里兰州 11
驱动器 11
驶向 11
高下 11
高中@@ 11
高利贷 11
高大 11
高频 11
魏 11
鳕鱼 11
麾下 11
黄岩岛 11
黄禹锡 11
黄色 11
鼠标 11
鼻子 11
00 10
05% 10
07 10
116 10
166 10
170% 10
1873 10
1895 10
1905 10
340 10
590 10
6500 10
680 10
76% 10
84% 10
91% 10
Agenda 10
Alternative 10
Andy 10
Anne 10
Antimicrobial 10
Arm@@ 10
Arthur 10
Assessment 10
Assistance 10
Bern@@ 10
Bol@@ 10
CEA 10
Camp@@ 10
Can@@ 10
Carbon 10
Cas@@ 10
Century 10
Chi@@ 10
Christopher 10
Community 10
Conn@@ 10
Coordin@@ 10
Cur@@ 10
Dawn 10
Dem@@ 10
Democrats 10
Dom@@ 10
Duisenberg 10
ET 10
Ear@@ 10
Enola 10
Environ@@ 10
Euras@@ 10
FTA 10
Federal 10
GGE 10
Galbraith 10
Gil@@ 10
Government 10
Gri@@ 10
Gro@@ 10
Gul@@ 10
Hoenig 10
Holm@@ 10
Home 10
Hus@@ 10
Information 10
Jan@@ 10
Jav@@ 10
Ker@@ 10
Kw@@ 10
LIA 10
Labor 10
Lam@@ 10
Liv@@ 10
Lucas 10
MFFP 10
MO@@ 10
MOOC 10
Malaria 10
Matt@@ 10
Mikhail 10
Miller 10
Mirror 10
Mul@@ 10
Mun@@ 10
Nicolas 10
OC 10
Ob@@ 10
Op@@ 10
Open 10
Out@@ 10
PCA 10
Pers@@ 10
Picot 10
Proctor 10
Raghuram 10
Rajan 10
Red@@ 10
Resistance 10
Responsibility 10
Riv@@ 10
Ross 10
Royal 10
Ru@@ 10
SDSN 10
SS 10
SUV 10
Salman 10
Salv@@ 10
Saud 10
Shi@@ 10
Steven 10
Susan 10
Sykes 10
TO 10
Tam@@ 10
Trust 10
Ty@@ 10
UE 10
Uk@@ 10
Varoufakis 10
Vol@@ 10
Watch 10
Windows 10
XL 10
Yanis 10
Yanukovych 10
Yous@@ 10
ady 10
af 10
als 10
ampquot 10
ann 10
any@@ 10
appro@@ 10
arr@@ 10
atherine 10
aus 10
bu@@ 10
bur@@ 10
carbon 10
care 10
con 10
cos@@ 10
countries 10
dec@@ 10
do 10
dom@@ 10
dor 10
duc@@ 10
ech 10
eft 10
ender 10
endra 10
enter 10
esto 10
evelop@@ 10
form@@ 10
had 10
haircut 10
have 10
hi 10
ica 10
icddr 10
if 10
ig 10
ilding 10
ilit@@ 10
ind 10
inking 10
inv@@ 10
ion@@ 10
its 10
ji 10
ki@@ 10
kov 10
kov@@ 10
ld 10
li 10
lif@@ 10
lim 10
lis 10
ls 10
money 10
obs 10
ope 10
order 10
ott@@ 10
ram@@ 10
ras 10
rice 10
rique 10
ron 10
roug@@ 10
rowd 10
sell 10
sh 10
sit 10
sts 10
su@@ 10
sy@@ 10
til@@ 10
tina 10
tional 10
trans@@ 10
tro@@ 10
ublic 10
udget 10
ulatory 10
unc@@ 10
uro@@ 10
ust@@ 10
ves 10
vin 10
win 10
with 10
ye 10
ys@@ 10
É 10
ł 10
一万@@ 10
一亿 10
一团乱麻 10
一大笔钱 10
一岁 10
一性 10
一滴 10
一百 10
一票@@ 10
一角 10
一走了之 10
一针 10
一首 10
七成 10
万公顷 10
万分 10
三星 10
三起 10
上午 10
上方 10
上缴 10
上能 10
上路 10
下手 10
不一 10
不了了之 10
不人道 10
不以 10
不信任感 10
不太好 10
不攻自破 10
不痛不痒 10
不经 10
不罚 10
不育 10
不衰 10
不计@@ 10
不闻不问 10
不齿 10
专利@@ 10
专心 10
世代@@ 10
世界杯赛 10
业内 10
东南欧 10
两任 10
两党制 10
两只 10
两套 10
两岸关系 10
两条路 10
两番 10
两百@@ 10
两边 10
个人身份 10
个体@@ 10
个例 10
中会 10
中俄关系 10
中国人民解放军 10
中美合作 10
中要 10
中资银行 10
中途 10
中饱私囊 10
为荣 10
为难 10
主宰世界 10
主政 10
主旋律 10
乃至于 10
久经@@ 10
之于 10
之以 10
之女 10
之年 10
之徒 10
之慨 10
之父 10
之词 10
乙肝 10
九名 10
乞求 10
也持 10
习惯法 10
乡 10
乡下 10
乳腺 10
争吵不休 10
事儿 10
事务部长 10
二分法 10
二十亿 10
二战时期 10
二流 10
互相承认 10
互联网@@ 10
五人 10
亚伯达 10
亚太经济 10
交通网络 10
交错 10
产卵 10
产生@@ 10
人力@@ 10
人去 10
人口减少 10
人向 10
人文科学 10
人称 10
人质@@ 10
人身@@ 10
人身攻击 10
亿万富豪 10
亿到 10
亿立方米 10
仁天皇 10
仅仅只是 10
仅以 10
今 10
从业人员 10
仔细@@ 10
付诸行动 10
令人钦佩 10
以低 10
以至 10
仪器 10
价值体系 10
价格低廉 10
企业倒闭 10
企鹅 10
伊斯 10
伊玛姆 10
休戚相关 10
优厚 10
伙@@ 10
会议室 10
传统观念 10
伤疤 10
伦斯 10
伯利恒 10
估测 10
伴生 10
伽利略 10
低息 10
低能 10
何物 10
何等 10
余年 10
佳彦 10
佼@@ 10
使用费 10
侄@@ 10
例行 10
侍@@ 10
供选择 10
依赖度 10
侦察 10
侵 10
侵扰 10
便利性 10
俄罗斯族 10
保持联系 10
保险费 10
信任@@ 10
信任危机 10
俨然 10
修理 10
修缮 10
修西@@ 10
倒转 10
借机 10
值得尊敬 10
值钱 10
倾注 10
做何 10
做好事 10
做派 10
储备量 10
傻@@ 10
儿童教育 10
充沛 10
光线 10
克鲁尼 10
党团 10
党的领导 10
入门 10
全国代表大会 10
全然不顾 10
八大 10
公理 10
六十周年 10
六国 10
兰尼加 10
共同语言 10
共性 10
关税壁垒 10
关键时期 10
兴趣@@ 10
兴高采烈 10
其事 10
其本质 10
内阁@@ 10
再用 10
再进一步 10
军中 10
军事情报 10
军工 10
农民@@ 10
冲绳@@ 10
冷冻 10
冷却@@ 10
准备就绪 10
凑效 10
几千@@ 10
几百 10
凯尔 10
出了名 10
出入 10
出品 10
分公司 10
分手 10
切除 10
列明 10
创举 10
利亚德 10
利益@@ 10
到来之际 10
刺激性 10
前十名 10
前要 10
剑桥@@ 10
剖@@ 10
副总裁 10
力推 10
办理 10
助其 10
努力奋斗 10
劳务 10
势均力敌 10
勾销 10
化工@@ 10
匹敌 10
医药行业 10
十三个 10
十几@@ 10
半途而废 10
协约 10
协调性 10
单词 10
南方人 10
南越 10
南面 10
占到 10
占领@@ 10
卡塔赫纳 10
卡尼@@ 10
卡纳@@ 10
卢武铉 10
卧@@ 10
卫生领域 10
印第安纳州 10
危机重重 10
历史舞台 10
历史进程 10
厚望 10
原地 10
原地踏步 10
去年底 10
参考@@ 10
参见 10
参谋@@ 10
参赛 10
双重@@ 10
反科学 10
发展缓慢 10
发行@@ 10
叔@@ 10
取出 10
受助者 10
受灾地区 10
受精 10
受调查者 10
变小 10
变种 10
叠床架屋 10
古董 10
只会令 10
叫嚷 10
叫好 10
叮咬 10
可有可无 10
可望而不可及 10
可爱 10
台北 10
台湾海峡 10
史克 10
各层次 10
各种@@ 10
各色 10
合一 10
合法权利 10
吉尔特 10
吉特 10
同为 10
同步增长 10
同等@@ 10
同龄人 10
名列@@ 10
名额 10
后方 10
君子 10
听见 10
听话 10
呆板 10
命脉 10
和平相处 10
咬 10
哈利@@ 10
哈姆丹 10
哈米德 10
哈里斯 10
哭泣 10
唐吉诃德 10
售卖 10
商用 10
啦@@ 10
啮齿类动物 10
喀土穆 10
喷发 10
嘉 10
嘴边 10
噤@@ 10
噩梦般 10
四邻 10
回想起来 10
回绝 10
回音 10
回顾过去 10
园区 10
困于 10
国企改革 10
国内部 10
国务@@ 10
国家补贴 10
国立大学 10
国等 10
国际主义者 10
圆桌 10
土库曼 10
土耳其@@ 10
圣诞@@ 10
在实践上 10
在岸 10
在野 10
圭@@ 10
地热 10
地球表面 10
坐立不安 10
垄断利润 10
垄断者 10
垮掉 10
埃德蒙 10
培训@@ 10
基拉 10
基本特征 10
基督教社会联盟 10
堪比 10
塑@@ 10
塞蒂 10
声势 10
处理不当 10
复仇主义 10
复杂@@ 10
夏洛特 10
外来者 10
外相 10
多一倍 10
多有 10
大势 10
大大的 10
大帝 10
大洋@@ 10
大起大落 10
天上掉 10
太平 10
太早 10
太阳光 10
夫特 10
失学 10
失血 10
头脑清醒 10
夸 10
奉承 10
奏 10
契@@ 10
奥托 10
女郎 10
奸@@ 10
好受 10
好时光 10
妇女地位 10
妊@@ 10
姑息 10
娴熟 10
学员 10
学龄 10
孵化器 10
安东尼 10
安全套 10
安德@@ 10
安格斯 10
安纳 10
安纳@@ 10
安达@@ 10
完好 10
宏伟目标 10
宗主国 10
实事 10
实务 10
实用性 10
实际成本 10
宠 10
审判@@ 10
客气 10
宣传者 10
宣告破产 10
室@@ 10
宾夕法尼亚大学 10
密切关系 10
密码 10
富庶 10
富集 10
寓言 10
对决 10
对头 10
对岸 10
对欧 10
对照组 10
寻找机会 10
射程 10
小儿麻痹 10
小泽 10
小菜@@ 10
少将 10
尔塔 10
尔森 10
尔茨 10
尤沙夫赛 10
就业@@ 10
尼奥 10
尼安 10
尼尔斯 10
尼维斯 10
层层 10
屏@@ 10
屠夫 10
山地 10
工业品 10
工事 10
工科 10
巨浪 10
巨著 10
已婚 10
巴军 10
巴列维 10
巴勒斯坦地区 10
巴尔@@ 10
巴布亚新几内亚 10
巴拉 10
巴拉迪 10
巴格 10
布基纳法索 10
布拉 10
布鲁克 10
希腊族 10
帕德玛瓦蒂 10
帕洛阿尔托 10
席卷@@ 10
常识性 10
幅员辽阔 10
幕后@@ 10
平减 10
平均气温 10
平复 10
平平 10
平民主义 10
平等权 10
平缓 10
年终 10
年青人 10
并称 10
并肩 10
幸事 10
库奇马 10
库特 10
应邀 10
庞巴迪 10
废话 10
废黜 10
康拉德 10
延续性 10
开始@@ 10
开花 10
弗洛伊德 10
弧@@ 10
强烈@@ 10
强硬措施 10
当头 10
当头@@ 10
当日 10
形式化 10
彭 10
彻 10
彻@@ 10
征集 10
律师@@ 10
得体 10
微薄 10
德哈特 10
德国议会 10
德州 10
德累斯顿 10
德里@@ 10
心血@@ 10
忌@@ 10
忽@@ 10
怠 10
怪事 10
总监 10
恰巧 10
悄无声息 10
情报搜集 10
惊慌失措 10
惯 10
想出 10
愚不可及 10
愚人 10
愚蠢地 10
感性 10
感想 10
懒@@ 10
懦弱 10
戏称 10
成绩@@ 10
我以 10
或称 10
战略重点 10
战胜国 10
房产税 10
房租 10
所想 10
所花 10
扁@@ 10
手头 10
手术@@ 10
才华横溢 10
扑@@ 10
打个 10
打个比方 10
打扫 10
打趣 10
托付给 10
扣留 10
执行机构 10
扩张期 10
扳@@ 10
扶轮社 10
承 10
抄@@ 10
把手 10
投到 10
投机@@ 10
抢眼 10
护人 10
报以 10
报偿 10
报刊 10
报废 10
担保人 10
拉开@@ 10
拉托 10
拉斯@@ 10
拉皮 10
拉赫曼 10
拐点 10
拒绝@@ 10
拖后腿 10
拙 10
招待会 10
招收 10
拟 10
拥戴 10
拱手让出 10
拷问 10
持有@@ 10
挺进 10
捉 10
捉摸不定 10
捐款人 10
捣毁 10
授意 10
掉以轻心 10
掏出 10
排在 10
掠 10
接口 10
接轨 10
控制组 10
控制能力 10
推动型 10
推土机 10
推导 10
推选 10
措@@ 10
掮客 10
握@@ 10
揣@@ 10
揭露出 10
搜捕 10
搜救 10
携 10
携起手来 10
摇篮 10
摔@@ 10
摩天大楼 10
撑 10
撑@@ 10
操纵者 10
攫@@ 10
收走 10
改正 10
改编 10
攻克 10
放手 10
政令 10
政治责任 10
效率高 10
敌手 10
救国 10
救火 10
数十名 10
数千亿 10
数据保护 10
敲诈 10
敲诈勒索 10
整座 10
文盲率 10
斯图@@ 10
斯图尔特 10
斯堡 10
斯州 10
新加坡@@ 10
新干线 10
新版 10
新鲜空气 10
施瓦茨 10
旁观 10
旅游景点 10
旋转门 10
旗手 10
无声 10
无声无息 10
无家可归者 10
无损 10
无法回答 10
无线@@ 10
无论谁 10
日积月累 10
旧债 10
早于 10
时代精神 10
时段 10
时而 10
旷@@ 10
明亮 10
明文规定 10
易如反掌 10
星巴克 10
星星 10
显性 10
显赫 10
晒@@ 10
普适 10
普顿 10
晶@@ 10
智囊 10
暑@@ 10
暖@@ 10
暴利 10
曲棍球 10
更令 10
更贵 10
更远 10
曼氏 10
最慢 10
最热 10
有创造力 10
有句名言 10
有害@@ 10
有意无意 10
有核 10
服务行业 10
服药 10
木马 10
未卜 10
未经@@ 10
本世纪内 10
本职工作 10
朱佩 10
朱棣文 10
机枪 10
杂乱无章 10
权国家 10
村子 10
杜撰 10
来势汹汹 10
来得及 10
杨@@ 10
杰出@@ 10
极端派 10
析 10
林德 10
某次 10
柬埔寨@@ 10
柯立芝 10
柴 10
标价 10
标杆 10
核导弹 10
核战略 10
核爆 10
根本@@ 10
格拉德 10
格瓦拉 10
格里夫 10
格鲁@@ 10
桑珠 10
梅特 10
梦幻 10
检方 10
检查和 10
检查站 10
棉兰 10
棋局 10
棺@@ 10
植物@@ 10
椭圆形 10
模块 10
欣然 10
欧者 10
正压 10
正当理由 10
正确认识 10
正统派 10
步兵 10
死因 10
残酷无情 10
段@@ 10
母猪 10
毒剂 10
比高 10
毫不迟疑 10
毫无价值 10
民族英雄 10
气象 10
水井 10
水火@@ 10
水门事件 10
江山 10
污染@@ 10
污蔑 10
沉寂 10
沙姆沙伊赫 10
沟@@ 10
没多大 10
沦丧 10
河谷 10
油轮 10
治标不治本 10
治病 10
沾 10
法定@@ 10
法律法规 10
法赫德 10
波尔@@ 10
波浪 10
波澜壮阔 10
波诡云 10
泥 10
泥沼 10
泥足 10
泰爱泰党 10
洗手 10
洗礼 10
洪水猛兽 10
派发 10
流感@@ 10
流淌 10
流落 10
测试@@ 10
浑身解数 10
浩@@ 10
海德拉巴 10
海洋环境 10
海港 10
海特 10
海豹 10
消停 10
消费额 10
涓滴 10
润 10
润@@ 10
深刻影响 10
深蓝 10
混凝土 10
混淆视听 10
添加剂 10
清华大学 10
清教徒 10
清晰@@ 10
渔获 10
渥太华 10
游走 10
湾@@ 10
溢@@ 10
滚石 10
满满 10
满满@@ 10
漆 10
潜在@@ 10
激进@@ 10
火山@@ 10
灵药 10
炉灶 10
炒 10
点位 10
点子 10
炼 10
烧死 10
热度 10
热烈欢迎 10
焦@@ 10
煞费苦心 10
熄火 10
爆发性 10
爆料 10
爱好 10
爵@@ 10
牢房 10
牢狱 10
物有所值 10
物质@@ 10
特与 10
特兰 10
特种 10
特蕾莎 10
特许费 10
特首 10
犬 10
犯罪集团 10
犹他州 10
独揽 10
独树一帜 10
狱@@ 10
猪国 10
率为 10
环保@@ 10
现代主义 10
现代医学 10
珍珠 10
班级 10
理所应当 10
琴@@ 10
琴科 10
瓦齐 10
生产量 10
生命安全 10
生存权 10
生物圈 10
用力 10
用性 10
用意 10
由此@@ 10
由该 10
甲级战犯 10
申 10
申请加入 10
电缆 10
男青年 10
畅 10
留心 10
略萨 10
疆界 10
疏 10
疗 10
疫@@ 10
疾病@@ 10
病虫害 10
瘦 10
癖 10
白天 10
百出 10
盆 10
监督局 10
盒子 10
盖过 10
盗版 10
相互@@ 10
相加 10
相助 10
相当可观 10
相形之下 10
相机 10
相貌 10
相配 10
看不@@ 10
真到 10
眼皮底下 10
睁@@ 10
知事 10
知会 10
短语 10
石原慎太郎 10
砍 10
砍伐森林 10
硕 10
硫@@ 10
硬退 10
碱基 10
磕@@ 10
磨 10
磨难 10
社会活动家 10
祖父母 10
神宫 10
神户 10
祷@@ 10
离去 10
离心离德 10
秃@@ 10
秉持 10
种下 10
科幻小说 10
科技领域 10
科拉 10
科普特 10
科赫 10
租用 10
积极因素 10
秽 10
稀奇 10
程序性 10
税费 10
穴居人 10
空中@@ 10
空穴来风 10
突然@@ 10
窟窿 10
立国 10
竞争@@ 10
竞价 10
符合条件 10
笨重 10
第一代 10
第一周 10
第三位 10
第三类 10
第五次 10
第六次 10
第比利斯 10
等式 10
簧 10
类产品 10
粘合剂 10
精妙 10
精神病人 10
精神科 10
糊 10
系统化 10
索夫 10
索契 10
索性 10
索赔 10
紧密@@ 10
紧张状态 10
累退 10
繁荣@@ 10
纠察队 10
约尔 10
约旦人 10
纪念@@ 10
纪念馆 10
纲 10
纲要 10
纳吉布 10
纵深 10
纸媒 10
纾解 10
细枝末节 10
终身@@ 10
经受考验 10
经商 10
经济命脉 10
经济落后 10
绘@@ 10
继任人 10
维特 10
维稳 10
维谢 10
缅甸人 10
缉毒 10
缓冲@@ 10
缔约方 10
缝 10
缩窄 10
缪@@ 10
罗廖夫 10
罗素 10
罢@@ 10
罪孽 10
美国化 10
美国宇航局 10
美国黑人 10
耀 10
老一套 10
老大哥 10
而广受 10
而异 10
而用 10
而起 10
耳光 10
耳边 10
耶稣 10
耶稣会 10
耸耸肩 10
职业女性 10
职业道德 10
职权范围 10
联合公报 10
联合利华 10
联合国开发计划署 10
联合国环境规划署 10
聚敛 10
聪明人 10
聪明才智 10
肆意挥霍 10
肇@@ 10
肉牛 10
肌体 10
肚子 10
股票价值 10
肾 10
胆怯 10
胜算 10
胡主席 10
能克服 10
能动性 10
能干 10
脖子 10
脱口秀 10
脸色 10
脸面 10
腺 10
自卫权 10
自由思想 10
自省 10
自顾@@ 10
致裂 10
舆论@@ 10
舍尔 10
航海 10
航空@@ 10
航空航天 10
航站楼 10
航运 10
舰@@ 10
舵@@ 10
船队 10
节节败退 10
芒 10
芬克 10
花销 10
芸@@ 10
苏菲派 10
若斯潘 10
茨@@ 10
茫@@ 10
荡@@ 10
药厂 10
荷兰@@ 10
荼毒 10
莱纳 10
获取信息 10
萨尔@@ 10
萨德尔 10
葛兰素 10
葬@@ 10
蒋介石 10
蕴含着 10
虚拟@@ 10
虫@@ 10
蛇头 10
蜜蜂 10
蟒蛇 10
血汗 10
行将就木 10
行性 10
衡@@ 10
表彰 10
装满 10
装配 10
褪去 10
襁@@ 10
西化 10
西林 10
西西@@ 10
见底 10
规范@@ 10
解放者 10
解释@@ 10
触犯 10
计算机科学 10
认知@@ 10
让路 10
记分牌 10
诉诸武力 10
诊断@@ 10
试管 10
该文 10
该校 10
详细@@ 10
语境 10
误以为 10
说实话 10
说得好 10
说错 10
诺曼 10
诺曼底 10
调整机制 10
谕 10
谟 10
谢尔 10
谦@@ 10
谩骂 10
谷兰 10
豆 10
豪宅 10
贝多芬 10
贝拉 10
贝索斯 10
负担沉重 10
负担过重 10
财团 10
财大气粗 10
购物@@ 10
购置 10
费卢杰 10
费尔南德斯 10
费希尔 10
贾比尔 10
资产负债 10
资本化 10
赈灾 10
赎 10
赐予 10
赛义夫 10
赛亚 10
赛尔 10
赞颂 10
走极端 10
走私者 10
走路 10
起先 10
起势 10
趁 10
超人 10
超导体 10
超调 10
越南@@ 10
趋缓 10
趟 10
跌倒 10
跟风 10
踌躇 10
蹄 10
蹲 10
身体状况 10
身负 10
躬@@ 10
转动 10
轮船 10
轻度 10
辅导 10
辆车 10
输入国 10
辖 10
辛勤工作 10
辱性 10
边界争端 10
迂@@ 10
迎接挑战 10
近几@@ 10
这则 10
这届 10
这群人 10
进口成本 10
远东地区 10
远为 10
违 10
违法@@ 10
连结 10
迪伦 10
迹@@ 10
追查 10
追索权 10
追问 10
逃跑 10
逃逸速度 10
通缉令 10
通路 10
速率 10
造船 10
遇袭 10
遐@@ 10
遑 10
遗产税 10
遗传物质 10
遗址 10
遗策 10
遥相呼应 10
遭袭 10
遮遮掩掩 10
那边 10
邻里 10
郡 10
郭@@ 10
酷 10
酷热 10
醒目 10
里斯@@ 10
里昂 10
重债 10
重力 10
重提 10
重灾区 10
重罪 10
重置 10
量身 10
金大中 10
鉴@@ 10
钦@@ 10
铃@@ 10
铤而走险 10
铸就 10
销商 10
锈带 10
错误信息 10
锤 10
长得 10
长期保持 10
长老 10
闪烁@@ 10
闪电 10
阔@@ 10
阶级@@ 10
阻塞 10
阿亚 10
阿克 10
阿克拉 10
阿利 10
阿塔图尔克 10
阿尔法 10
阿森纳 10
阿比 10
阿瑟 10
附庸国 10
陈列 10
限期 10
陶醉 10
隐私权 10
难产 10
难以确定 10
难忘 10
难辞其咎 10
雅各布 10
集中体现 10
集体@@ 10
集市 10
集装箱 10
雇@@ 10
雇工 10
雷区 10
霍尔木兹海峡 10
霸权主义 10
青春期 10
非农 10
非常@@ 10
非常任 10
非常少 10
非成员国 10
非技术 10
非生产性 10
非盈利性 10
面板 10
革 10
靶子 10
鞠@@ 10
项目@@ 10
顽固@@ 10
预算@@ 10
预算案 10
预订 10
领悟 10
颇丰 10
颇受 10
风俗 10
餐饮 10
首字母 10
首席法官 10
首度 10
马六甲海峡 10
马蒂 10
马蒂亚 10
马赞 10
驶入 10
驻地 10
骂@@ 10
验@@ 10
高于一切 10
高度重视 10
高房价 10
高标准 10
高素质 10
鱼鹰 10
鳍 10
鹤立鸡群 10
鹰@@ 10
麦肯锡公司 10
麦金农 10
黑海地区 10
默契 10
默文 10
默默地 10
鼓掌 10
龟 10
104 9
110% 9
128 9
130% 9
140% 9
15000 9
1648 9
1750 9
188 9
1880 9
1927 9
1928 9
194 9
410 9
440 9
660 9
79% 9
AIP@@ 9
AM@@ 9
ANU 9
AQ@@ 9
Admati 9
Against 9
Agric@@ 9
Ah@@ 9
Alejandro 9
Anat 9
Anna 9
Anton@@ 9
Area 9
Ashton 9
BMW 9
BRAC 9
Bach@@ 9
Bel@@ 9
Bush 9
CBD 9
CNH 9
CPJ 9
City 9
Cong@@ 9
Cour@@ 9
Cow@@ 9
Dav@@ 9
Delors 9
Dennis 9
Des@@ 9
Direc@@ 9
Disease 9
Dominique 9
Dre@@ 9
EPA 9
ESDP 9
ESS 9
En 9
Estaing 9
Eug@@ 9
Exchange 9
FS@@ 9
Fat@@ 9
Fer@@ 9
Fin@@ 9
Fiscal 9
Force 9
Franklin 9
GMO 9
Gavi 9
Geert 9
Geithner 9
Giscard 9
Gor@@ 9
Gran@@ 9
HDP 9
Hass@@ 9
Health@@ 9
IA 9
ID 9
ISDS 9
IST 9
ITC 9
In 9
Inclus@@ 9
Income 9
Instit@@ 9
Intelligence 9
Jab@@ 9
Jared 9
Ka@@ 9
LGBT@@ 9
LN 9
Level 9
MDB 9
MRI 9
MSC 9
Magh@@ 9
Management 9
Mand@@ 9
Market 9
Marsh@@ 9
Matth@@ 9
Maur@@ 9
May 9
McCain 9
Met@@ 9
Mich@@ 9
Mike 9
NAIRU 9
Nas@@ 9
Northern 9
Now 9
Nusra 9
Nutrition 9
OONI 9
Obs@@ 9
Ominami 9
Our 9
PD 9
PI@@ 9
PII@@ 9
Phili@@ 9
Pierre 9
Pot@@ 9
PrEP 9
Priv@@ 9
Putin 9
RCB 9
Raf@@ 9
Reform 9
Ron 9
Ronald 9
SBS 9
SC 9
SL@@ 9
SNC 9
SP 9
STEM 9
Sap@@ 9
Sav@@ 9
Scott 9
Securities 9
Shar@@ 9
Sheikh 9
Sin@@ 9
Sti@@ 9
Study 9
Sy@@ 9
T5 9
TARG@@ 9
TIPS 9
Tak@@ 9
Technology 9
Thir@@ 9
Tilly 9
Transatlantic 9
Transd@@ 9
Transparency 9
UK 9
UMNO 9
UNCLOS 9
US@@ 9
Uber@@ 9
Up 9
Up@@ 9
Valley 9
Vent@@ 9
Vis@@ 9
Watsi 9
Werqit 9
Why 9
Wild@@ 9
Wolf@@ 9
YPF 9
acc@@ 9
ade 9
afi 9
akh 9
ald 9
ales 9
alist 9
ancer 9
ando 9
any 9
arian 9
ark 9
ashi 9
atic 9
ato 9
auer 9
avi 9
bank 9
cal 9
cher 9
cio 9
ck 9
cre@@ 9
dar 9
eber 9
ec 9
economy 9
edia 9
ek@@ 9
emex 9
enb@@ 9
enko 9
erc@@ 9
erger 9
ese 9
etermin@@ 9
ey@@ 9
ft 9
gar@@ 9
ge@@ 9
her@@ 9
ics 9
ij@@ 9
illion 9
ime 9
imon 9
inder 9
ington 9
ital 9
kar 9
ky 9
law 9
lim@@ 9
line 9
mas@@ 9
met@@ 9
mond 9
more 9
ness 9
new 9
ning 9
nit@@ 9
oa 9
och 9
ocol 9
oj@@ 9
old@@ 9
op 9
ota 9
ound 9
ouv@@ 9
overy 9
ox@@ 9
pay 9
pon@@ 9
pow@@ 9
ran 9
rap@@ 9
ray 9
ree 9
rel@@ 9
rg@@ 9
rin 9
rom@@ 9
rus@@ 9
rusos 9
should 9
so 9
st 9
the@@ 9
trib@@ 9
tries 9
ty@@ 9
ules 9
ush@@ 9
ust 9
vention 9
ver 9
w 9
war@@ 9
way 9
would 9
zai 9
ê 9
ć 9
ğ 9
š 9
一万亿美元 9
一丝不苟 9
一千 9
一发 9
一号 9
一声 9
一封信 9
一拖再拖 9
一有 9
一枪 9
一概 9
一款 9
一步之遥 9
一比 9
一片狼藉 9
一百多年 9
一线生机 9
一股脑儿 9
一般@@ 9
一试 9
一跃 9
一郎 9
一面镜子 9
七百万 9
万事俱备 9
上千年 9
上升时 9
上层@@ 9
上所述 9
上时 9
下任 9
下水道 9
下院 9
下马 9
不下于 9
不为所动 9
不二 9
不假 9
不凡 9
不加 9
不可告人 9
不在@@ 9
不堪@@ 9
不多见 9
不尽 9
不得已 9
不得要领 9
不恰当地 9
不悦 9
不慎 9
不抱 9
不断加强 9
不来 9
不法@@ 9
不然的话 9
不由@@ 9
不稳固 9
不管怎么 9
不设 9
不误 9
不说 9
不需 9
与此相关 9
丑 9
专制制度 9
专项 9
东方@@ 9
两分 9
两国均 9
两块 9
两德 9
两极化 9
严厉打击 9
丧失@@ 9
个体户 9
中全会 9
中华民族 9
中曾根康弘 9
串通 9
临沂 9
丹尼斯 9
为先 9
主义@@ 9
主导力量 9
主要矛盾 9
主食 9
举起 9
乃@@ 9
之别 9
之巅 9
之怒 9
之春所 9
之财 9
之遥 9
之重 9
之长 9
乌兹别@@ 9
乏 9
乐见 9
九岁 9
乞讨 9
习惯性 9
买主 9
买卖双方 9
了个 9
予 9
事到如今 9
云南 9
云南省 9
五十周年 9
五月份 9
亚裔 9
亚马@@ 9
交付给 9
交易市场 9
交易平台 9
交纳 9
交道 9
产业链 9
产者 9
享 9
享有@@ 9
亮相 9
人像 9
人员@@ 9
人头 9
人才外流 9
人才库 9
人脑 9
亿年 9
什科娃 9
仅剩 9
今秋 9
从中渔利 9
从今@@ 9
仙子 9
令人作呕 9
令人尊敬 9
以利于 9
以北 9
以备 9
以此@@ 9
以眼还眼 9
以降 9
件事 9
价格调整 9
任教 9
企稳 9
伊布拉 9
伊拉 9
伏尔泰 9
伐@@ 9
休战 9
休眠状态 9
优惠待遇 9
优素福 9
会用 9
伟大成就 9
伦理学家 9
伯罗@@ 9
伴@@ 9
伸展 9
伸张 9
低到 9
低层 9
低潮 9
低至 9
体操 9
何为 9
作坊 9
作用力 9
使用率 9
供不应求 9
供应方 9
依赖型 9
侯@@ 9
信使 9
信息处理 9
信息安全 9
信息源 9
信用@@ 9
信贷政策 9
俯首@@ 9
俯首帖耳 9
倍增 9
借出 9
值得称赞 9
倾向性 9
假冒 9
偏重于 9
做一套 9
做市商 9
做得好 9
做来 9
做爱 9
健康人 9
傍晚 9
储备基金 9
储贷 9
僧伽罗 9
儒家思想 9
充分说明 9
充满热情 9
先入为主 9
先辈 9
光速 9
克什米尔地区 9
克劳@@ 9
克劳塞维茨 9
克洛德 9
克罗@@ 9
免征 9
免疫力 9
入世 9
入学考试 9
全体@@ 9
全是 9
全然 9
全盘否定 9
全盘接受 9
八卦 9
八次 9
八百万 9
公主 9
公交@@ 9
公共事业 9
公用设施 9
公诉人 9
六七十年代 9
六种 9
关系不大 9
关键@@ 9
其他@@ 9
其有 9
养家糊口 9
兼容@@ 9
内为 9
内人士 9
内地 9
再接再厉 9
冒险@@ 9
军事战略 9
军火@@ 9
农业部 9
农村居民 9
冤冤相报 9
冰层 9
冰点 9
凄凉 9
凉@@ 9
凋@@ 9
减薪 9
几内亚@@ 9
几千名 9
几场 9
几座 9
几百人 9
几起 9
几轮 9
凯 9
出人头地 9
出其@@ 9
出奇 9
出庭 9
出现@@ 9
出该 9
击垮 9
分一杯羹 9
分布式 9
分期 9
分裂性 9
刚愎自用 9
利他 9
利安 9
利性 9
利物浦 9
到场 9
制冷 9
制肘 9
前无古人 9
前途@@ 9
剑拔弩张 9
割让 9
力军 9
力行 9
功利 9
功夫 9
加固 9
加工@@ 9
加强@@ 9
加德满都 9
加快@@ 9
加油 9
加班 9
劳方 9
勇气@@ 9
勋 9
募捐 9
勿@@ 9
包罗万象 9
匈牙利政府 9
化武 9
北方四岛 9
医用 9
十二年 9
十余年 9
十几年 9
十分艰巨 9
千分之 9
升空 9
华氏度 9
华雷斯 9
协力 9
协商一致 9
协调员 9
博斯 9
卜@@ 9
占上风 9
占优势 9
占星@@ 9
卡塔 9
卡通 9
卡鲁比 9
卫生署 9
危害性 9
危险@@ 9
危难 9
即以 9
历史学 9
历史数据 9
历来 9
原则性 9
原创 9
原始@@ 9
原文 9
去掉 9
县@@ 9
叉@@ 9
双臂 9
双边会谈 9
反恐怖 9
反托拉斯 9
反欧 9
发出@@ 9
发明家 9
发生地 9
取之不@@ 9
取其@@ 9
取自 9
受伤害 9
受孕 9
变化@@ 9
变相 9
变革时代 9
口水@@ 9
古里安 9
句话 9
另一名 9
只字未提 9
可及 9
可取之处 9
可行@@ 9
史蒂@@ 9
号角 9
司令@@ 9
司令部 9
各党 9
各届 9
吉卜@@ 9
同一时间 9
同属 9
同时代 9
同质化 9
名下 9
后来者 9
向南 9
吓坏 9
吓跑 9
吠 9
含蓄 9
吹毛求疵 9
吻 9
呃 9
呈交 9
告罄 9
周五 9
周到 9
周而复始 9
呼之欲@@ 9
呼叫 9
呼吸@@ 9
命运@@ 9
和平利用 9
和平部队 9
和谐@@ 9
咎 9
咽喉 9
哀 9
哈斯 9
哈罗德 9
哈马 9
响起 9
哪些因素 9
哪项 9
哮喘病 9
唯物主义 9
商场 9
商家 9
商机 9
商标 9
商量 9
嘎 9
嘎@@ 9
嘲@@ 9
回头路 9
回顾历史 9
因果 9
团体之间 9
困顿 9
固 9
固体 9
国安局 9
国家所有 9
国家机关 9
国联 9
国营企业 9
国都 9
圆桌会议 9
圆满 9
土著人 9
圣人 9
在一起 9
在押 9
在押@@ 9
地方主义 9
地朝 9
地权 9
地毯@@ 9
地质学家 9
坎普 9
坏帐 9
坐飞机 9
垃圾桶 9
垮 9
埃勒 9
埃尔 9
埃斯特拉达 9
城邦 9
城镇@@ 9
基奇 9
基础科学 9
塌@@ 9
塞浦路斯共和国 9
塞维奇 9
塞进 9
增效 9
增派 9
增长量 9
壤@@ 9
声言 9
夕 9
夕@@ 9
外交辞令 9
外向型 9
外商 9
外围地区 9
多为 9
多半 9
多多少少 9
多如牛毛 9
多态性 9
多米尼加共和国 9
多花 9
夜间 9
大不了 9
大业 9
大众公司 9
大关 9
大区 9
大厅 9
大名 9
大堡礁 9
大幕 9
大开@@ 9
大时 9
大有可为 9
大热 9
大舒 9
大量美元 9
大降 9
天分 9
天文 9
天文学 9
天方夜谭 9
天来 9
天津 9
夫兰 9
失信 9
失能 9
夸耀 9
奈何 9
套用 9
奢@@ 9
奥兰@@ 9
奥古@@ 9
奥古斯@@ 9
奥尔布赖特 9
女权运动 9
奶奶 9
好时机 9
妓院 9
妥善@@ 9
妹妹 9
姐姐 9
威斯康星州 9
威斯康辛 9
威胁性 9
娘@@ 9
子辈 9
字游戏 9
存储@@ 9
存在主义 9
存疑 9
孟山都 9
孤例 9
孤军奋战 9
学生@@ 9
宅邸 9
安全隐患 9
安大@@ 9
安格尔 9
安逸 9
完好无损 9
宏观@@ 9
定势 9
实效 9
实用@@ 9
实践经验 9
客户服务 9
宣传战 9
宪@@ 9
害处 9
害者 9
宴 9
家族@@ 9
宿 9
寄托 9
寇@@ 9
富余 9
富有@@ 9
富翁 9
富贵 9
寸 9
对华政策 9
对本 9
寻觅 9
小泽@@ 9
小船 9
少部分 9
就够 9
就此@@ 9
尺寸 9
尼日利亚人 9
尽责 9
局势稳定 9
层级制 9
居民消费 9
居高临下 9
属国 9
属实 9
履历 9
山谷 9
岗@@ 9
崇高@@ 9
崔 9
川@@ 9
州立大学 9
州际 9
工作效率 9
工学院 9
工资@@ 9
巨大@@ 9
巨大作用 9
巨擘 9
巴尔加斯 9
巴尔古 9
巴萨 9
巴西@@ 9
市场营销 9
市场运作 9
布斯 9
布特 9
帕内@@ 9
帕斯夸尔 9
帕特里克 9
平克 9
平均主义 9
平方英里 9
平稳过渡 9
平等@@ 9
年利率 9
年报 9
年用 9
年轻@@ 9
并令 9
幸运儿 9
广泛@@ 9
床上 9
库斯 9
库马 9
库马尔 9
底斯 9
底气 9
店主 9
店铺 9
废纸 9
康复@@ 9
康涅狄格州 9
开会讨论 9
开垦 9
开局 9
开拓@@ 9
开放度 9
异想天开 9
弃@@ 9
弃儿 9
式化 9
弓@@ 9
引起@@ 9
弗拉@@ 9
弯曲 9
强制@@ 9
强加于人 9
强弱 9
强暴 9
强盛 9
强项 9
归化 9
归还给 9
当代@@ 9
当新 9
当着 9
当该 9
录像带 9
录制 9
录取 9
彰 9
征服者 9
征程 9
得病 9
循环往复 9
微软公司 9
德国式 9
德尔@@ 9
心碎 9
心跳 9
必备 9
忆 9
志在 9
怒江 9
思考@@ 9
急切需要 9
急待 9
性恋 9
怪物 9
总公司 9
总局 9
总死亡率 9
总算 9
总要 9
恐 9
恐怖集团 9
恐惧感 9
恣意妄为 9
恩惠 9
恼@@ 9
悠@@ 9
悬浮 9
情人 9
情势 9
惟@@ 9
惨状 9
惩处 9
惩治 9
想过 9
惴@@ 9
意志力 9
感官 9
感染@@ 9
愧@@ 9
慷慨@@ 9
戈夫 9
成为@@ 9
成功@@ 9
成功者 9
成风 9
我用 9
战争贩子 9
战团 9
战斗部队 9
戴维斯 9
戴蒙德 9
房东 9
所剩无几 9
所提 9
所长 9
打成 9
打碎 9
扔@@ 9
扫 9
扰@@ 9
扳机 9
批驳 9
技术升级 9
技术细节 9
技艺 9
投产 9
投资选择 9
抗旱 9
抗药 9
折叠 9
抚慰 9
护卫 9
报端 9
拉丁@@ 9
拉奎 9
拉长 9
拓@@ 9
招工 9
拨出 9
持不下 9
指甲 9
指纹 9
按钮 9
挟持 9
捆住 9
捕捉到 9
捞@@ 9
捡@@ 9
捣@@ 9
捷列 9
掂量 9
授 9
授信 9
接触面 9
接连 9
控方 9
控枪 9
推延 9
推演 9
描@@ 9
提夫 9
提斯 9
揭竿而起 9
搅局 9
搞清 9
摄 9
摄像头 9
摄像机 9
摄取 9
摩加迪沙 9
撑起 9
撩@@ 9
撮合 9
收割机 9
收录 9
收益@@ 9
改成 9
改换 9
放入 9
政教合一 9
政治理念 9
教育体制 9
散地 9
散居 9
敬佩 9
数名 9
数百个 9
数百英里 9
整年 9
文斯 9
斐 9
斯威士兰 9
斯巴达 9
斯洛伐克@@ 9
斯顿 9
新华社 9
新发明 9
新机遇 9
新来 9
新法 9
新的@@ 9
新规 9
新闻周刊 9
方在 9
旗舰 9
旗鼓相当 9
无为 9
无人问津 9
无价 9
无可挑剔 9
无处 9
无意间 9
无时无刻 9
无期徒刑 9
无根 9
无畏 9
无疾而终 9
无类 9
无遗 9
日复一日 9
日本天皇 9
时机@@ 9
时钟 9
时间跨度 9
昆德拉 9
昌@@ 9
易行 9
显著@@ 9
显身手 9
晋@@ 9
晋身 9
晴@@ 9
智人 9
暗地里 9
更多更好 9
更想 9
最令 9
最合适 9
最新进展 9
最高级 9
有大 9
有效@@ 9
有率 9
有限@@ 9
朋 9
服务性 9
朝鲜族 9
朦胧 9
木头 9
末到 9
本案 9
机动车 9
机车 9
杀伤 9
权之争 9
条件@@ 9
条线 9
杯@@ 9
杰伊 9
杰米 9
极地 9
极大地提高 9
极长 9
林斯 9
枪杆子 9
枯燥 9
枯萎 9
染@@ 9
查克 9
查出 9
柯拉 9
柳@@ 9
核准 9
核废料 9
核心思想 9
核辐射 9
根本利益 9
格利 9
格外 9
格纳 9
格雷戈里 9
桀骜不驯 9
框定 9
桌上 9
桌子 9
梅在 9
梦寐以求 9
检查人员 9
棍 9
森林@@ 9
椭圆 9
楼继伟 9
概念性 9
模特 9
模糊性 9
横亘 9
橡皮图章 9
欠妥 9
欧债 9
欧洲地区 9
欧美地区 9
欧锦赛 9
歌唱 9
正义战争 9
正反@@ 9
正宗 9
正式化 9
正当程序 9
正比 9
步步为营 9
武 9
武器装备 9
武装集团 9
死亡@@ 9
死硬 9
母语 9
比上 9
比夫 9
比比 9
比绍 9
毛泽东思想 9
毛派 9
毫@@ 9
毫不动摇 9
毫不妥协 9
毫发 9
毫无效果 9
毫无顾忌 9
氏菌 9
民事诉讼 9
民航 9
气旋 9
氧化@@ 9
氯@@ 9
水体 9
水兵 9
水分 9
水危机 9
水土流失 9
水流 9
水电@@ 9
求援 9
汇率变动 9
汉娜 9
汗@@ 9
汗颜 9
汽车贷款 9
沃尔沃 9
沈阳军区 9
沙米尔 9
沙里 9
没想到 9
法兰克 9
法国式 9
法宝 9
法律手段 9
法律顾问 9
法比尤斯 9
泡影 9
泡沫经济 9
波峰 9
泪水 9
泰尔 9
泰米尔猛虎组织 9
泼@@ 9
洛克比 9
洪涝 9
活在 9
活活 9
洼 9
流亡@@ 9
流动@@ 9
流将 9
流民 9
浓重 9
浦 9
海法 9
消减 9
消耗战 9
涡轮 9
淀 9
淀粉 9
淫 9
深刻印象 9
深奥 9
混业 9
混合物 9
混合经济 9
混沌 9
渊@@ 9
渊源 9
渔业@@ 9
渗透率 9
渺小 9
源地 9
溺水 9
滞留 9
滥伐 9
滥觞 9
漏出 9
演讲者 9
潜藏 9
潮水 9
濒临@@ 9
火花 9
灭火 9
灭顶之灾 9
灯光 9
灯泡 9
炼金@@ 9
烟尘 9
热能 9
焚@@ 9
照射 9
照料 9
熔毁 9
熟视无睹 9
爱丽丝 9
牟取 9
牢靠 9
特加 9
特雷斯 9
犯罪者 9
狂人 9
狂躁 9
狠@@ 9
独立@@ 9
独立宣言 9
狭@@ 9
狼藉 9
猛烈地 9
猜@@ 9
猥@@ 9
猴子 9
玩得 9
玩意儿 9
现代版 9
现实存在 9
现实意义 9
现正 9
现行制度 9
现金@@ 9
珊 9
球菌 9
球赛 9
理当 9
理性@@ 9
琉@@ 9
瑰@@ 9
生存空间 9
生物化学 9
生物能 9
生而 9
生育权 9
甲醛 9
电力系统 9
电波 9
电视直播 9
电路 9
电车 9
男生 9
画出 9
界@@ 9
畏缩 9
略作 9
疏导 9
疲 9
病毒传播 9
病毒感染 9
瘾@@ 9
癫痫 9
登月 9
白喉 9
皇后 9
皇宫 9
盆@@ 9
监管局 9
盗 9
盘剥 9
盘旋 9
目的性 9
直接税 9
相传 9
相撞 9
相权 9
看空 9
看门人 9
真像 9
真实@@ 9
真纳 9
真面目 9
眨眼 9
眼前@@ 9
睦 9
瞎 9
知识@@ 9
石油换 9
码头 9
砝码 9
破天荒 9
确凿@@ 9
磁石 9
社群 9
祈求 9
神化 9
神坛 9
神社 9
祟 9
福尔@@ 9
离家 9
私人化 9
私房 9
私有财产 9
科克伦 9
科医生 9
科文 9
秘方 9
秘鲁@@ 9
租房 9
移居@@ 9
穆阿 9
空洞@@ 9
突尼斯人 9
窜@@ 9
立下 9
童话 9
符合国家 9
第一副 9
第一支 9
第三年 9
第二届 9
第二类 9
第五版 9
第五纵队 9
第八@@ 9
笼箱 9
等闲视之 9
筋地 9
筏 9
筒 9
简 9
管理体制 9
管理模式 9
管辖区 9
管道工 9
箱子 9
箴言 9
篡@@ 9
篱笆 9
粪 9
粪便 9
粮价 9
精 9
精力充沛 9
精干 9
精确@@ 9
精美 9
糊弄 9
糖果 9
系统对 9
素姬 9
索引 9
紧要关头 9
红场 9
纬度 9
纳夫 9
纳尔 9
纳斯塔 9
练习 9
细化 9
经济合作组织 9
经纪 9
经验不足 9
结余 9
结出 9
结社 9
绘画 9
绝好 9
绝路 9
绝食 9
统一性 9
统计@@ 9
绳索 9
维尔@@ 9
综合体 9
缓缓 9
缕 9
编织 9
缩减到 9
罕@@ 9
罗宾逊 9
罩袍 9
署长 9
美国商务部 9
美帝国主义 9
美洲国家 9
美资 9
群龙无首 9
羽翼@@ 9
翘@@ 9
翻身 9
老手 9
考古 9
而会 9
而入 9
而设 9
耗油 9
聂@@ 9
职人员 9
职守 9
联名 9
联通 9
聚在一起 9
聚拢 9
聚首 9
肃@@ 9
肃清 9
肠 9
股利 9
股市市值 9
股票指数 9
肥皂@@ 9
肥胖症 9
肯尼思 9
育出 9
胚胎学 9
胡子 9
胥黎 9
胰岛素 9
能用 9
脆弱不堪 9
脏 9
脑筋 9
腕 9
自信心 9
自决权 9
自助@@ 9
自吹自擂 9
自尊心 9
自我牺牲 9
自由职业 9
自绝 9
自该 9
舒 9
舒缓 9
舒默 9
艾奥@@ 9
芝麻街 9
芬兰人 9
芭芭拉 9
苍白 9
苏丹人 9
英军 9
英国广播公司 9
英美两国 9
范本 9
茫然 9
茶叶 9
草原 9
药企 9
莫及 9
莫大 9
莱赫 9
萨姆 9
萨马拉 9
落到实处 9
落得 9
葡萄糖 9
蒋@@ 9
蒙蒂@@ 9
蒙骗 9
蒸蒸日上 9
虎视眈眈 9
蜗@@ 9
融洽 9
行动@@ 9
行医 9
衍生物 9
街区 9
补给@@ 9
表扬 9
表演@@ 9
表示@@ 9
表面@@ 9
衬 9
衬@@ 9
被调查者 9
裁 9
裂解 9
西南 9
西装 9
覆盖@@ 9
观赏 9
规制 9
规约 9
视察 9
解剖 9
触手可及 9
誓 9
警察局 9
订购 9
训练@@ 9
议事 9
讲台 9
讳言 9
许许多多 9
讹诈 9
讽刺性 9
访印 9
访问@@ 9
证据@@ 9
评审 9
词典 9
诡辩 9
该病 9
该省 9
该税 9
该药 9
诫 9
语义 9
误用 9
说些 9
诺贝尔文学奖 9
调高 9
谈谈 9
谋杀案 9
谢里 9
谬@@ 9
贝尔@@ 9
贝淡宁 9
贝阿 9
负反馈 9
财物 9
败下阵来 9
货币@@ 9
货真价实 9
贩@@ 9
贪污腐败 9
贵金属 9
贸易国 9
赋税 9
赦免权 9
赫斯特 9
赫里 9
走访 9
走近 9
起头 9
超额完成 9
趋于稳定 9
足球赛 9
跨文化 9
路边 9
路过 9
跳水 9
跻身于 9
踊跃 9
踏 9
踏入 9
踢@@ 9
踵 9
车间 9
转嫁 9
转运 9
转述 9
轮盘 9
软弱无能 9
轰动 9
载入 9
载入史册 9
辗@@ 9
边界@@ 9
边界地区 9
达拉斯 9
过关 9
迈得 9
运动场 9
运输机 9
近期内 9
还清 9
这三项 9
这些年来 9
这出 9
这台 9
这条线 9
这般 9
进出口银行 9
进取心 9
进口税 9
远古 9
远方 9
连根拔起 9
连锁店 9
迪亚 9
迪南 9
迫@@ 9
迷局 9
追回 9
退却 9
退潮 9
适应环境 9
适用范围 9
逆风 9
选址 9
透顶 9
逐步@@ 9
通讯业 9
逻辑@@ 9
遇@@ 9
遍布全国 9
道格拉斯 9
遗传变异 9
遭致 9
遵纪守法 9
邀@@ 9
邓 9
那会 9
那样@@ 9
邦交 9
邦政府 9
都是 9
重大损失 9
重庆市委 9
重新安排 9
重新点燃 9
野火 9
金白银 9
钢铁行业 9
银行界 9
铺张浪费 9
铺路 9
锈 9
锤子 9
长子 9
长效 9
长河 9
长篇大论 9
长袖善舞 9
长足进步 9
门面 9
闭一只眼 9
闭门@@ 9
问卷调查 9
防扩散 9
防范措施 9
阵亡 9
阿克@@ 9
阿尔卑@@ 9
阿尔瓦罗 9
阿斯@@ 9
阿斯匹林 9
阿波菲 9
阿西夫 9
附着 9
陆 9
降为 9
降落 9
限量 9
除以 9
除少数 9
除草剂 9
随从 9
隐匿 9
隔开 9
隔离@@ 9
难以达到 9
难以逾越 9
难民所 9
雅鲁藏布江 9
集会自由 9
集体性 9
雌性 9
雕 9
雪崩 9
雷克斯 9
雷德 9
需求方 9
霄@@ 9
霍布斯 9
霍费尔 9
霸 9
静观其变 9
非营利性 9
鞭@@ 9
鞭挞 9
韧劲 9
顶替 9
顺利进行 9
顽抗 9
顿涅茨克 9
预先确定 9
领会到 9
领到 9
领导岗位 9
颓废 9
颜面扫地 9
颠@@ 9
颤抖 9
风起云涌 9
食者 9
食言 9
饮食习惯 9
饰 9
饶 9
饶恕 9
饼干 9
馆@@ 9
马列主义 9
马可 9
马州 9
马德@@ 9
马拉@@ 9
马赛 9
马赫迪 9
马龙 9
驯@@ 9
驳 9
驶@@ 9
驾 9
骗人 9
骨干 9
骨髓 9
高且 9
高人一等 9
高密度 9
高等@@ 9
高级将领 9
高速路 9
高高在上 9
魔盒 9
鱼翅 9
鲁宾 9
鲁比 9
鲍尔 9
鲜见 9
鳄 9
鸠山由纪夫 9
鸵@@ 9
麦克阿瑟 9
麻木 9
麻醉 9
黑塞哥维那 9
黑山 9
黑格尔 9
黑熊 9
默不@@ 9
黛安娜 9
黩武 9
齐尔 9
龄@@ 9
龙卷风 9
04 8
06 8
105 8
118 8
138 8
13@@ 8
157 8
1701 8
175 8
185 8
1881 8
189 8
1911 8
192 8
1922 8
1935 8
2023 8
2200 8
401 8
444 8
470 8
480 8
490 8
520 8
540 8
570 8
68% 8
760 8
83% 8
930 8
94% 8
@ 8
AF@@ 8
ASAT 8
Adam 8
Administration 8
Adua 8
Affairs 8
Akerlof 8
Alberto 8
Ales@@ 8
Anderson 8
Angus 8
Ann@@ 8
Ara@@ 8
Asian 8
Aw@@ 8
BL@@ 8
BU 8
Bac@@ 8
Ban 8
Bashar 8
Boehner 8
Brothers 8
CDC 8
CER 8
Ca@@ 8
Cam@@ 8
Carl 8
Cas 8
Chall@@ 8
Chand@@ 8
Charl@@ 8
Charter 8
Children 8
Chris 8
Citiz@@ 8
Claud@@ 8
Connell 8
DA 8
DP@@ 8
DVD 8
Daw@@ 8
Def@@ 8
Democr@@ 8
Dialogue 8
Dimon 8
Dougl@@ 8
ECSC 8
EP 8
Eh@@ 8
Eli@@ 8
Employment 8
Energ@@ 8
Eng@@ 8
Enr 8
Equity 8
Ever@@ 8
FAO 8
FC@@ 8
FCL 8
Federic@@ 8
Feldstein 8
Forces 8
Fukuyama 8
Future 8
GDP0 8
GFE 8
Gab@@ 8
Gall@@ 8
Gates 8
Geor@@ 8
German 8
Glass 8
Good@@ 8
Gur@@ 8
Hawley 8
Hel@@ 8
Hollande 8
ICANN 8
IU@@ 8
Independ@@ 8
Institutes 8
Insurance 8
Irving 8
It 8
Jan 8
Japan 8
Jens 8
Joint 8
Jor@@ 8
Kem@@ 8
Kennedy 8
Kir@@ 8
Ko@@ 8
Kob@@ 8
Koch 8
LO 8
Land 8
Libor 8
Life 8
Lim@@ 8
LinkedIn 8
London 8
Lord 8
Ludwig 8
MBS 8
MDR 8
MK@@ 8
Macron 8
Marco 8
Mari@@ 8
McK@@ 8
Mic@@ 8
Migration 8
Mit@@ 8
Mitch 8
Mog@@ 8
Muhammad 8
NAP 8
NBA 8
NDB 8
NP@@ 8
Nab@@ 8
New@@ 8
Novar@@ 8
OBP 8
OM@@ 8
Obama 8
Od@@ 8
Olam 8
One 8
Orwell 8
Os 8
PI 8
PPI 8
PRI 8
Pan@@ 8
Patient 8
Pon@@ 8
Principles 8
QE1 8
QE2 8
RMBS 8
Raw@@ 8
Ref@@ 8
Reid 8
Repor@@ 8
Revolutionary 8
Rock 8
Rou@@ 8
SARS 8
SCE 8
SG 8
SWFs 8
Sant@@ 8
Serv@@ 8
Shab@@ 8
Shah 8
Shah@@ 8
Sher@@ 8
Si 8
Si@@ 8
Siegel 8
Sing@@ 8
Sk@@ 8
Skype 8
Smith 8
Smoot 8
Socialist 8
Soros 8
SpaceX 8
Special 8
Spence 8
Stat@@ 8
Stra@@ 8
Strategic 8
Strategy 8
Stream 8
Stuart 8
Stud@@ 8
Syn@@ 8
TB 8
Ter@@ 8
Tes@@ 8
Tim 8
Tom@@ 8
Tsar@@ 8
Tus@@ 8
UKIP 8
UNICEF 8
WF 8
Wel@@ 8
Willi@@ 8
Work 8
Yar 8
Youth 8
ZIRP 8
aa 8
activ@@ 8
ago 8
agreement 8
ahn 8
aid 8
ancy 8
anne 8
anos 8
aqu@@ 8
ardo 8
ated 8
ation@@ 8
aug@@ 8
bill 8
ble 8
bra@@ 8
bri@@ 8
bs@@ 8
bur 8
ci 8
cia 8
creditors 8
cur@@ 8
dad 8
def@@ 8
dev@@ 8
development 8
dge 8
din@@ 8
down 8
ear 8
eas@@ 8
eau 8
economic 8
economics 8
eda 8
eign 8
ej@@ 8
els 8
elson 8
emission 8
ems 8
enberg 8
enh@@ 8
eni@@ 8
ense 8
ep 8
eral 8
erm@@ 8
esc@@ 8
escu 8
esh@@ 8
etti 8
evel@@ 8
flation 8
fos@@ 8
ga 8
gan 8
hard 8
ides 8
ila 8
ilton 8
iness 8
ini@@ 8
instit@@ 8
irst 8
ista 8
istory 8
italism 8
itch@@ 8
itz@@ 8
leb@@ 8
lu 8
mental 8
mid@@ 8
ney 8
ni 8
nier 8
nik 8
novation 8
ocracy 8
oil 8
oint 8
olidar@@ 8
omics 8
ool 8
ott 8
ough 8
ould 8
ources 8
ox 8
oz@@ 8
para 8
party 8
plus 8
politics 8
prehen@@ 8
project 8
prot@@ 8
quez 8
rad 8
rat@@ 8
rights 8
rimin@@ 8
ring 8
rise 8
rist@@ 8
rup@@ 8
sci@@ 8
sha@@ 8
side 8
social 8
tag@@ 8
tain 8
tats 8
tern@@ 8
tha 8
tica 8
tim@@ 8
tis 8
trade 8
tt@@ 8
ture 8
ub 8
ues 8
ular 8
ultural 8
ump@@ 8
ural 8
urity 8
uto 8
vestment 8
vind 8
we 8
will 8
zo 8
ú 8
一个个 8
一个多月 8
一二 8
一共 8
一刻起 8
一夫@@ 8
一家独大 8
一对一 8
一小@@ 8
一文不值 8
一枝独秀 8
一片@@ 8
一百八十度 8
一知半解 8
一英里 8
一行 8
一锤定音 8
万多亿美元 8
三代人 8
三届 8
三岁 8
三心二意 8
三百年 8
上传 8
上加@@ 8
上当 8
上策 8
上线 8
上证指数 8
上证综指 8
下个 8
下于 8
下岗 8
下岗工人 8
下风 8
不予@@ 8
不介意 8
不倒 8
不假思索 8
不合逻辑 8
不在此列 8
不宜 8
不归@@ 8
不悖 8
不情 8
不惮 8
不懈努力 8
不济 8
不消 8
不绝 8
不长 8
丑恶 8
专业人才 8
专利权 8
专利法 8
专家团 8
专责 8
专门从事 8
且@@ 8
世界卫生 8
业者 8
东南 8
东印度 8
东边 8
东面 8
两分法 8
两国应 8
两手@@ 8
两架 8
两步走 8
严刑拷打 8
丧 8
个人账户 8
个子 8
个点 8
中华@@ 8
中央电视台 8
中所处 8
中日@@ 8
中流砥柱 8
中约 8
丰富@@ 8
串 8
串通一气 8
临头 8
临床@@ 8
为时@@ 8
为的是 8
为鉴 8
主办者 8
主宰权 8
主导者 8
主演 8
主线 8
主要@@ 8
义务教育 8
之功 8
之末 8
之深 8
之王 8
之职 8
之门 8
乌卢 8
乔治@@ 8
乔治敦大学 8
乘以 8
书本 8
乳制品 8
争得 8
事上 8
事已@@ 8
事端 8
二三十年 8
二十三 8
二十周年 8
二手@@ 8
二氮 8
二选 8
云集 8
亚军 8
亚历山@@ 8
亚当斯 8
亚德 8
亚文化 8
亚洲@@ 8
亚纳 8
交响乐团 8
交界处 8
交融 8
交通堵塞 8
交通设施 8
产业工人 8
产权@@ 8
人工岛 8
人带 8
人意 8
人才@@ 8
人权宣言 8
人满为患 8
人贩子 8
亿比索 8
仅能 8
仆 8
今年以来 8
介意 8
仍不愿 8
仍为 8
仍停留 8
仍陷 8
从业 8
从天而降 8
从容@@ 8
从属 8
从零开始 8
付之东流 8
付诸实践 8
代表@@ 8
令人生厌 8
以身作则 8
以远 8
企业破产 8
伊克 8
伊兹 8
伊斯兰会议组织 8
伊朗@@ 8
伊本 8
众怒 8
会来 8
会议记录 8
传唤 8
传奇@@ 8
传播@@ 8
传播速度 8
传教 8
伯伦 8
伯恩 8
伯恩斯坦 8
伯顿 8
伺@@ 8
低人一等 8
低垂 8
低收益 8
住宅建设 8
住院@@ 8
佑 8
体格 8
体检 8
体面地 8
何不 8
作恶@@ 8
佣 8
佣人 8
佩奇 8
侍者 8
供气 8
供水系统 8
供求@@ 8
依样画葫芦 8
侧重 8
侯 8
促进@@ 8
俄克拉荷马 8
保人 8
保卫@@ 8
保安@@ 8
保留地 8
保镖 8
信仰自由 8
信奉者 8
信息量 8
信托公司 8
修剪 8
修改@@ 8
倒置 8
倚赖 8
借着 8
值得一提 8
倾覆 8
假肢 8
做秀 8
停歇 8
健康@@ 8
偷漏税 8
偷窃 8
催泪弹 8
兄@@ 8
充分证明 8
先进武器 8
光凭 8
光谱 8
光顾 8
克兰 8
克曼 8
克林@@ 8
克鲁兹 8
免去 8
入伍 8
全局性 8
全球排名 8
全面实施 8
公共行政 8
公安@@ 8
公款 8
公诸@@ 8
六周 8
兰花 8
共济 8
共犯 8
共计 8
关掉 8
关灯 8
关照 8
关节 8
兴奋不已 8
其三 8
其上 8
具体化 8
具体步骤 8
典籍 8
养成 8
养老@@ 8
内人 8
内化 8
内含 8
内心@@ 8
内所 8
内置 8
再临 8
再好不过 8
写给 8
军团 8
军校 8
军用@@ 8
农业投入 8
农夫 8
农奴 8
冲冲 8
冲浪者 8
决策@@ 8
决胜 8
冷水 8
冻 8
凄惨 8
准确无误 8
准绳 8
减速@@ 8
几篇 8
凡人 8
凯尔特 8
出世 8
出借 8
出比 8
出让 8
出走 8
出过 8
函 8
函@@ 8
刁难 8
分业 8
分子生物学 8
分拆 8
分晓 8
分流 8
分类@@ 8
切不可 8
切实@@ 8
切尔西 8
列格 8
创始国 8
创收 8
创新@@ 8
初等教育 8
初露端倪 8
判例 8
别列佐 8
制衣厂 8
刺客 8
刻薄 8
前南 8
前奏 8
前沿@@ 8
前走 8
剪 8
力促 8
劝阻 8
办成 8
功利主义 8
加仑 8
加冕 8
加布里埃尔 8
加热 8
加薪 8
加里@@ 8
动画 8
动真@@ 8
动脉 8
努力争取 8
努力提高 8
努瓦耶 8
劫难 8
劳动所得 8
劳工市场 8
劳资@@ 8
勇敢@@ 8
勒布 8
勘@@ 8
包装@@ 8
化为泡影 8
化油 8
北美洲 8
北非国家 8
匪 8
区划 8
医科 8
十万@@ 8
十个月 8
十八个 8
十四@@ 8
十字架 8
千人 8
升幅 8
半数以上 8
协约国 8
卑躬屈膝 8
南岸 8
南端 8
南美洲 8
博取 8
博学 8
博尔@@ 8
博达文 8
博鳌 8
卡罗 8
卡诺 8
卡车司机 8
卡里亚 8
卡马拉 8
印第安人 8
危在旦夕 8
却没能 8
却说 8
厂@@ 8
历者 8
厥 8
去往 8
双刃剑 8
双输 8
反分裂法 8
反叛者 8
反对声 8
反导 8
反面@@ 8
发债 8
发光 8
发售 8
发展部 8
发来 8
发源 8
发生爆炸 8
发电机 8
受援 8
受辱 8
变大 8
变故 8
叛国罪 8
叠 8
古巴政府 8
另起炉灶 8
可以信赖 8
可塑性 8
可得 8
可治 8
可视化 8
可辨 8
台阶 8
史家 8
史密@@ 8
叹 8
吁求 8
各家 8
各种因素 8
各自为战 8
合作@@ 8
合而为一 8
吉列 8
吉尔吉斯 8
吊 8
同仇敌忾 8
同位 8
同党 8
同感 8
同龄 8
名声大噪 8
后于 8
后勤@@ 8
后果@@ 8
向右转 8
吝@@ 8
含混不清 8
含糊其辞 8
含糖 8
吸引@@ 8
周边环境 8
呼风唤雨 8
和保罗 8
和尚 8
哈伯 8
哈勃 8
哈拉雷 8
哗然 8
哪家 8
唐 8
唯利是图 8
唱反调 8
商业价值 8
商业界 8
商品生产 8
商标@@ 8
喀喇昆仑山 8
善变 8
善恶 8
善行 8
喊话 8
喧闹 8
喷气 8
嗜血 8
嘈杂 8
嘉吉 8
嘴巴 8
嘴炮 8
噱头 8
囚 8
囚室 8
回溯到 8
回荡 8
因其 8
因在 8
固定资本 8
固执己见 8
国基 8
国外市场 8
国家环保@@ 8
国家税收 8
国富论 8
国教 8
国界线 8
国防军 8
国际争端 8
图案 8
图灵 8
图谱 8
土地利用 8
在生活中 8
地板 8
地热能 8
场馆 8
坎波 8
坏主意 8
坚 8
坚定@@ 8
坠 8
坦承 8
垃圾堆 8
垫脚石 8
埃塞俄比@@ 8
埃塞俄比亚政府 8
埃维昂 8
埋怨 8
城市热岛 8
基本前提 8
基本点 8
基本粒子 8
塑造成 8
塔夫 8
塔诺 8
塞尔维亚人 8
塞满 8
塞纳 8
塞舌尔 8
填充 8
增值税率 8
复兴@@ 8
复萌 8
夏末 8
外太空 8
外观 8
外资企业 8
多事 8
多得 8
多快 8
多轮 8
多迪克 8
大不一样 8
大哥 8
大方向 8
天大 8
天然@@ 8
太过分 8
夫斯 8
失踪者 8
头像 8
头子 8
头戴 8
头把交椅 8
头疼 8
头脑@@ 8
夹击 8
夹缝 8
奇妙 8
奇异 8
奈尔 8
套路 8
奠@@ 8
奥尔默 8
奥斯卡@@ 8
好些 8
好心 8
好象 8
如今已是 8
如常 8
如期 8
如此说来 8
妄自尊大 8
妥协性 8
妹 8
姿@@ 8
威廉姆斯 8
威斯@@ 8
婆@@ 8
婉@@ 8
媚 8
字面上 8
存贷款 8
孜孜@@ 8
学徒@@ 8
学期 8
守势 8
安全法 8
安全阀 8
安宁 8
安纳托 8
完全@@ 8
完完全全 8
完成使命 8
宗族 8
官场 8
宜居 8
宝贵@@ 8
实施者 8
审阅 8
家庭主妇 8
家用电器 8
容器 8
宽广 8
宽慰 8
宽裕 8
寄主 8
寄居 8
富士康 8
对华贸易 8
对局 8
对持 8
对日元 8
对症下药 8
对面 8
寻常@@ 8
导游 8
封杀 8
封顶 8
射击 8
尊崇 8
小商店 8
小型企业 8
小小 8
小幅度 8
小组@@ 8
少年@@ 8
少数几家 8
尔巴@@ 8
尖锐对立 8
尖锐批评 8
尚且 8
尚存 8
尚属 8
尤利@@ 8
就此结束 8
尼卡 8
尼基塔 8
尼雷尔 8
尽可能减少 8
居伦@@ 8
居留权 8
届@@ 8
展开讨论 8
屡屡 8
履@@ 8
履行义务 8
山上 8
峡@@ 8
峻 8
崇敬 8
工业区 8
工人失业 8
工作制 8
工作日 8
工商界 8
左右两派 8
左右为难 8
巨大成就 8
巨无霸 8
差别@@ 8
差异化 8
差得 8
差错 8
已能 8
巴基@@ 8
巴士@@ 8
巴士拉 8
巴斯德 8
市政当局 8
布罗 8
布隆迪 8
帅 8
师资 8
希伯@@ 8
帕帕季 8
帕罗 8
席会议 8
常任 8
常会 8
平添 8
年产量 8
年制 8
年史 8
年幼 8
并不@@ 8
并不矛盾 8
并无二致 8
并行@@ 8
并进 8
幸免于难 8
庄重 8
序言 8
库尔 8
应由 8
庙@@ 8
废钞 8
康多莉 8
庸俗 8
建交 8
开征 8
开心 8
开曼群岛 8
弃之@@ 8
弗尔 8
弗林特 8
弗氏 8
弗莱@@ 8
弘扬 8
张伯伦 8
张力 8
强心剂 8
强硬手段 8
归宿 8
当心 8
当晚 8
彭博社 8
彭斯 8
影业 8
彼岸 8
彼得大帝 8
彼特 8
往前 8
待毙 8
律 8
律性 8
得名 8
得票数 8
御@@ 8
循环@@ 8
循规蹈矩 8
微博 8
微量元素 8
德利 8
德勒 8
德怀特 8
德林 8
德森 8
心力 8
心机 8
心理治疗 8
必由之路 8
忍耐 8
忧郁症 8
快捷 8
怀德 8
怀揣 8
怎 8
性化 8
性犯罪 8
怨言 8
怪人 8
总归 8
总统@@ 8
总署 8
总预算 8
恢复健康 8
恤@@ 8
悍 8
悔恨 8
患儿 8
患病率 8
情绪高涨 8
惊愕 8
惕@@ 8
惟一 8
惨不忍睹 8
惯@@ 8
想尽办法 8
想想看 8
意味深长 8
感到恐惧 8
感谢@@ 8
愤懑 8
懊@@ 8
懦夫 8
戏谑 8
成倍 8
成名 8
成熟度 8
成问题 8
我敢 8
战利品 8
战绩 8
战舰 8
截留 8
房市 8
所在@@ 8
所应 8
所设 8
手势 8
手机@@ 8
扑 8
打击犯罪 8
打通 8
托克 8
托德 8
执政@@ 8
扭转@@ 8
承受@@ 8
技师 8
技术水平 8
抄 8
投进 8
抗癌 8
折射出 8
抢掠 8
抢走了 8
抵抗力量 8
抽象概念 8
抽走 8
担 8
担责 8
拉什迪 8
拉响 8
拉塔 8
拉斐尔 8
拉纳 8
拉贾@@ 8
拉辛 8
拉达克 8
拉霍伊 8
拖下水 8
招牌式 8
拥堵 8
拥核 8
择@@ 8
拾@@ 8
指名道姓 8
指挥棒 8
挺过 8
挽@@ 8
捐出 8
换个 8
换算 8
捧 8
据传 8
授精 8
掌舵 8
掐@@ 8
排除@@ 8
掠@@ 8
探测 8
接下去 8
接受程度 8
控制中心 8
推给 8
措 8
掷地有声 8
摄入量 8
摊@@ 8
撇清 8
撞机 8
撤职 8
操办 8
操弄 8
擦边球 8
收容所 8
收据 8
改动 8
攻击@@ 8
放射 8
放射@@ 8
放火 8
政治腐败 8
政治避难 8
政治阴谋 8
政策主张 8
政策性 8
政纲 8
敌对态度 8
救济@@ 8
教父 8
教者 8
敬爱 8
敬重 8
数不尽 8
数以千万计 8
数千条 8
数字@@ 8
数百位 8
数种 8
整体性 8
整固 8
整齐划一 8
文人 8
文化部长 8
斋月 8
斜@@ 8
斜坡 8
斥之为 8
斩获 8
斯大林格勒 8
斯特罗姆 8
斯蒂@@ 8
新兴势力 8
新年伊始 8
新房 8
新生@@ 8
新疆自治区 8
新策略 8
新纪元 8
新词 8
新钞 8
新闻频道 8
新鲜血液 8
施工 8
施暴 8
施米 8
旁遮普@@ 8
族长 8
无一@@ 8
无一人 8
无业 8
无以@@ 8
无伤大雅 8
无名@@ 8
无故 8
无法比拟 8
无瑕 8
无用功 8
无穷@@ 8
无线电 8
无解 8
无路可走 8
既成 8
日俄战争 8
日到 8
日嚣尘 8
日益壮大 8
日盛 8
日耳@@ 8
日至 8
早婚 8
旱 8
时世 8
时日无多 8
时用 8
时过境迁 8
明尼@@ 8
明文禁止 8
明治维新 8
明特费林 8
明确@@ 8
星期一 8
昨日 8
晓 8
普罗@@ 8
普遍@@ 8
景仰 8
智能化 8
暑 8
暖化 8
暖流 8
暗指 8
暴力手段 8
曝光率 8
更优 8
更妙 8
曼联 8
替之以 8
替代选择 8
最不坏 8
最常 8
最易 8
最能体现 8
有之 8
有何@@ 8
有加 8
有条@@ 8
有百@@ 8
有色人种 8
有量 8
朝令夕改 8
朝日新闻 8
未成年 8
未注册 8
未能@@ 8
本月底 8
本特 8
本科 8
朱莉 8
杂货@@ 8
杜罗@@ 8
极一时 8
极右派 8
极点 8
极端@@ 8
构 8
林地 8
果然 8
果糖 8
果腹 8
枝 8
枪决 8
枪手 8
染 8
树敌 8
树枝 8
校学生 8
核武器库 8
核泄漏 8
核潜艇 8
根本变化 8
格里斯 8
桑地诺 8
桑斯坦 8
梁 8
梁@@ 8
梅尔@@ 8
检察@@ 8
检查员 8
检索 8
棉兰老岛 8
棍棒 8
棚户区 8
棱@@ 8
棺材 8
楚@@ 8
楼价 8
概念@@ 8
概莫能外 8
榴@@ 8
次于 8
欢腾 8
欣然接受 8
欺压 8
款人 8
款额 8
歌剧 8
止步不前 8
止痛药 8
正统@@ 8
正统思想 8
正途 8
正道 8
步调 8
武力威胁 8
死于非命 8
死对头 8
死硬派 8
毅力 8
母校 8
毒化 8
毒瘾 8
比值 8
比利 8
比尔特 8
比拟 8
比用 8
毕业典礼 8
毛利 8
毡 8
毫发@@ 8
民主决策 8
民主权力 8
民用航空 8
民营化 8
气价 8
气概 8
氧@@ 8
氯 8
氯喹 8
氰@@ 8
水能 8
永无 8
永生 8
求学 8
求生 8
汗牛充栋 8
江湖 8
汪洋 8
汽车产业 8
沆瀣一气 8
沈@@ 8
沈阳 8
没人@@ 8
河道 8
沸腾 8
沾染 8
沿岸地区 8
法国巴黎 8
法学家 8
法律依据 8
泡@@ 8
泡沫@@ 8
注册@@ 8
注销 8
泰党 8
泼 8
洁@@ 8
洋洋@@ 8
洗劫 8
洗脑 8
活到 8
活性 8
流亡者 8
流行音乐 8
测量@@ 8
浓@@ 8
浓厚兴趣 8
浩大 8
浴缸 8
海事 8
海外@@ 8
海岛 8
海洋资源 8
海马 8
浸 8
消息灵通 8
消防 8
涉案 8
涡轮机 8
液态 8
深刻反思 8
混合@@ 8
渎神 8
渗@@ 8
渠 8
渡 8
渣 8
渣@@ 8
温泉 8
游击战 8
游击战争 8
游行者 8
湿 8
滑稽@@ 8
滚滚 8
满怀@@ 8
满是 8
满足需要 8
漏水 8
演奏 8
漠@@ 8
[...]
